11010
1111111111101011
1111111111110011
11111
1111111111111100
1111
111111
1111111111011011
1111111111100111
11100
1111111111111001
11010
1111111110111001
1111111111110101
1111111111100110
1111111111011001
1001
1111111111110001
1111111111111111
1111
1101
1111111111001111
1111111111101110
1111111111111011
1111111111111100
1111111111101000
0
1111111111101110
1111111111101010
1111111111100010
100110
1111111111110101
11100
1111111111101101
1111111111010010
1111111111100110
1111111111001001
1111111101101111
1111111101100101
1111111101101001
1111111011010111
1111111101010011
1111111011111001
1111111011011010
110100
1111111101101101
1111111101000110
1111111100111010
1111111111100001
1111111111111110
1111111111100111
1100
1111111111111100
1111111111000101
1111111111011100
100010
1110
10001
1111111111110001
1111111111010101
111000
10011
1111111111101101
1111111111100111
1111111111110100
11111010
1111111110101110
1111111101111011
1111111110000110
100010
1111111101110101
1111111110101000
1111111111111111
1111111010010101
1111110011111111
1111110111100000
1111111011100101
1111111011111101
1111111011001000
1111111101110100
10011
1101100
1111111111111110
1111111111111010
101100
0
1111111110111011
111011
100
1111111111101111
10100
1111111110110000
10100000
1000110100
1001000010
1010010101
1000111011
1001011100
11111
1111111010110001
10111111
1111111110100010
1111110110101100
1111110110110111
1111110111111010
1111111100001100
1111111010010011
1111111000111100
1111111101011111
100110
100101
11100
1111111111011100
10101
1111111111110111
10001
1111111110010011
1111111111110010
10001100
100011101
111101010
10000000000
10001100111
1010110001
110101100
1101111
11011000
101111
100010010
11110000
111011010
1000101001
110110000
1111111101001110
1111111000111101
1111110111111110
1111111101110111
11111
1111111111111101
100000
110
1111111111100101
0
1111111110110010
1111111111011111
1111111110011111
11100101
1010110111
1010000100
1100100000
1001111110
1010101110
1000100001
11011111
101111
110111
1001100000
111011
110010
1111111000011100
1001101
100110110
11100
1111111100001100
1111111010111111
111001
111001
11101
1000
1111111111011100
1111111111011100
1111111101010101
1111111101001101
100111
11
100111100
1111111110010001
101111110
1111101111
101001111
11111001
1010011110
111011011
1011011100
1100000100
10001001
11110001
100000000
1111111011111101
1111111101100111
1101000
1111111010111100
1111111001010010
1111111100011011
1111111111100100
1111111111011111
10001
11100
1111111110111000
1111111111111001
1111111011111101
1111111100110011
1001
11000000
1001011101
11000100
101110011
101101001
11000100
1001000010
110001011
10101110
110101
101011011
11010011
101011100
1111111100100101
1111111110111001
1001010110
1111110110110100
1111111000100110
1111111101000111
11010
1100
1000
1111111111010010
1111111110110110
1111111110101101
1111111111000100
101110110
1111111011100110
1111111101100010
1111111110001111
1111111011111110
11010101
111110011
111001010
1101010
10101010
110110110
1000101011
100111110
100000011
101001011
1011100
111001
10110000
1111111010101100
1111111000001011
1111111110000101
1100
10011
1111111111001101
1111
1111111111000110
1111111010110110
1111111111000011
111011
1111110111101010
1111110011111101
1111111000010011
1111111111101001
1111111100000110
1111111111110111
110010111
1111111010111110
1111111101100100
101101010
1010
1111111110110100
10100001
100011100
1111110001011011
0
1111111111100011
1111111001111011
1111110111010110
1111111110000010
1111111110110000
1001
1111111111111111
1111111111111111
1111111110110011
1111111010110101
1111111001010100
1111111001001111
1111110110011110
1111101111010011
1111111000101011
1111111010101110
1111110110011101
1111101111010101
1111101100000101
1111100100000110
1111101110100001
1111110110101100
1111111100001010
10110100
101001100
1111111011000001
1111111010001101
1011011
1111111010111100
1111111001100000
1111111011111000
1111111110100011
1111111111110111
10001
1111111111101110
11
1111111110010101
1111111100000010
1111110110011011
1111110001110000
1111100100111010
1111100010100010
1111100101011011
1111011110110001
1111011110011100
1111101000000101
1111101001011110
1111011100100111
1111101011110000
1111110100110001
10111010
1111111011011011
1111111011011101
1000011000
1111111100111001
1111110110100010
1111111001011100
1111111110101110
1111111110100110
101101
1111111111000101
10
1111111111101001
1111111111010111
1111111110001111
1111111010110011
1111110001011111
1111101011110001
1111011000101011
1111011000011001
1111100000011101
1111011111100011
1111101100001111
1111101110111101
1111110011101000
1111111000011000
1111111110110100
1111111011011110
1111111110100101
1111111000010011
1111111111110100
1010001
11110110
1111111010100001
1111111001011111
1111111111011110
100001011
101101001
1011011
1011
10000
1111111111011010
1111111111111001
1111111011001000
1111110010111101
1111101111110111
1111101101010010
1111110011111010
1111111001101100
1111111111100110
11001101
100000010
100010101
1111111110101011
1111111111001010
1111111100000001
1111111101100011
1111111010011111
1111111101100000
1111110100000101
11000
1111111110011001
1111111001100001
10000
10111001
101110001
1100001
111111
100010
1111111111010111
1111111111011011
1111111011100000
1111111011001110
1111111001100011
1011000100
1100001111
111111
111110100
1111111111101000
110110000
101010101
1000010000
11001010
1111111010001110
1000110
1111111001011101
111111000
100100
1111111101111101
1111111110000010
1111111110001111
1111111100100000
1
11000000
111000001
11001
1011
1111111111101111
1111111110011011
1010010
1111111111111010
111101010
1111101010
10010111
100100000
1001010100
1111111101101010
1001010
10
111111000
1111111100010111
110000110
101011000
1111111111101111
1111111011011011
111010
1111110101100001
1111111011100010
1111111001010010
1111111101000100
101100111
1010010
11101101
1111111111111010
10
1111111111010110
1111111111101001
101100101
100010000
1001111
1101001001
101000011
10101
110011100
1111111110001000
110011
101111000
1011010101
110001110
10111010
1101101
1110
1001110
101001100
1111111011010101
110110000
11111000
11100100
101011100
10100000
100110110
1111111111110000
1111111111110011
1111111111010100
1100010
100110111
1001000111
10100011
1010001111
1000110
111000100
110
11001100
1111111001111010
111001
1111111100001110
110001000
111001010
100000
101010001
1000010100
1111111111010110
1001101
1110010
1111111111110101
1010
10011001
111100100
11110111
1111101
1111111111111001
1111111111111001
1111
10000010
100010101
1010010001
10001011
1111111111100011
100010101
10010110
1111111111111111
1111111010101011
1111111101001001
10101101
1101001
1111111111111010
11001111
110011
100010001
101001010
10110001
11011101
1000100
1010011
1011010110
1101011111
100101001
10100001
1111111111010011
11000
1111111101010000
1111110
10100101
10011011
1111111001101010
100001101
1111111110111100
1111111110001001
1111111001000010
11110011
10100111
100001
0
111000101
1111111111101101
1001010
11100001
10010000
111101001
1000101010
1000110010
101110000
1110100100
110101001
10010101
11000
11011
1111111111110110
1111111110011001
100100100
111010000
1101111010
1101101
101100001
111001101
1111111110110010
1111111110010100
100111100
1111111110100100
1111111011101110
1111111010000111
1111110111011110
10000100
1111111010001101
1111111101000010
1111111110010001
1111111010011111
1111111011011010
1111111101100110
101100101
1000100111
11100
1111111111011010
110011
1111111111010100
1111111111110111
10010000
1100111
101010111
1000000011
10010011
1001010
100010011
11110100
1100000
1110011
101010
1111111011010001
1111111001011010
1111110010011000
1111111010110000
1111111001011011
1111111011000111
111000
101111
1000111111
1101111
111001011
110101000
100110
10100111
1111111111110001
11001
1111111111100000
11001001
1011010
101011111
110010000
1111110110010100
1111111110011001
100100
1111111000011111
1111111110101100
11100001
11110
1111110001101011
1111111011011100
1111110100000010
1111111100111011
1111111000010000
1111111011001100
1110111
10011111
1111111111100111
10100111
111100110
1000110111
1111111111011101
1111111111001010
1111111111111111
1111111111111101
1111111111010100
110111
1111111111001111
1111111111100100
1111111101111010
1111111001010101
1111111101100111
1111110100110011
1111111011011011
1111110100000000
1111111100001011
1111111110011001
1111110110000011
1111111100100000
1111111010100011
1111110001011111
1111101110111001
1111111000110100
1111110100101101
1111111000010010
110001101
110000101
100001001
1001010000
1111111111011000
10111
1
1111111111100010
111
10010
1111111110010011
11000
1111111111111001
1111111010110111
1111111110011110
10010110
1111111001101001
1111110011110010
1111111011001110
1111111101110110
1111111111110101
10110000
10111011
1111111000001001
1111111111101000
1111111101000011
1111110101101000
1111110110001010
100000
10011110
1111111111011110
100001010
11001011
1100010
1111111111110011
100100
1111111111010101
1111111111110110
1001111
10101001
10000011
1010010
10100100
1111111110100110
1001011
11111001
1010000
11000111
1111111110011101
1111111111000110
1001000001
101011000
100011101
1111111011100111
1111110100111000
1111111001010001
1111111100011010
1111111111001010
1111111101111110
100110
1000001
10000001
11010
1111111111101010
101010
1111111110111100
1101
10111
1111111100101100
1111111101100100
1010000
101110
1100
11110100
11000000
100100011
11100001
10
1111111111001101
1000000
1111111111101000
1001
110110
1111111111011011
1111111111001101
1111111110110111
1111
1111111111111010
110101
1111111111111001
11011
1001011
1111111111110000
111001
110111
11
1101
1111111111110000
1111111111111011
1111111111101100
1111111111111001
111011
1111111111001011
1011
11101
1111111111100001
11001
1111111111110010
100
1111111110101011
10100
110011
10111
1111111110010010
100100
10110
1111111111100111
11000
1111111111011010
