111111
1111111111111111
1110
1111111111100110
1111111111101011
111010
10111
1111111111010000
10000
100101
101001
100
10
1111111111101011
10101
1111111111110001
1111111111110001
1001
10101
1111111111100100
1111111111110010
1111111111011001
10110
1111111111011101
101110
1101
1101
1110
1
1111111111011011
1111111111101011
11111
1111111111111100
1000
1111111111010001
1111111110110010
1001111
101111
101011
1111111111010110
1111111111100110
1111111111101100
1111111111111111
10100
11000
0
1111111111110110
1111111111110011
101011
1111111111111011
1111111111110100
1111111111111110
10101
1111111111110110
1111111111101010
1111111111101011
110100
1111111111111011
101111
111111
11100
10100
1111111111101110
1010
1111111111111111
1111111111111101
1101
1111111111110011
111000
11101
110110
1111111111011010
1111111110111010
100011
1111111111111110
1101
1111111111001011
100010
1111111110111100
1111111111000011
1111111111101000
1111111111110111
1001
1111111111111101
1111111111110101
100010
1111
1111111111100000
1111111110111011
1111111111110110
1111111111001011
1011
1111111111111111
1111111111101001
10100
1111111111010101
1111111110111100
1111111111111000
100011
1111111111111000
1111111110111111
1111111111111001
10111
1111111111010010
1111111111101011
1111111111001111
1111111111110010
1111111111000100
1111111111111010
10
1111111111101011
1111111111101110
100111
1111111111000011
1111111111101110
1111111111110101
100
0
1111111111010111
100100
1111111111111110
0
1111111111110100
1111111111111100
100001
1010
0
1111111111010110
110001
1111111111111101
1111111111110011
101100
10111
100111
10000
1111111111110001
11101
10000
100110
0
1111111111110111
10010
1111111111111111
100000
1111111111110011
1111
1111111111010010
11001
101001
1111111111110100
1110
11000
1000011
101100
1111111111011010
101100
1111111111111110
10110
101001
101
1111111111101000
11110
1111111111000001
1111111111100111
1000
1111111110111111
1111111111110001
0
1111111111100001
1111111111011100
100011
11011
1111111111110001
1011
1111111111011110
1011
101
11101
1111111111010001
110010
110100
1111111111011011
1000
110000
1111111111101101
101
1111111111111111
1111111111000100
100
1111111111111110
1111111111010001
10100
11101
11100
1111111111010110
11110
101011
1110
111001
1111111111110001
1111111111111010
1010
1110
1111111111111000
10101
1111111110110110
1111111111111110
1111111111011010
100101
10111
1111111111101011
1111111111010001
11101
1001111
1111111111111110
100011
11010
10000
1111111111101001
1111111111001011
1111111111111000
1111111111101011
1111111111101110
1111111111101100
100111
10
1111111111011101
101001
1111
1111111111110010
1111111111110101
1111111111111011
10110
10
101
100
1111111111010101
0
1111111111101011
111
1111111111100110
1111111111101010
1111111111110010
10000
1111111111011101
1111111111100011
101011
1111111110110101
1111111111011001
1001000
10110
1000
1111111111000101
0
101001
101
1000101
111
110000
1111111111011100
1111111111110001
1101
101010
10101
1100
1111111111110101
1110
1100
101001
1011
110000
0
1111111110111001
100000
1111111111101011
1111111111101100
1111111111110010
1010
11000
110111
1111111111100001
11111
10110
10
1111111111101101
1000
1001001
11
10
1111111111001001
1111111111011011
1111111111101011
1001
1111111111010000
11111
1111111111110110
1111111111101101
1111111111110001
100010
1
1010
1111111111101100
1111111111100100
1001
11100
11
1111111111100110
1111111111100101
1001
1111111111110010
1111111111110011
1111111111010010
1111111111111110
1111111111111101
0
11110
1111111111101001
1010
10011
0
101111
1111111111101000
1111111111001111
1111111111011110
1111111111010010
0
100
110
101
1111111111100011
1111111111100011
100
1111111111100111
1111111111100110
110100
1111111111100100
0
1111111111101111
1111111111001111
1111111111011110
1110
110
101001
1111111111101111
1111111111110100
0
1111111111101011
0
1111111111101010
100
1111111111101110
1111111111101000
1101
1111111111111000
101
1111111111000010
101001
1111111111111000
0
1111111111111110
1111111111110000
1111111111011011
1111111111001001
1111111111010001
1111111111101000
1111111111110111
10100
1111111111001100
100000
1111111111110001
10010
11101
1111111111111001
1111111111011101
100001
1111111111100000
1111111111101001
1001
1111111111010011
10111
1111111111110000
10010
1111111111010000
1111111111110001
1111111111100101
1100
10
1111111111111111
1111111111011111
111111
1111111111011000
101010
1111111111111011
1111111111110001
11111
1111111111111010
1111111110111101
1110
1111111111101111
10101
1111111111110101
11
1111111111111111
11
1111111111101011
111001
110101
1111111111100101
100
1111111111011000
100011
10011
10111
1111111111100110
11000
1111111111110100
0
110001
100001
101111
1111111111101011
10
1111111111111011
1111111111010100
1
10
1111111111100000
1111111111110111
0
1000
110
110
1111111111010101
1111111111100011
111000
10010
1111111111101010
100
1111111111110011
1111111111110110
11
1111111111100101
1111111110111101
1111111111100101
1111111111110000
1111111111111000
1111111111101101
1010
1111111111110100
11111
1111111111100011
1000
11100
1111111111010110
1111111111010010
1111111111100110
1111111111111110
101011
1111111111011011
100001
101010
1111111111110110
1111111111011100
1111111110110110
111110
1111111111010011
10
111
1111111111111101
10001
1111111111110001
100
1010
101
1111111111100101
1111111110111011
1111111111111001
1111111111110110
1111111111111100
10101
1111111111010011
1111111111100111
1111111111110010
10110
11111
1100
0
1111111111110111
1111111111010010
1111111111110011
1111111111110100
1111111111011110
11000
1001
1111111111111011
1111111111100011
1111111111100101
101101
1111111111111100
1111111111011111
1111111111011010
1000
1111111111001111
1010011
1111111111101110
100
1111111111010110
101010
11011
1111111111100001
1111111111010100
1111111111001100
11000
1111111111110010
1111111111011101
1111
1111111111111111
111011
11
0
1111111111001010
1001001
100
100001
1111111111000011
1111111111110101
11011
1111111111101110
1111111111100001
111
1001
1111111111111111
1111111110110100
10100
111
1111111111010110
10011
1111111110111100
1111111111000100
1111111111100100
1111111111010100
1111111111111000
1111111111011001
0
1111111111111111
1111111111111111
1111111111111010
10010
10001
1111111111101011
0
1111111111110111
110010
10101
11
1111111111110101
1111111111100011
1111111111011010
11110
10010
110
1110
1000
10
1111111111001101
1111111111110100
1111111111000000
1111111111101000
11000
111001
110
1111111111101110
101010
11011
10000
100001
1111111111111100
1111111111110100
1111111111101011
1111111111101101
10101
1111111111101000
1111111111110011
1111111111110101
101111
111
1111111111111111
1111111111110111
0
1111111111111100
100110
11001
10011
1
1001
10110
110001
1111111111010011
1010
100001
1111111111111100
0
1111111110110010
1111111111101100
100100
11
110010
1111111111001101
1111111111000011
1111111111100000
1111111111111101
11010
111
1111111111001001
1
1111111111110111
1111111111100010
10000
10001
1111111111100110
0
111100
10111
1111111111010011
101000
1111111111110010
10000
1100
1111111111101011
10101
111
1111111111100101
1111111111110001
1010001
1111111111011111
1111111111110101
1111111111101100
110011
0
10010
10011
100000
1111111111001101
1111111111111001
1001010
1011
10100
1111111111101100
10
1111111111011010
100000
1111111111100100
1111111111010010
1000
1111111111101011
1111111111000101
1111111111111011
11101
1111111111101001
1111111111110011
1111111111111100
1000
10110
1111111111011110
10
1111111111101100
1111111111101101
1111111111100011
100111
11110
1111111111001100
100010
11100
101100
10110
10001
1001100
11001
1111111111011000
100000
1111111111100101
1111111111111000
10000
1111111111100011
1001
100100
10111
1111111111010011
1
1111111111011100
1111
11110
100010
1111111111101000
1111111111110011
10
1111111111010111
101
101001
0
1111111111111111
1111111111100010
1111111111101111
1111111111011010
100100
1111111111111000
0
1111111111101011
1111111111101101
1111
1111111111111001
1000011
100010
11011
101011
1111111111011011
10111
1011
1001010
10100
1111111111011000
1111111111110001
1111111111110011
10011
1111111111110010
1110
1111111111110110
100011
1111111111011001
11110
1111111111101010
1111111111111101
1
1111111111010100
10100
11001
10000
1111111111111000
1100
1111111111111011
0
1111111110110111
1111111111101000
10001
1111111111111010
1111111111110101
1111111111100100
1111111111100001
1111111111000110
100
1001
1111111111101010
1010111
100101
100111
1111111111011010
101101
101010
10100
1111111111010100
110
1110
100101
11111
1111111111000100
10011
11101
111011
111111
1101
10011
1111111111111001
1111111111111101
1
101001
111111
1111111111111000
1111111111111011
1111111111101011
100100
10111
10101
1111111111101111
1111111110011100
