11001
101
1111111111111000
11010
10100
1111111111110100
101011
1111111111111100
10011
0
1111111111011110
1011
1111111111101001
1111111111100010
1111111111010010
1111111111011011
1100011
100001
1001
1111111110101011
111
10110
10000
11000
11100
1111111111101100
11100
110110
1111111111110011
1111111111101010
1111111110110010
1101
1101
110001
1111111111111001
10000
1111111111011111
1111111111111100
1111111111100000
11010
1111111111010001
1111111110111001
1111111111111100
111111
1111111111100001
11
10111
1101
1111111111101101
1111111110110111
110111
1000
100
10110
100001
1111111111111010
11010
1111111111100001
1000111
110001
1111111111110000
101111
1111111111101001
11000
1111111110111110
1111111101011000
1111111101110111
1111111110001100
1111111101001001
1111111011111010
1111111001110001
1111111101010000
1111111100110110
1111111101010100
1011001
1000010
101110
100101
1111111111011101
111
101000
10010
101011
10100
1011
11000
11111
1111111111011110
1111111111100000
110110
1111111110111011
1001000
1111111111100110
1111111010100011
1111110110111110
1111111000100110
1111110111111001
1111110110010000
1111110100000001
1111111100111000
1111111010001000
1111111011100011
1111111110111101
1111111100000100
1111111011001101
1111111011111110
1111111011100001
1111111101000010
1111111011111010
1111111111101001
1111111111100101
111
1111111111100011
1111111111100011
1111111111001010
1111111111101111
1111111111111011
1110
11000000
1110101
1111111100101000
1111111001011100
1111111100111110
110100000
1010001
1111111111111110
1111111011010010
100
101100010
1010110
110011011
1111111111010010
1111111
1111111110001011
1111111101010111
1001100
1111111111101110
1011001
101000
1001010
1111111111110000
1011
1111111111011000
0
1111111111111011
1011101
100011001
11001000
1111111111101101
11010100
10011
1110101110
100110110
110010110
1111111110010000
1111111010110000
10101100
1011000001
1111111100011110
1111111111011101
100000010
1100111
101101101
10111000
1111111111111100
11100111
11100
1111
10010
1111111110100100
111100
1111111111100101
1001100
1101
11011110
110011011
111111100
1000001001
100100010
1010110001
1000111001
101101101
10011
1001111
1010111
100001000
100000110
101010111
100010110
10000110
100111111
1001111110
1001010110
1111110
1111111101111011
1111111110110011
1111111111101100
11
100000
1111111101010011
1111111110101101
1111111100110010
100101111
11001001
1001010000
11100101
1011010001
11101111
110001111
110000000
1111111101010011
100011111
111100101
11001111
1111111110111101
101000111
100011101
10010011
1111111010000100
110
1001011
11110111
1101
1111111111011011
1111111111110110
1111111111110010
1111111
1111111110001000
1111111001110010
1111111011111010
111100010
101100010
101011000
111100000
101100111
110010001
100111101
11110000
1011010
10000101
101001111
1111111111011010
111111100
1100001001
1111111100001000
1111111101110110
1111111101000111
11111100
111110011
110110001
11010110
101000
0
1111111111000010
1010
10000
1111111101001110
1111111111110101
111001010
11000111
1111111101110010
1111111110110000
1111111111001010
10011100
1111110111110011
1111111101100000
110
1111110000110101
1111111001101010
101011000
1111110110101111
10101111
100011010
111110010
101001101
110101101
111111001
111111011
100000010
1111111111000101
1100
1111111111111010
11
1111111111010010
11010001
100100001
1111111101110111
1111111100110100
11001110
1111111111001001
101011001
100101101
110000111
11001001
1111111010101101
1111111010110100
101100101
1111111010110111
10110100
1011110
1101100
1111111110011111
101101100
1100001010
1111101
101011001
10100110
1111111111100111
1101
11010
1111111111001010
100110
1000000101
1010000101
10000101
110100100
1100100010
101001101
101001001
1110000
1111111100010011
100011001
1001111001
1000110010
101111011
111101100
101101010
1111111100110111
111110000
1000010010
110011111
1010101100
1100000010
1000011111
111100111
100011
100111
1111111111101101
1111111110101100
11000110
1100100111
1110001111
100011100
110101010
1111111100110000
1100000
101111000
1111111111100010
1111111110011111
100101
1010100010
1010101
1111111111101100
1011100101
10000001
110110111
1001101011
1000101110
10010110
111111001
111011011
11000011
11100111
1111111111101001
1111111111101000
1111111111011101
1111111111001000
100100000
1011001110
100010010
10111
100
101
1000000101
1111111111111011
1101001001
1100001010
1100001110
1101001101
1011101001
11110000
10011111
100110
111000100
1001001110
110100101
101000110
1111111111011101
100100
10110101
10
10011
100
1111111111110011
1111111111010111
1111111110001101
1111111111010111
1111111011101100
1111111010111001
1111111101100101
10001010
1111111011001001
1111111101001101
1111111110000110
1100
1001011011
111100001
11101011
111111100
11001110
101111
1111111110010010
1111111000000010
1111111101011011
1111110110101110
1111111000111011
1111111011110001
1111111011001001
1111111101000110
1111111110111110
1000
111001
1111111110100000
1111111011111111
1111111001111011
1111111101010001
1111110110010000
1111111101011010
1111111110011010
1111111011111101
11011110
101110000
1001010010
100001011
100000000
10100000
1000110010
1111111011010110
111101010
1111111001000100
1111110010111000
1111110110000110
1111111001001101
1111110111110000
1111111010010101
1111111000110110
1111111101001111
0
1111111111011100
110
10001
1111111100011101
1111111001110101
1111111010000101
1111111101101000
1111110101101000
1111111111111101
110110100
111000111
10100111
111011001
110101001
110011010
11101100
1111111111111100
1111110111001011
1111111100110000
1111101110011110
1111110010010100
1111110110001001
1111111000101010
1111111010010111
1111111000100000
1111110101011100
1111111011100110
100010
1111111111100111
1110
10100
1111111110000111
1111110110100001
1111110110110010
1111111100011001
1111110110100000
1111110100111111
1111111001110011
1111110010110010
11010111
101101101
1100011010
100101100
1111111011111011
10000
1111110001100101
1111110101100110
1111110110010010
1111111111111000
1111111111001100
1111110111001101
1111111100000101
1111111100011010
1111111001000100
1111111110010100
11110
1111111111011111
111
1010010
1111111110110110
1111110110011010
1111111011101110
1111110111000101
1111111000100101
1111101101010110
1111111000100110
1111110100101000
1111111100100011
1111111101110110
1010011
1111111010100101
1111110010010111
1111101101100010
1111110100010101
1111101111000010
1111110001011100
1111111011110101
1111110111111001
1111110111100010
1111111000010001
1111111100010110
1111111100110101
1111111111011000
1111111111111011
100101
1111111111010111
111100
1111111010011010
1111110111010011
1111111010000101
1111110111110101
1111110110110000
1111111001101011
1111111010010001
1111110110001111
1111100111001000
1111101001011111
1111101101001011
1111101111101101
1111101110010010
1111110111001011
1111110101100111
1111110001000111
1111110011110000
1111110110111000
1111111000101011
1111110101010011
1111111011001100
1111111111110010
10100001
1111111111010110
1111111111111001
1111111111100100
11101
100100
1111111011110001
1111111010001001
10001
1111111110101101
1111110111100101
1111
1111111110001101
1111111010100011
11111001
1111110101110111
100101100
1111111000011001
1111111011110000
1111111010100000
1111110111011110
1111111010000110
1111111111101011
100111001
11001000
11010101
1111111011001000
1111111101001100
1111111111010110
1111111111000011
10000
1
1111111111111110
1111111111111001
10
1010001
100111000
101100011
101100101
10001010
101000001
1100
11100000
100011101
1111111001001000
1111111100011001
100001111
1100000
10011110
1111111011101111
1111111100010101
100101010
1111111011011100
1111111001101111
1111111010001100
1111111111000101
1111111111010111
1111111111011111
1111111111010110
100
1111111111100101
1111111110100100
1111111110001101
1111111110111111
1111111100100101
11010110
11101001
1111111101110011
1111111010100110
1101010
111001011
1111111101000100
10101
11101100
1111111000111100
1111111101000111
101010011
111001000
1111111110010101
1111111110111001
1111111001010100
1111111100110010
1101
1111111101110011
1111111110100010
1000
10000
1111111111101110
0
1110
1111111110110011
1111111110000010
1111110110100000
1111111000110101
1111111011000111
1000110001
1111111011000100
1111111000101011
1111111100111000
1101111
1000011011
1111111011111011
11001101
111011101
1111111100110000
100110
10010001
1111111101111111
1111111101010001
1111111111010101
1111111111011101
1111111110001010
1111111101110100
1000
111111
0
1111111111011110
100
101
1000001
1111111101100101
1111111100101011
1111111110110110
11000011
1111111011011001
101100011
1111111111101110
100110110
110011000
100101
1111110111111011
1111111011101001
1111110101001011
1111111010110010
100000100
111111010
1111111110001011
1111111101110101
1011
1111111100111110
1111111101100001
1111111111101011
1111111110111101
1111111111010010
1111111111110000
1100
10
1111111111110101
1110001
11111100
1000010001
111100101
110001000
1000111001
11110101
110110100
1000111010
111101000
1111111110001100
110101000
110110110
110100011
1011100101
1001110000
11000101
100000
1111111111011001
1111111111011011
1111111111011111
1111111111010111
100010
101
100010
1111111111101010
100000
1100100
10010110
10111110
100011111
10000010
11000100
10110000
10011001
100101001
101011001
1001000111
111110111
111100110
1000100111
111011101
100110111
101100100
101010011
111100
1111111111111110
1111111111111011
1010
1111111111110011
1111111111111001
1111111111110001
11000
111
1101
1111111111100011
10101
1111111111100000
110110
101100
1111111111111111
1111111111101110
100011
1011
11101
1010111
1011001
100011
1001101
100001
10001
1001001
1111111111111011
11101
10000
1111111111111110
1100
100
10100
