1111111111100111
1111111111011100
1110
1111111111101011
100
110
1111111110111101
1111111111001010
1111111111010000
1111111111110100
1111111111111100
11
1111111111101001
1111111111101101
1111111111101011
11110
1111111110110001
1111111111100110
10001
1111111111011111
1111111111011010
10110
110110
1111111111011110
11001
1111111111001000
10000
1111111111111101
100000
1111111111010011
0
1111111111101100
0
111001
1010110
1111111111001101
1111111111111110
1111111111100110
1111111111111010
1111111111011000
1111111111101101
101111
100111
11011
1110
1111111111101101
1001
1111111111101101
1111111110111011
1111111111010110
110101
10010
101
1011
1111111111110101
1111111111110000
110000
1111111111001000
10100
11101
11110
100111
10110
1
1000
1111111111110110
1111111111111000
110110
1111111111011010
1111111111011010
110010
10100
1111111111001000
110
0
10001
1110
1111111111101111
11111
0
1000011
10101
1111111111100010
10000
10001
1
1111111111111101
100100
100101
100101
1101
1111111111100100
1111111111111100
1111111111100101
1111111111001111
1111111111111011
101000
100010
11011
111110
11001
1010
1111111111101010
1000100
110
110101
10000
1011
1111111111110010
1111111111111110
1111111111111101
1111111111111001
10001
1111111111110010
1111111111011010
1111111111100111
1111111111111001
1001
100000
1111111111100111
1111111111110011
10011
110001
1111111111101001
11000
0
1111111111110111
100
1111111111110111
100
1111111111110111
101001
1111111111100110
1111111111011000
101
1111111111111110
1111111111011101
1111111111110001
1111111111110100
1111111111100000
11001
1111111111011100
1001011
11111
100101
110100
1111111110110101
1111111110111001
11011
10100
101011
1111111111100111
110
1111111111111101
100
1111111111000100
1111111111110011
101110
1111111111011100
1111111111111010
1111111111110000
1111111111110111
1111111111101100
1010
11
1111111111100000
10110
1111111111110001
110
1111111111101100
1111111111100111
1111111111001001
110
1111111111001111
1111111111010010
1111111111110111
101000
110111
10110
1111111111010011
1111111111100011
1111111111011010
1111111111111101
110
11001
1111111111101110
1111111111101011
10011
10011
1111111111111100
101100
1111111111101010
1111111111110100
1111111111100001
1111111111110010
1111111111011110
1111111111111110
1000
100
10100
10110
1
101001
1111111111111011
11
1111111111001111
1111111111111000
1111111111000010
101010
1010
1111111111011011
1111111111100111
1111111111000001
1111111111101000
1111111111111101
0
1111111111110100
1110
1101
1100
10
1111111111110111
1111111111111111
1111111111100001
1111111111110010
100000
100110
101000
1111111111111100
111110
1111111111111000
1111111111100110
1111111111111001
1111111111001011
110110
110011
1111111111101101
111101
1011
100111
11110
101110
1
1111111111101010
1001
1000
1111111111111001
1000
0
0
1111111111110101
1111111111111100
10000
101
101110
10110
1111111111111101
0
1111111111100010
101011
1111111111011111
1111111111111111
10101
11010
1111111111111000
1111111111101101
1111111111111110
0
1111111111110101
1111111111110010
1011
1111111111101110
101110
1111111111110000
1111111111111010
11
1111111111100110
1111111111110101
1100
1111111111101010
10100
1111111111001010
101011
1111111111111010
11
101010
1111111111100100
1111111111111100
100011
111100
1111111111010000
0
1111111111001110
1111111111100110
1111111111011000
10001
1111111111111100
10110
1110
1111111111111010
1111111111101111
1100
1111111111110001
1111111111010100
1000
10100
11000
1111111111011010
10110
111011
101011
1111111111001110
1111111111111001
1111111111101101
11
1111111111111111
1111111110110100
10110
10011
1011
10101
1111111111101011
101001
1111111111010010
1111111111110111
1111111111100010
110
1111111111101000
11000
1
1111111111101011
0
101001
1100
1001101
1111111111111111
1111111111110001
1111111111101101
11001
10011
101001
1111111111101100
10000
1111111111100101
1111111111000111
10111
1111111111110101
1111111111100010
10100
1111111111110100
1100
11111
11111
1111111111010010
1
1111111111010110
110
1111111111100011
11001
0
1111111111111111
1111111111110110
0
1111111111100101
1010
10
1111111111101100
110001
11010
10000
1111111111101011
1111111111100001
11011
1111
1111111111111101
10010
11100
110011
1111111111110010
1111111111111010
1111111111101010
111101
1111111110110001
111101
1000000
1111111111101001
110000
1111111111001000
110100
110
101
0
100011
1111111111011001
100011
1111111111101101
1111111111100100
1111111111110010
1011
11111
1111111111101011
1111111111011011
1111111111111111
1111111111111001
1001
10001
1111111111100100
1111111111010111
101
1111111111011101
1111111111111000
1111111111100100
100000
1111111111100100
10101
1111111111011110
1111111111010010
10001
1111111111010010
1111111111011111
1111111111000010
1111111111110010
110110
10000
1111111111011111
10001
110
0
1111111111111100
100000
101011
1110
1111111111011100
1001
1111
11100
1101
101111
11010
100
0
1111111111010001
101001
110011
10001
1111111111100101
110
1111111111111011
1111111111110110
1111111111111100
10001
1111111111110011
1111111111011000
1111111111101001
1111111111111000
10000
101110
1111111110111100
1111111111101110
1111111111111000
1
1111111111001011
1111111111111010
100111
10001
1111111111011001
110100
0
1111111111110100
1111111111110010
1111111111101111
101001
111001
10101
1111111111110100
10110
1001
111100
1111111111110001
101001
1001
1010
1111111111010100
1010
1111111111110100
110
101001
10101
1111111111111010
1111111111111100
1111111111110101
1101
110011
11010
1111111111110001
1111111111011001
11
10010
1111111111100111
10110
10011
10111
11101
11110
1111111111001001
1001
1111111111110010
1111111111100111
100000
1111111111111010
1111111111001011
1111111111101110
1100
1111111111101110
1111111111010011
1111111111110011
1001010
1111111111011111
1111111111111110
1111111111111100
1011
100011
111
1111111111010111
11001
1111111111111101
1111111111001110
111001
11111
1111111111101010
1111111111101000
101011
0
1011000
1111111111111010
1111111111100111
1111111111111010
1
1111111111110111
1111111111011100
11111
10001
100
11010
10110
1101
1111111111010101
1100
10101
1111111111111010
10000
1111111110111100
100101
1
1111111111101010
110111
1111111110100011
1111111111010101
1111111111001101
1001101
1111111111000001
1111111111010101
1111111111011101
1111111111101111
111010
1111111111110101
1111111111111111
1101
100001
1111111111001000
1111111111100011
100011
11010
1111111111110011
110010
111
1111111111101100
1100
1111111111110000
1111111111010001
100000
1111111111101100
10001
1111111111101100
1111111111111110
101110
111111
1000
1111111111111011
101
1111111111101010
1111111111100111
11101
1111111111001010
1111111111101100
110111
10010
1111111111011011
11100
1111111111010010
10101
110110
10011
10
1100
1111111111110101
1111111111010001
10010
1111111111101011
10111
10000
110001
1111111111111100
111111
1011
1000
1111111111001110
1111111111111111
11110
101011
11000
1000
10100
1111111111110111
101001
1111111111101110
1111111110111111
110101
1111111111101001
100000
110100
10000
1111111111100111
1111111111110001
10100
1111111111010000
10111
1011
1111111111111010
1111111111101100
1111111111101101
1111111111000011
111011
1111111111111100
1111
1111111111101111
1111111110111111
11001
1111111111011010
11101
1111111111101100
1111111111100010
1111111111011101
10001
1010
11110
1111111110110001
1111111111001110
11011
1111111111100011
1111
1000111
1111111111010111
10011
1111111111101011
11001
101011
1111
1111111111101110
101000
1111111111100010
100000
11100
1111111111010000
101
1111111111111010
1111111111100011
1111111111011111
1000
10000
1111111111111000
111001
1111111111101001
1111111111011100
10
110
1111111111110010
1111111111011011
11000
110010
11100
1111111111110100
11
10
1111111111101101
11010
1111111111110101
1111111111110110
101111
1110
1111111111110000
1111111110111101
10000
11101
1111111111110110
10001
11000
1111111110111001
1111111111101010
10
101
1111111111101100
1010
10
100
11011
1111
11111
10011
1100
1111111111101101
1111111111001100
1100
11110
1111111111100011
1111111111100101
1111111110110011
1111111111110011
101101
100100
1010
1111111111000111
10010
1111111111111111
10011
11101
1111111111001101
10011
1111111111110100
11011
10111
1010
11100
111
1111111111101100
1111111111001110
110001
10001
100101
1111111111010111
1111111111001001
1100
1111111111011110
0
100101
110100
1011
1111111111001111
1000
1111111111101101
100
1111111111001000
1000101
1001110
101110
1111111111111101
1111111111011100
1111111111110010
100010
101010
1111111111011110
1000100
101
1111111111110101
10
1111111111011000
1111111111110100
1111111111101000
1010
1111111111100101
1111111111111001
1111111111011001
111110
1111111111100111
