1111111111100111
10100
1111111111110111
1111111111011011
1111111111010111
1111111111001010
1111111111111111
1101
1111111111110110
101000
1010
0
1111111111100011
11110
1111111111011010
101010
1111111111100010
1111111111010010
110
1111111111110110
1111111111100000
1111111111010101
111100
1011
1011
110000
1111111111101111
1111111111101011
1011
11011
0
1111111111011111
1111111111110011
1111111111101001
1111111110111011
1111111110011100
1111111101111010
1111111111000011
1111111110110000
1111111111100001
1111111110100000
1111111110110101
1111111110100111
1111111111010111
1111111111010000
11011
1111111111000110
1111111111100001
1110
1111111111001110
0
1111111111001000
1111111111100110
1111111111101100
11001
101111
1111111111000111
1111111111101000
101011
11101
1111111111111001
1111111111110010
1111111111110010
1111111101101000
1111111100110011
1111111110000011
1111111100111110
1111111100010100
1111111011010010
1111111010011001
1111111010111111
1111111011111010
1111111100010100
1111111101001101
1111111110010111
1111111111110111
1111111111110000
1111111111110101
1111111111000001
1111111110111111
1111111111101110
11001
100
1111111111110101
111011
1111111111101100
110101
1111111111000100
110
1111111111111001
1111111110100010
1111111011100010
1111111001100101
1111111010011111
1111111011111100
1111111001110010
1111110011001110
1111101101010000
1111110000111100
1111110110101101
1111111011000110
1111111000100100
1111111011001011
11110010
10101100
101110110
100010011
1011100
1111111110010100
1111111111000100
1111111111110100
1111111111111000
1111111111110000
100101
10101
1111111111111111
1111111111111110
1010100
1111111100100000
1111111000111101
1111111001001000
1111111011110100
1111111011001110
1111111010010000
1111111011110111
1111111001110000
1111111100001010
1111110111110001
1111111101001111
1111111010000101
1111111101011110
10111101
10011010
1000001011
1001010011
10001111
1111111111110100
1111111111111111
1111111111111010
10100
10000
1111111111111000
10111
11001
100
110000
100101
1111111101000000
1111111101100010
101
11111101
11000
101010000
1111100111100101
1111100111010011
1111110010000100
100000100
11011110
101010010
1001111011
1111111100111100
1111111111101100
100111
100110101
111010
1111111111001001
1111111110011100
1111111111100011
1111111111011100
1111111111011010
1111111111111111
1000
100110
11001111
101011111
110100111
111101010
1011101101
1111111111000000
1111111011100111
1111111000001001
1111101101111111
1111011111111010
1111011011101011
1111110101100111
1111111110011100
1111111010001011
111000
1111111010100001
100110
10101000
1000101011
1111111100001010
1111111011000101
1111111111100010
1111111111110011
1111111111100110
110
1111111111010101
11110
10100100
100111000
1111111101000001
1110101
1010000010
101000111
1110101
110010110
100010
1111101100001100
1111010100100000
1111011110110001
1111110100111100
1111111101000101
11010100
11111001
1111111101000111
1111111100010101
111011001
1110111
10000111
1111111101100011
1111111110011101
101
1011
1111111111011010
1111111111101111
1111111111010110
1111111111011000
1010010
1111111001110101
1111111110111011
1111111100101110
1011010
1111110
1001111
110000
1111110010010101
1111011111010010
1111110000111110
1111111001011110
100100001
10101100
1111111011011111
1111111000100110
1111111011111011
1111111011100100
1111111011100011
100001
1100010
1111111110011110
100110
1111111111100111
111011
100111
1111111111010000
1010
1111111111011111
1111110111110111
1111110000100110
1111111010101110
1111111
101
1100011
110111011
1111110011010110
1111011010001010
1111110110110010
101001101
11011111
1111111000011001
1111001
10011100
11111001
1111111001100100
1111110111010000
1111111101011110
1100011
1111111110000111
10010
1111111111110000
1100
1111111111100111
1111111011110110
1111111111111010
1111111111011100
1111110000101010
1111111111001011
11110100
10001110
1111111000000000
1100111111
111111101
1111101101001000
1111001011001100
1111111101010100
11100110
1001011101
1100011
1111111111001000
1111111110001000
1111111100000010
1111110110100111
1111101011111101
1111111010001101
1111111111100111
1111111111000011
1111111111111011
1011
1111111111111110
1111111110100110
1111111101111001
1111111101000101
1111111110111110
1111111010111001
1111111101011101
1010010
1111000
101000110
1000001101
110000100
1111100010010111
1111100001001001
1010001000
1010100000
110100101
1
1111111100010000
1010101
1111110101100110
1111110011110001
1111101100101001
1111110101101101
1111111111111001
1111111111010011
10001
100111
1111111111100110
111
100111
1111111010100001
1011010
1000110111
10001011
11111100
1111111111100110
1101101011
11001100100
11000001101
1111111000001101
1111110011100100
1000000011
110110100
1000111
1111111011000001
1111111111000011
1111111101111110
110101
1111111011110001
1111110001111011
1111111100101001
1111111101110011
1111111111101110
1001
1100
1000
111010
1011100
11001110
11110000
1010001101
1000000
111101001
1010011000
1100100110
10011010101
1100000011
1111101101100010
1111110110100101
1111111111110001
100010110
111101010
11011001
1111111111111001
1000010
111111101
100001100
11000100
100010010
1011100
1111111111110000
1110
11
101
110
1001011
1001000000
1011111110
1100010
111001001
110010111
10011000000
1000000101
10010100011
1001101110
1111110011101011
1111110111100001
1111111101101011
1
1100111111
1001111001
1011011110
1111111111100000
110001010
1000111111
111100000
1000110101
1110000
1000011
1111111111111111
100000
110101
1001111
100101010
11100000
1111111110110000
110011010
1110010111
110100001
100111000
10000011
1111111111001011
110110101
110100100
1111111110101100
10000100
1100111010
1110111010
1111111110100101
11110001
0
100100000
1111010100
1000101110
1111111110011101
1111111111111100
10011011
1010
1111111111101001
10011
11011
1111010
1111111011011010
1111111010110110
11001001
10000101100
100010011
1100000
0
1111111010100000
1111111001110110
111100001
1011111000
10010111110
110110000
11100001
10001100000
10010010101
10101100111
1101000001
110010111
100100101
10010000
101010
1100010
1001
101001
1111111111010001
10000
0
10111110
10000001
11101101
100001100
1110110
110110011
1010010
1111111001101111
1111110100001110
1111111011011110
1011110110
1010101100
1111111111111110
101111101
1100010011
1111111110111110
1111111110110110
100000000
111010
1000000
10100101
111001
1111111111110011
110001
1111111111101101
111
10011
10010011
100000100
11100010
10111111
10101000
1111111101000101
1001000
1111110010001000
1111110101110001
111100001
1111010
101101101
100000
1001100
1111111110101100
1111111011100101
1111110110000110
1111111010001110
1111111100001100
1111110111001011
1111111100101111
1111111111111001
1111111101011001
100010
11011
1111111111100111
100
111111
11001111
1111111100101110
1111111100101010
1111111111011001
1111111010011000
1111111011011101
1111110111111110
1111101100011111
1111110010111111
1111111110011100
101110011
1111111110100000
111100
1111111010111001
1111110101100000
1111110011101011
1111110011011011
1010101
1111110110010101
1111110011111010
1111111000101100
1111111110000001
1111111110001010
0
100011
1011
1111111111101100
111111
1011100
1111111100011101
1111111001000111
1111110111000001
1111110100011010
1111110110111100
1111110101111000
1111110010111001
1111111010011100
1111111011001100
1111111010001101
1111110011100000
1111111011101001
1111111100011110
1111110111111110
1111111100000111
1111101110111000
1111111010111000
1111110111110001
1111110000000011
1111110110110010
1111111110000111
1111111110011100
1111111111101100
1111111111100100
1111111111011100
1010
10010
1
1111111110101010
1111111100000000
1111110111100010
1111110100100010
1111111010001011
1111110110001001
1111110001001001
1111111100000001
1111110100111000
1111111010000001
1111110101111000
1111110101110001
11100001
1111111101010001
1111111011001100
1111110101100010
1111111010010111
1111110111101001
1111111000101110
1111111011000101
10100
11000
1001
1111111111101100
101011
1111111111110011
1111111111110011
1111111111110000
1111111111011010
1111111110101100
1111111101001000
1111111011110011
1111110111110110
1111110100010111
1111111000100010
1111111010100001
1111111001010111
110000111
1111111001011101
100101011
1111111011000101
1111110110000011
10000001
101010000
10100001
101101111
1111111011011010
1111110111101110
1111111100111000
1100000
101111
101101
101000
11000
100000
1
1111111111101001
1111111110001111
1111111110101110
1111111110111111
1111110111001010
1111110110111101
1111111010011010
1111110011000011
1111111010111000
1101001
100010111
1111111001011110
1111111010110101
1111111101101100
100101000
1111111110101011
1111111110110101
11001
1111111001111001
1111110110100011
1111111000011101
100101
101111
1111111111110111
11110
1111111111110111
0
1111111111101011
1111111110101100
1111111111111011
1111111110001110
1111111100100111
1111110111000110
1111110111011010
1111110111001101
1111111000010100
1111111100011111
1111111101111101
1111111111100001
1111111001111111
111011010
11011011
1100000
1111111010001100
1111110101110010
1111111101111010
1111111011100000
1111111010110010
1111111101000000
111
1111111111110000
111001
11110
110
1111111111101101
1111111111011010
111
1111111110111101
1111111101001001
1111111001000000
1111111001101111
1111111101001100
1111111010100111
1111111111000001
1111110110101001
1111111010110101
1111111000101100
1111111011011010
1111111001000010
1111110011100011
1111110010011011
1111110001000010
1111110011011011
1111110110101101
1111111010010110
1111111101100000
1111111111001100
1111111111010001
1111111111111011
10101
1111111111010011
1111111111100110
11001
11100
100111
1111111110010100
1111111101110100
1111111101101111
1111111100000000
1111111101000111
1111110110101111
1111110000101111
1111110110100101
1111110000111000
1111101101011001
1111110000110000
1111101101001110
1111110110100010
1111101111101010
1111110100111000
1111111001110010
1111111010001000
1111111101101000
1000
1111111111001001
1111111111101011
1111111111001001
1111111111001001
1111111111110111
10101
101
1111111111110001
1111111111011001
101100
1111111111010101
1111111011010000
1111111011111101
1111111111010110
1111111101110110
1111111110111010
1111111111001011
1111111111000001
1111111011111111
1111111110111010
1111111111000011
1111111110111010
1111111101110010
1111111111010001
111
100100
1
1111111111100001
11111
10001
11100
10001
