1111111111101101
11111
1011
100
100010
10101
1111111111110100
111111
10110
1111111111111001
11
1111111111011110
101100
1111111111101001
1010
1111111110100100
1111111111111010
1111111110111000
10110
1111111111011101
1111111111111010
1011
100000
11010
1111111111111100
10111
10
10011
1111111111011001
100111
100101
1111111111101100
100010
1111111111010110
1111111111101000
1111111111001011
1111111110101100
1111111111111111
1111111111110110
10011
1111111110000101
1111111110101110
1111111111011000
11011
101010
110
1111111111111010
1111111111011011
1111111111101100
1101
1111111111101010
1111111111010101
1011
1111111111101100
1111111111101101
1111111111010001
1111111111001001
1000001
1100
1111111111100000
1111111111101101
10
1111111111001000
1111111110010000
1111111110001110
1111111111000001
1111111101011100
1111111101101000
1111111011010100
1111111010010001
1111111010001110
1111111101111110
1111111101110000
1011
1111111110111111
1111111111011001
1111111111101010
1111111111000111
1111111111001100
1111111111000000
1110
1111111110110101
1001011
1111111111101110
1001101
1111111110111011
10100
1111111110110010
111
1111111111101111
1111111110110110
1111111100111111
1111111100111110
1111111101100111
1111111110000000
1111111110000010
1111110111111000
1111110010011010
1111110011100101
1111110110001000
1111111001111000
1111111100111011
11111
1111111110110010
1111111110010110
1111111110100010
1111111111110010
1111111110011100
1111111111011110
1111111111010111
111000
1001101
0
110100
1111111111001110
1001011
1111111111011100
1001000
1111111110100111
1111111101011001
10100011
10101100
101
1111110110011110
1111110000110001
1111110001011001
1111110000000100
1111110011010111
1111110101110110
1111110110001100
1111111101001101
1111111011101110
1111111010000011
1111111111000010
100101010
10000000
110001
1111111110111000
1111111110110001
1111111111111101
110
1111111111110000
1111111111101111
1101
1111111110100001
1000000
1100100
11010101
101010110
10110011
1111111111110010
1111110111100101
1111111000111000
1111111101101011
1111111110100101
1111111010111110
1111111000010011
1111111101010100
1111110011011101
1111111011010111
1111111101110100
1111111011000100
1111111110100011
100001100
10111
1111111110100111
1111111101110001
1111111111111011
1111111111111011
11000
1111111111111111
1111111111110111
1001100
11011110
1000011
101101
1101101
1111110111100010
1111111011101100
1111111000111011
1111111001000000
1111111001000100
1000000110
101011001
100010100
1000000111
1111111001100101
1111111001001000
10001101
1111111101011111
101110011
1000000
1111111110101100
1111111010101100
1111111110110100
1111111111110111
1111111111111101
1111111111111011
1111111111011010
1111111111101010
1011111
110010
1111111101110010
1111111101010110
1111111100001100
1111111101111011
1111111000010111
1111111010101110
1111111001001110
1000011
1001001111
1111111010011011
1011110011
11111
1111110110001111
1111111110010010
1111111101001101
1111111100001100
101000011
1000010
11011101
1000001
1111111101000110
1111111111111100
1111111111111001
1111111111100110
1111111111001111
1111111101011100
1111111111000001
1111111111100101
1111111101100001
1111111111100101
1111111111001110
100011010
101111010
101101
1111110110100111
10011111
1111111010110110
10101000
1111111111011000
1111111011101000
1001111011
1111111
1111111100100010
1111111100001111
1111111010100100
111101
100111000
1001000
1111111101110100
1111111111100011
111000
1111111111011101
1111111111101110
1111111110110000
1111111110011001
1111111001100010
1111111001011110
1111111101111111
1111111000011001
110001
110101010
1111111010111110
1111111101011000
111100
1111111001011111
1001
1111111001000100
1111111101100101
11001110
1111111010111011
1111111100001001
1111110111101110
1111111010101011
1111111000001110
1111111010010101
1111111010100100
1111111110011111
100100111
1100
1111111111100100
1111111110101010
1111111110001110
1111111100111110
1111110101011001
1111110110001010
1111111100011111
1111111101101011
101010
1111111101000100
101010110
1010110011
1100110
10011101
1001101101
1111111011001000
1111110011110010
1111111001010101
10100
1111111011000111
1111111001110000
1111111010101110
1111111100110011
1111111101001101
1111111110011011
1111111110111101
110000
10
1111111111011001
1111111110001001
1111111011110011
1111110110010111
1111110111011000
1111110111100001
110110
110101010
1110110
1001011101
1110101001
1000100100
1111111011110100
1111111011101010
110100111
1011001101
100010011
1111111111010000
10110
1111111101110100
1111111111001001
1111111100000001
1111111011111100
1111111101110000
1111111110010000
1111111101101000
1111111111010010
100101
1111111111001111
1111111110101110
1111111010110111
1111110111100101
1111110111101000
1111111
110000001
1010110110
100010001
1001111100
1001110110
1010000000
1000100011
1111111111001110
111110000
1111010010
101001111
1100
110101011
1101100
1111111110101111
1111111001000110
1111111000101001
1111111100110010
1111111011101010
1111111111100001
11111
110010
11111
1111111111001000
1111111100010000
1111111010011100
1111111010111110
11000011
10100001101
11101000
1000001001
1000011001
110001111
111101111
10111100
11100100
111100010
1011010011
101110110
101101111
110000011
100001001
1011
1111111010011010
1111111011010011
1111111100111010
1111111110111000
111111
1111111111110000
11000
1111111111101111
1111111110111101
1111111110100001
1111111111000001
1111111000100000
1111111011001011
101011000
111111010
10000001010
1011111110
100001010
10100010
1110010
1110101
101001010
1100011110
100010010
111110100
10110000
1011111
1111111010111001
1111111011110001
10011
1111111111101111
100010110
1111111110110011
1111111111100010
1111111111100111
10001
1101
110000
1111111110001100
1111111001110011
1111111001000001
1111111001101011
1111111110110111
10001100
110011110
11011
1001000111
1111111010111010
1111111111010000
10100101101
1011100111
1011011110
1111111111000010
1100101
1111111010111010
100001111
101100110
0
1111111110010101
100010110
10101001
10000
1111
1111111110110101
1111111111011110
1111111110000101
1111111000100110
1111111001000111
1111110100100111
1110000
1000001110
1111111111010111
101000001
101010000
1111111110111111
1111111011111101
1011101011
1001110001
1000100011
1100111011
110111011
1111111110101110
10101
101101001
1111111111110110
1110011
10010100
110010
100110
1111111110111111
1111111111100010
101
1111111111100001
1111111110110110
1111111010001111
1111110101000011
1111110010111001
1111111001000011
11101
111101
1111111110101010
1010001
1111111101110101
100000111
1111111101101110
1101010110
10000010
1111111010110111
10101
1111111110011000
1001100
111111101
101010
1110001
10101111
1111111110110001
10
10100
1111111111001011
1111111111101111
11101
1111111111010111
1111111101011110
1111111101010001
1111111010001001
1111110110010001
1111110110101000
1111110010001110
1111110110011000
1111111110010111
1111111111111000
101000101
10011110
100100110
1111111010011111
1111111000110011
1111110101111100
1111111000101010
11000000
100011010
1111111011110011
1111111110001000
1111111111100111
1111111110010100
111010
1111111111011101
100001
1111111111101011
0
10001
1111111101100110
1111111101001010
1111111101001010
1111110110111010
1111101110111101
1111100110011000
1111101010110110
1111110101111001
1111110011100101
1111111000001111
1111111110011100
1111111101000010
10011001
1111101111101000
1111101111110110
1111101111011110
1111101111110001
1111110110101100
1111111000100100
1111111110011000
1000
1011001
1101110
11000
1111111111100101
1111111111011100
1111111110111100
1111111110100010
1111111100101110
1111111000111111
1111110111000100
1111110000111101
1111101110010000
1111110011101100
1111110011000111
1111110001100111
1111101011001101
1111110100001110
1111110110111010
1111110010101001
10111110
1111110101010101
1111111000100110
1111110011111011
1111110010111011
1111110111000000
1111111001110000
1111111101101110
10010
1111111111110010
101001
11
10110
10
1111111111111010
1111111110101001
1111111100110111
1111111011010100
1111110011010110
1111110011001010
1111110111101101
10010000
1111111001001111
1111110010101010
1111111100101100
1111110100101001
1111110101110010
1111110000100000
1111110111010110
1111110110010111
1111111011010000
1111111000011000
1111110000101100
1111110011110011
1111111100101000
1111111110100011
1111111111110001
1111111111111100
1111111111000110
1111111111101010
1111111111001001
1101
1111111111111100
1111111111011000
1111111101000011
1111111001011000
1111110111101010
1111110111011000
10111111
1111111110110010
1111111101000001
1111111111100100
1111110101111001
1111110011011111
1111110001110100
1111110001101111
1111110010101001
1111111011000000
1111111011011110
1111111001001011
1111111011100000
1111110110110011
1111111011100000
1111111110110001
1001
1
101
1110
100010
10100
1111
1111111111001000
1111111011010011
1111110111001110
1111111100010110
1111111100011011
100000111
1111111001111111
1100000
1111111100000110
1111111010110000
1111111100110001
1111110101110100
1111111000100011
1111101100100010
1111111000100001
1111111001011101
1111111110000011
1010100
1111111101110111
1111111110101010
1111111110001110
1111111101101001
1111111111100010
1111111111100110
111011
1111111111101001
101
1111111111111110
1111111110010110
1111111110010111
1111111101111101
100011010
101011011
1101001
1111111111110010
1111111011110010
1111111000010100
1111110001011011
1111111010001001
1111111000110100
1111101111101001
1111110000011000
1111110100110000
1111111011100110
1111111100000000
10111010
100000
10000001
1110100
1111111101111100
1111111111010001
11100
10100
101001
1111111111111101
10111
1111111111111111
1110100
110101001
111000111
101110010
0
1001000
1111111100011111
110100
1111111011001000
1111010
111110
1111111001110111
1111111111011001
1111111011001000
1111110101101001
1111110100000010
1111111111000010
1111111101111101
1111111110111111
1111111111000011
1111111110101101
1111111111100010
1111111111011010
1111111111011011
1111111111110010
100011
1111
1111111111000111
1101101
100000110
110011001
101011101
11111011
100111000
101010110
1111111110100101
10100
10011001
1000001110
100100001
111100
1111111111110010
10010000
1111111101001111
1111111101110000
11100
111111
11001
1111111111001010
1111111111111010
1111111111111111
1010
1111111111000101
1111111111100111
1010
100110
110
1000111
100
101010
1111111111010111
1111
1111111110101100
1111111111001110
1111111111111001
1111111111000010
1101001
10100101
1111111111011101
11110
11001010
1000100
1001
1111111111111110
11011
11
0
1111111111100001
1111111111100010
1111111111011101
