0
10
1111111111011001
1111111111110011
1010
1111111111100011
11101
1111111111110000
1111111111101110
1
10100
1
111000
1111111111010100
0
1111111111110011
1101
1111111111110100
1111111111110001
111011
1111111111111010
110100
101110
1111111111101000
110
10101
100000
1111111111000110
1111111111111001
100
111
1010111
1111111111110000
110000
1111111111101011
1111111111110101
1111111111110101
10001
1111111111010100
1100
1111111111110010
1111111111010110
1111111111101110
111011
1111111111101110
1111111111110101
101
100010
1111111111100111
1111111111110101
10000
1111111111111101
1111111111000001
1111111111110111
1111111111001010
10011
110111
1111111111001011
1111111111110001
1111111110101001
1001
1111111111111110
1011011
100100
1111111111110111
1001
101011
10011
101101
1111111111101010
1111111111110110
100
1111111111110110
100101
100101
110111
10010
10011
1111111111101010
100
1111111111110011
111
1111111111110001
1111111111111111
1111111111111100
1111111111110101
101110
10
10100
1111111111101101
10001
1000000
1111111111111111
101
1111111111011101
1111111111111101
1111111111011001
1111111111110110
1111111111101111
100101
1111111111110110
10000
0
1111
100
10010
101
11010
1
1111111111110000
1111111111111111
1111111111010011
1111111111110101
11000
1001
11010
1111111111001111
1111111111010100
1111111110111110
111100
10000
101
1001010
111100
10000
1111111111101001
0
1111111111001010
10110
1111111111000011
1111111111110001
110
1111111111101001
1000110
1111111111110111
1111111111110110
101110
1111111111011010
110
1111111111111000
1111111111111100
1111111111010011
1111111111001010
110000
1111111111111010
10110
1100
10101
1010
1111111111111001
11010
100
1111111111001111
101101
1111111111101011
1111111111111011
10001
1111111111110010
1111111111111100
1111111111100111
1111111111111110
1111111111100010
1111111111100110
1111111111011001
1111111111100100
1111111111001001
10010
1111111111111111
11000
1111111111101100
1111111111111000
10000
11110
1111111111110101
1111111111001110
1111111111011111
1111111111010001
1111111111101011
1111111111001101
100100
10101
101000
1111111111111100
11110
10111
1111111111100000
1111111111110111
1000
10110
1111111111011111
0
1111111111101011
11
10000
110001
101
1110
111100
0
101001
1101
1111111111111100
1111111111001101
0
1111111111110101
110
1111111111111101
1111111111011110
111110
11010
1011000
1111111111101010
1001
11111
1111111110110000
1111111111001011
1111111111111010
1000010
11101
1111111111100110
0
1111111111110001
1111111111001000
1111111111110110
1001
1111111111011100
1111111111111011
1111111111110111
110011
1111111111100011
1111111111011101
1111111111010000
1111111111101100
10000
1111111111111101
1101
1111111111011100
11001
10000
1110
110
1
110001
1111111111101111
1111
1100
1111111111110001
1
1111111111111001
11
1111111111100111
1111111111011001
1111111111101000
110100
100
111
10100
10011
1111111111001111
1111111111110111
1111111111100101
1111111111100001
0
100001
1111111111110110
0
1001
1111111111100101
1111111111010110
11101
1111111111111001
11011
11
111010
1111111111111100
1000
1111111111100101
11011
1111111111011101
1111111111100101
10100
1111111111110010
1111111111101011
1111111111110010
1010
1010101
1111111111110111
1111111111110011
1111111111111100
1111111111100111
111101
1111111111011001
1111
1111111111101101
11000
1111111110111001
101110
1111111111111111
10111
1111111111101111
10011
1111111111011100
11010
1111111111000000
100111
1111111111010011
1101
111110
1111111111000100
101000
110010
1111111111100011
101
101001
100100
1010101
1111111111101011
1111111111100010
1000
0
1111111111101110
110
11
1111111111110000
1111111111110110
1111111111110000
1111111111110100
1001
1111111111110001
1111111111110010
1101
1111111111110000
100110
110
1111111111100000
1010
10100
1110
11111
1111111111110101
1
1111111111110011
1111111111111000
1111111111110011
1111111111100000
10101
1111111111100011
100100
1111111111101001
1111111111110101
10110
1010011
1010001
1111111111101000
101101
1111111111101101
1111111111011110
1111111111110001
1111111111001010
1111111111111111
1111111111111111
1100
1100
1111111111100010
11100
1111111111111111
1111111111010110
1
1111111111110000
100000
1101
1000
1111111111101111
1111111111110011
1111
100110
1010
100001
1001
1111111111100101
1101
1001
100110
101010
11111
11
10101
100000
0
1111111111110110
1000
101000
1111111111110000
1111111111011011
1111111111111100
10101
1111111111010100
1111111111111100
100
11001
11111
1111111111111000
1111111111001110
1111111111101000
1111111111101110
1111111111111001
1111111111101011
1111111111111000
1001
1111111111111000
1111111111111000
11000
1111111111111101
1111111111100101
1111111111111010
1111111111110111
0
1111111111111101
1111111111100000
1111111111100111
1111111111110100
100001
1111111111101001
0
1111111111101111
1111111111100010
1001
100001
111011
101100
100000
1111111111111000
1111111111101111
1111111111101101
1111111111110011
11000
1111111111001000
1000
0
1111111111000110
0
10111
100010
1111111111101110
1010
1111111111111001
1101001
1111111111110111
10101
1001
100110
101101
1111111111111100
1111111111110011
111
101111
1111111111000111
1111111111000011
1111111110110110
1111111111101101
1111111111000111
10010
11001
11110
1111111111110001
1111111111111101
100000
110000
1111111111001110
1111111111111010
101100
1011
1111111111011110
1110
10
1111111111111001
1111111111110000
1111111111011110
1111111111000100
110011
10011
1111111111100100
1111111111010101
1111
1111111111101101
1101
110010
11
1111111111010111
1111111111100000
1111111111100111
1111111110111001
0
1111111111011110
1111111111101111
110
1111111111100011
100001
1111111111001111
1111111111100100
11
1111111111111000
10001
1111111111010100
11
1111111111101111
101010
1000
10000
1111111111111110
1111111111000100
1
101
1010
1001100
1111111111110000
11011
1111111111100101
1111111111110010
1111111111001101
10
1100
11001
10
100100
110
1111111111101101
100011
111100
1111111111100101
110010
100000
101100
1111111111100100
110000
1111111111101101
101110
1111111111111100
0
1111111111000011
1111111111101101
100010
1011
1111111111101001
1111111111101011
10
100001
1111111111111011
1111111111001000
110000
10010
1111111111110010
1111111111111010
1010
1111111111101111
1110
1001111
11011
1111111111010111
1111111111010111
10
11000
10000
1111111111100101
1
1111111111111011
1111111111111011
1111111111111001
10
1111111111011011
1111111111110001
1111111111100100
110111
1111111111100110
1010
101
111000
1111111111110001
101001
1011
11011
0
11010
1111111111001011
1111111111100110
11
1110
1111111111011000
1111111111100111
101001
1111111111111001
1111111110110101
1111111111100000
10010
110001
100
1111111111110100
1111111111101001
100
1111111111001011
1101
1111111111010011
11
10100
1111111111110100
11111
1111111111100110
11111
1111111110111011
1110
1111111111111111
1111111111110110
1111111111110011
1111111111110101
1111111111011111
1111111111100010
1111111111101100
11101
1111111111011111
100100
110011
11100
1111111111100000
1111111111110110
1
1111111111110001
100001
1111111111111100
1111111111101111
0
10100
10110
1011
10000
101011
10110
1000
1111111111101100
1111111110111110
11100
100
1111111111101010
1111111111110000
110000
1111111111101110
1111111111000110
1111111111101011
111100
110010
10100
1111111111001101
1111111111111010
1111111111111011
1111111111100001
10
100111
100011
101011
1111111111100111
1111111111111111
1001
1111111111111100
100
1111111111011110
10
1111111111110000
1100
1111111111010001
1010
1111111111100010
10100
1111111111110110
1111111111111010
1111111111100001
1111111111101000
100110
1111111111011110
101110
1111111111011110
1111111111101001
1111111111011100
1111111111101101
1111111111111011
1111111111001000
1111111111001011
1111111111111100
10111
100110
1111111111100001
1001010
1111111111101111
1111111111101101
101
1000
1111111111110000
111000
100101
1111111111110010
101010
11111
1111111111101100
1111111111111101
111
1111111111111111
1111111111111011
10
0
1111111111101011
1111111111100110
101
11010
11100
1111111111110011
1111111111011111
101110
1000010
1111111111111110
1111111111101110
101000
110100
1111111111110001
11100
10010
101100
1111111111011010
1111
10000
1111111111111001
101010
1111111111100001
1110
1111111111101010
1111111110010001
1111111111011110
1111111111010000
11001
10001
111
1
1111111111111000
1111111111101001
1111111111101101
1111111111011100
11110
1111111111101111
10011
1111111111100110
11
1111111111111111
1111111111111111
1111111111101111
1111111111011111
11101
111110
10101
1111111111101010
10101
101111
1111111111110101
1111111110110100
1111111111100101
1111111111001010
10010
0
1111111111100011
11010
1111111111101000
10010
1110
1111111111101001
1111111111101111
1111111111110101
1111111111110100
10100
100
1010
1111111111011100
1111111111110110
1001111
1111111111110111
0
10001
1111111111111110
1111111111111101
