1111111110101010
1111111111110101
10101
1111111111000100
10011
1111111110101101
1111111111110111
1111111111101100
0
11000
10101
101011
1111111111100010
1111111111111000
1111111111110101
1111111111110101
1010
1001
1
1111111111101111
1111111111100011
1101
11000
10100
11110
1111
11111
1111111110111101
110111
101110
1111111111011110
1111111111110101
100101
10
110
100010
1001
1
1111111110100001
1111111111111010
1001
1111111111010001
1111111111101001
1011
11011
10101
101100
1111111111010000
1111111111101000
1111111111111101
10010
1101
1111111111010111
1110
100101
10001
1001
1111111111111101
10000
1111111110011111
1111111111100100
1010
1111111111100000
110101
1001001
110110
1010000
10110101
10001001
11101000
1111111101100011
1111111011110110
1111111011111010
1111111100101110
1111111110011100
0
1111111111011011
1111111111110101
100000
1100111
10101
111100
101111
110010
1101
10100
1111111111011101
1111111111110111
1101
10110
1101001
10001111
111101
100111
11011000
110101001
1010110
1111110111110110
1111110001001001
1111110000110101
1111110101111101
1111111010100011
1111111111010100
100011100
10001001
111
101110000
1001000011
100001000
1111111110001111
1111111111111101
1111111111010011
11110
100
1111111111101001
101001
1010000
10111111
1001110
101000
1111111111100111
1111111110000011
100010
1111111111111010
1111111110011001
1111111000011001
1111110000011001
1111110000011011
1111111001001011
1111111100000000
1111111110001110
101000111
1110011011
1011101101
1111110110
1011000111
0
1111111110100111
1111111110010010
1111111111110100
1111111111111101
1111111111100101
11000
1111111111101100
1101011
100000011
111
1010111
1111111111001101
1111111110101101
101100
1111111000101110
1111111000001110
1111110100011001
1111101111100010
1111110011010111
1111111110100100
100111101
11111100
1111011
11001110
111100010
1100111011
1000101111
10001101
1111111100100111
1111111111100110
1111111111111011
1011
11011
1111111111101110
1010011
10010111
10001111
1111111101111011
1010001
10000111
1111010
1111111011000110
1111101011010011
1111101001001111
1111100010011101
1111101110011101
1111111100011111
1
100110111
1111111111010011
1111111001100001
1011101
1111111110111111
10111000
1111111110101100
1111111110100000
1111111100100011
1111111111111111
1111111111010111
110
100011
1111111111011011
1001
10100011
111000111
1000010
110010001
1111111100001101
1111111111011001
1111111001100101
1111101110110110
1111100101101101
1111101011100001
1111111111000111
110000110
1111111010111001
1111111101111010
1111111010000011
1111111001011100
1111111000111111
1111110110101110
1111111011111010
1111111110001011
1111111100011110
1111111101100000
10000
1111111110111001
1111111111101000
110110
11110
1111111111100010
100101100
101110001
111000
10110000
1111111010010010
10010100
100010
1111101110000011
1111100000111110
1111110000001100
1111111011101110
1000100
1111111010100000
11100011
1111111010111101
1111111001010100
1111110110010100
1111110110011000
1111111000111000
1111111011111000
1111111010000101
1111111101100101
1111111110101100
1111111111011111
10000
1011
1010
1000
100011011
10101000
1101000
110111
1101000
100100100
1111111110000010
1111110010111000
1111100111000010
1111101101011000
1111101111110000
1111111111111100
110001110
110101
11001010
1111111100110111
10001110
1000100
1111111100111001
1111111101001111
1111111100110111
1111111001011101
110
10011
110101
1010011
111101
1000001
10100010
100011001
1010001
1000001111
11100
1111111111100101
110100
1111110011101001
1111110010011000
1111110011110010
1111111011100011
1000010001
110011111
11111111
1111111111101000
1111111111010100
10101100
10011010
1111111011000110
1111111101100011
1111111101001001
1111111100101011
111000
1111111111111101
1111111111010110
11001
1101100
10001101
11011001
111010110
11111100
1000111111
1111111111010101
101011111
1001111100
1111111011110011
101010
111100111
1011011010
1100010111
1100100101
100011
1111111110010101
1111111010110010
1111111010011100
111110
1111111111001100
11000100
1111111110011001
1111111110011110
1111111111011000
1111
1111111111010010
1111111111001011
1001001
10000000
1111111110011010
1000100
10011000
100001100
100110001
101111011
100111010
1111111111101010
110001
111011001
100110111
110011101
1100110100
100010111
1111111110011001
1111111110001111
1000011
101010000
101000100
111010000
101000011
111111
100111
10001
1111111111011011
10011
1011
1010011
1111111110011010
1111111111101010
1000001011
1111111110100100
1111111110100111
10011
111111101
1111111011110011
1111111100000100
101101
1001111
1111111110100001
110010001
111101000
10011100
111000
111010000
1011111
10000010
1100100110
1000100101
10111000
101110
10111
1111111111000101
0
1001
1110000
1111111100100000
11101001
10111101
1111111100100111
10100000
1111111110110100
10010000
1111111111110111
1111111111000011
1111111111001000
110010
1111111100011011
110110111
100010010
1111111000100001
1111111100111111
1111111110101000
10001100
10111101
1001010001
1000011011
101010
1111111111111010
1001
1111111111100011
110000
11010
1111111110110110
1111111110100011
1100110
1111111110100111
11000011
10010111
1000110
1111111001101100
1111111100111010
1111111111011101
1010110111
110110111
111111011
10001111
1000111
1111111111011001
1111111111100001
1110001
1111111111110110
100111
111000111
110101000
1111111111001011
1111111110101000
100001
1111111111111101
1111111111101111
1010
1111111111101111
1111111111010001
10010101
1010100
11000100
1111111111110010
1111111011010110
1111111001101110
11001001
1111111101101101
11001101
1010100
111001
1111111010010010
1111110111011111
110001110
111101001
11111100
1111111110001001
1111111110101000
1110101
11010000
1111111111010101
1111111101110011
1111111111111111
1111111111101011
111
1010
1111111111101001
1010111
111101010
1001011
101110111
1111111111110100
111101
111011000
101000001
11101101
1011111
111
1111111011000110
1111111100110101
1111111101001101
10011001
101001101
10000000
1111111100001000
1111111100101000
1111111100011011
1111111010110110
1111111101111001
1111111101111101
1001
1111111111011011
1000111
101011
1111111110101001
1111111101100001
1111111110100011
1111111011110110
1111111011110100
100011001
1001001000
1001001
110111111
1001111001
101011011
1111111101011100
11001011
1111111101111000
1111111010110001
1110111100
1100001
1111111101110011
111001
1111111100010010
1111111101001100
1111111011100110
1111111111101011
1111111111100100
111001
1111111111100111
110100
1111111111111000
110011
1111111001110011
1111111001101010
1111111001001110
1111111000011110
1111111101001111
1101001
1111111111010000
101001011
1111111100111010
10010100
1111111111111001
100001010
101110001
10101110
111000010
11000000
1111111111001101
1111111110011010
1111110110110110
1111111010101011
1111111110111011
1010001
10001
1111111111111101
11011
1111111111011101
11
111111
1111111101111111
1111110111010010
1111111011110000
1111111111011100
1111111110111001
1111111111011101
110010010
11111110
100000110
1111110111111111
1111111111010010
10000100
101110000
10101
100011110
1111111101100100
1111111001001011
1111111001011101
1111111011000101
1111111001110110
1111111111100011
1111111110110101
10000
1001
110010
101
1111111111111010
1011100
1111111110100010
1111111101111010
1111111100110000
1111111110010010
100100000
1000111
11001100
11010011
1111111110101000
1111111011111110
1111111111111010
1011010
1010101001
100110101
11000001
1111111101000000
1111111011110000
1111111101001010
1111111110011010
1111111011011001
1111111110111100
1111111110100010
1111111111010111
11001
1111
1111111111011011
1111111110101001
111011
1010
1100100
1111111110111101
1111111000111001
1111111001111101
1111111100100010
1111111100110010
111110
1111111001000010
1111111101110000
1111111110010111
1111111110001001
1111111100111101
1111111100010010
1111111011110110
1111111101100010
1111111101111100
11110011
1111111110110101
1111111001111110
1111111110110011
111010
10111
1111111110111101
110110
10010
1111111111111100
1011
1111111111000111
1001001
1111111101001101
1111111010101110
1111111011101101
1111111010001101
1111111100101011
101101
101011110
1100000
1111111111001100
1111111111111001
1111111101000001
1111110100110101
1111111101111101
10001011
11010011
11011001
1111111100111110
1111111001011100
1111111100111001
1111111111101100
1111111111001110
0
100100
100
1111111111010111
1100
1111111111001100
1111111110111100
1111111011010001
1111110111100001
1111111100100101
110111
1111111011010011
1111111101001111
1111111101100101
1111111010001101
1111111110101000
1111111101101101
1111111110011101
1111111100111100
1111111110101001
10100001
11000101
11110101
1010
1111111101010100
1111111101011010
110011
1111111110110010
1100
10001
11101
100100
1111
111
1111111110100101
1111111010101111
1111110110111011
1111111101011011
10101
1111111011110001
1111111100110011
1111111110100000
1011101
1111111100110100
1111111100111101
1111111001100011
11101
1111111011111000
1111111011000001
1111111001010111
1111111001111101
1111111110111101
1101
1111111111111000
1111111111110101
1000110
1111111111101101
1111111111101100
1111111111110111
1001110
1111111110110100
1010
1111111111111100
1111111110110000
1111111110100011
1111111111110110
0
1111111111101010
1111111101101100
1111111100001001
1111111100010001
1111110111110000
1111110101011000
1111111011111011
1111111101111101
1111111001001111
1111111010110111
1111111000100111
1111111000011000
1111111111001100
1010
1001
10111
1111111111101110
10110
101110
1111111111101110
1111111111111111
110011
1111111111100101
1111111111111000
10101
1111111110101101
1111111111011101
10
1111111111110011
11011
1111111110001001
1111111110001100
1111111110010000
1111111110111000
0
1111111110001100
1111111110101110
1111111111001111
1111111111001100
1111111111111010
101100
1000011
10111
10
110101
1111
