10000
1111111111111100
1111111111000100
10001
1111111111111010
1111111111110101
101110
1111111111001110
1000010
1111111111010110
1111111111110101
1111111111000100
1111111111101001
1111111110111101
100001
101
1111111111111110
1111111111110110
1111111111011100
1111111111110001
100111
110
1111111111101111
11001
100101
100010
10
11000
1111111110101000
110110
100110
101110
101010
1111111111001101
1111111111111000
1111111110111001
100
1111111110100100
1111111111111110
0
1111111111001010
1111111111011010
1111111110111110
101100
1111111111001110
10100
11000
1111111111011110
1111111111001011
11100
11110
10101
1111111111110000
1000101
0
10011
1111111111110100
1111111111111110
10011
1111111110111101
1001
0
11100
1111111110001111
1111111110010000
1111111110111100
1111111111100011
1111111110111001
1111111101100010
1111111110100100
100010
1111111111011010
1111111011101010
1111111101010000
1111111111110001
1111111111101101
1111111111110001
10110
0
110010
1111111110110100
1111111111111100
1111111111010010
10010
10011
1111111111101101
100010
1111111111101010
1111
1111111111111111
1111111111001001
1000010
10
1111111011001110
1111111111100011
101010001
100010101
1000010
1111111100010011
1111110111010000
1111110110110101
1111111010001100
1111111100111000
1111111110100111
10
1001011
10010010
11000
1111111111110101
10011
0
1111111111111000
1111111111100100
10001
101101
10001
110100
11000000
100010011
1110010
101010101
1111111100010000
100010100
1010001111
110101001
1100000100
1000101000
1111110101111000
1111110000010111
1111101011101101
1111110100011001
1111111110100100
1111111111011001
1111111111010000
10010010
10110111
11011110
1100011
1111111111010111
10000
1111111111011101
1111111111110111
100001
1001001
11011100
100011110
110010000
1010101100
110010001
11100001
101100010
1011100
1011101100
11100010
1000101011
111001
1111111010000100
1111100011111101
1111101100110010
1111111000101111
10
111011
101100111
1001010110
110010111
10011
1111111110110100
1111111111101000
111
100
1111111111111111
10000100
100001111
100111110
111101111
11100011
100010110
100011010
100000
1111111101000011
11111011
110111011
101100
1111111101110111
1111110111010111
1111011111100101
1111100010001011
1111110111010111
1010001
10101000
111101000
1011110011
11010111
1111111100010110
1111111111110110
1111111111111000
1111111111010101
1111
1111111111110111
11010011
10100000
10111100
1100111
1111111011110000
1111111010101000
1111111110110000
1111110011101011
1011001
10110110
1011110011
110000011
1111111100110101
1111110011110111
1111011001100010
1111101010000110
1111111101011010
10000000
1111111100010101
1111000
1010111110
101011001
1111111111110111
1001011
10110
1111111111101110
1111111111101001
1111111111011111
1011000
1101001
1111111111011000
1111111011110110
1111111110010100
1111110111100001
1111111010000011
1111111110001100
1111111111101101
1000011010
1101111101
1110100101
101101111
1111100000000010
1111011011110111
1111111011101101
11110111
101011010
1001011
1111111101101101
1000101101
1010111110
100110100
1111111110101110
100100
1111111111111000
1000101
101100
1101
1111111111100101
11111
1111111111001110
1111111011110100
1111110110110111
1111111101100000
1111111011110110
1111111111001011
1011010
10000110101
1111000000
1111110011001100
1111011010100111
1111110111011101
110001111
101110100
100110011
1101111
1100001
110011110
11001010
1111111110101110
1111111110100001
100
1111111110101111
1111111111111110
1111111110000011
1111111101111100
1111111100011111
1111111110011100
1111111100011000
1111111111011001
1000011
1111111001010100
100010111
110101001
110101010
10001100000
1001001110
1111101000101101
1111100101100110
1111111101010111
1011100
111101111
10000010
101001110
1000010000
1110
1001110
1111111110000011
1111111111101100
11110
1111111111110010
10001
1111111111011110
1111111110001000
1111111101100010
1111111010010000
1111111101001111
1111111111100001
1111111101010101
101100010
100100010
110111010
10000010000
1000000100
1111110011101001
1111110111001001
1111111110001100
10001001
100100001
111000
1111111000011001
1111111111001111
1111111111010001
1111111011010000
1111111000101111
1111111101011001
1111111111110111
110
1000
1111111111111111
11010
1111111110011010
1111111100010011
1111111011101101
111010
1111111110010101
101111011
1111111110100001
1111111100111000
1111111011010110
1111011000
111111010
1111111111011111
11101
10011111
1111111100001010
110011
101111
101110111
11001010
1111111111101111
1111111001011010
1111111010101010
1111111110001101
100100
1111111111110001
1111111111111011
101101
1111111111001111
1111111111000001
1111111110001000
1111111010101001
10111110
1111111110101011
111100000
1001101
1000100001
101001111
11001110
11101111
1111110101001100
1111111101101110
1111110110101010
110110010
11100101
111011001
1001101100
1111111110000011
1111111011100100
1111111101011110
1111111100000010
1111111110100000
1111111111001010
111
1111111111001000
11011
1111111111101111
1111111111101111
11111
1111111111101111
0
1111111110011100
1100001
1111111111000100
1000110100
1111111001011000
1111111110011101
1111111101001001
1111111101111100
101100
11111110
1010101110
1111111011010001
1111010010
100111000
1111111100000100
1111111110110110
11001001
1111111110001100
1111111111111101
1111111111111011
1111111111110110
1111111111101011
1011
110101
11000010
1111111110100100
1111111111111001
110010
1111111110110100
11011001
1010111011
1111111111010000
1111111000010001
1111111001010011
1111111101111111
10010111
101
100001001
1011101101
1110001
101010110
1111111100111001
1111111100111000
111010010
101000000
1111111111011100
1111111111001101
1111111110111110
1111111111101000
1111111111101110
11110
100
10111000
1111111111110111
1111111110011101
1111111110111100
1001000
11111110
10010110
1111111010010011
1111111010011111
1111111101111000
101000
111
1111111101011101
1111111101011001
1111111011000110
1111111111110111
1111111000101000
1111111111100001
1111111111111101
101111010
11101010
1010111
1111111100011011
1111111111100011
11001
11101
100100
1010
1001001
11100101
1111111101110010
0
110010
1111111110100001
1111111101111000
1111110011110100
1111110101110110
1111111101100000
101100001
110001101
100100
0
10000111
1111111010100110
101110111
110011001
101100001
101001000
11101110
10010000
1111111111101010
100110
1111111111111101
10000
100111
110001
11010001
111010100
1000110
1111111010110010
1111111101011101
11010000
1111111011010101
1111101111101000
1101100
100101000
111110101
100110001
1111111101110101
110011001
11001110
1111111101011001
1110001011
1011000011
111110001
110101101
11001010
1111111100111111
1111111101010000
100
1111111110111001
1111111111100001
110101
1111111111100101
1000001
10001111
10000111
1111111101010111
1111111100010011
1001000000
1111110110101101
1111110101000000
1111111
1111111011101111
1111110100100100
1111111010110010
1111111001001000
1111111101000010
1111111110000111
101011
100010100
10101000
1111111011100110
10110
1001011
1111111100101111
1111111110001111
11101
1111111111010001
1111111111110000
1111111111100001
100010
1111111110101100
1111111111001010
10000
1111111100111100
1111111011101010
1111111101100100
1111111011101111
1111111101000001
1111111010100111
1111111001010010
1111111100010011
1111111101111011
1111110100100101
100110000
1111111011001000
1010100
1111111100011110
1111111011000001
1111111110110000
1111111100000101
1111111101101111
1111111100101111
1111111100100010
10010
101100
11010
11011
1111111111011110
11010
1111111110001101
1111111110100011
1111111001010111
1111110111001011
1111111111100100
11011101
1111111011101100
1111111100011100
1111111011110101
1111111100101111
1111111011010001
1010101
1111111111001010
1111110011100000
1111111100100101
1111111000111001
1111110111100101
1111111101101110
1111111011100010
1111111011010000
1111111010000110
1111111101010010
111100
1111111111110000
11010
110111
1111111111001001
0
1111111111011111
1111111110110010
1111111100011000
1111111101000011
10100001
1111111111101011
1111111111100000
1111111011111001
1111111110000000
1111111011001110
1111111110010101
1111111100000011
1111111100110110
1111111110100010
100101010
1111111110011111
1111111111101110
1111111110011101
1111111101101101
1111111100010100
1111111101001110
1111111111001000
10001
1111111111101111
1111111111111100
1111111111010101
1010101
1111111111101001
11
1111111111110101
1111111111111100
0
1111111001111110
1111111111010111
100110001
1111111110100011
1111111111011111
1111111001111100
1100010
10
1111111001111101
11101000
1111111100101010
11010011
1111111110110100
1111111010010001
1111111100001111
1111111100110001
1111111110001000
110011
110011
1111111110111000
1111111111101000
1111111111110001
0
1111111111100001
1000
11100
1100011
1111111111011010
1111111111010010
1111111111100010
11111111
1011111001
11101110
1111111110111000
1011110000
1000111011
1111111100101000
1111111101100010
1111110111100100
1111111011110111
1111111011000010
1111111111100001
110001111
10001100
1111111110111110
100011
1111111111011001
1111111111100001
1111111111111001
101100
1111111111000001
1111111111111000
1111111111111011
1111111101011101
1011
1111111110110111
1111111101000001
1111111110111111
1111111011011001
1111111110100010
1111111110111001
1111111001011110
1111111111100000
1001100
1111111000111011
1111110100010100
1111111100000001
1111111011100000
100011
10001110
11010110
11000000
11100
110
1111111111110001
1111111111001010
10000
1111111111100001
1111
100
1111111111110010
1111111101011101
1111111100101000
1111111011111011
1111111010101011
1111111010011001
1111111001111011
1111111000110101
1111111001100000
1111111011000010
1111111001000011
1111111101010101
1111111100011000
1111111100001101
1111111100001101
1111111111000100
0
1111111101111101
1111111110101000
111000
1111111111010010
11011
1111111111011011
11010
101110
10001
1111111111001101
1111111111100110
1111111111111001
1111111111110000
1111111110111001
1111111100010001
1111111110111011
1111111111010010
1111111111010110
1111111111010011
10110
1111111111000100
1111111110111010
1111111111011110
1111111111101101
1111111111001010
1111111111100000
1111111111111111
10111
11000
10
1111111111001001
1100
100000
1111111111111001
101001
