100100
1111111111011100
110000
100
1111111111110101
101010
1111111111111000
101010
101010
1111111111111110
1
110001
111000
1111111111101110
1111111110111101
1111111111011001
1111111111111110
1111111111111011
1001
1101
1111111111011010
1111111111011101
1111111111101110
1111111111010110
10101
1111111110101001
1111111111011010
1111111111101101
11110
1111111111110011
1111111111011110
1111111111010111
11010
10000
1010
100100
1111111111101100
1110
1111111111110100
1111000
10010011
101
111111
100100
100111
100
1111111111010010
1111111111111100
100100
100101
1111111111010010
1111111111111111
11101
11010
111
1111111111111001
10000
10010
1111111111110110
1111111111011010
11
11001
100001
110011
1111111110111010
1111111111010011
1111111111011010
1111111101000111
1111111100101011
1111111100011010
1111111011000100
1111111011101001
1111111101011011
1111111101100011
1111111101101101
1111111101101111
1111111101001100
1111111111001001
1111111111101101
1111111111110101
111001
1111111111111000
110111
1111111111011011
1111111111101010
1010
1111111111110111
111001
10111
1111111111100110
1111111111000110
1111111111010011
1111111111100111
1111111011101011
1111110101011010
1111110101101001
1111111010011110
1111111001110011
1111111110000001
1001001
110010111
11011010
1111111010101100
1111110111111111
1111111010110110
1111111001100000
1111111100010111
1111111111001011
100
1111111111101111
1111111111011110
1111111111111110
1111111111101010
1111111111111011
11
100111
10010
1111111110111000
1111111110001111
1111111100111011
1111111101110011
1111111011011101
1111111101001111
1010000
1111111101100001
1111111000100001
1111110111011110
1101110
1001
10100111
1101100
1111111111100011
1111111111011100
1111111110010111
10110101
1111111111101011
1111111101011001
1111111110000101
1111111111100110
1111111111110000
1111111111111010
1111111111111100
100110
1111111111111110
1111111111010110
1111111110010101
1111111100000100
1111111001111011
1111110111111110
1111111011011000
11011000
1111111100101101
1111110110000000
1111111110101010
1111111111010011
10000111
111001
1001011
1110001110
1111001110
1111111111011010
1111111011110010
1111111111001101
1111111111101100
1111111110100000
1111111100000010
1111111111011000
1111111111110001
1
1111111111111111
1111111111011100
111
1111111111101000
1111111100011110
1111111100000100
1111111001111101
1111110110010100
1111110011101000
1001100011
111110
1111111111110100
1011000011
1111111100001111
1111110111011001
1111111100010100
1111111101110100
1111111001110110
1111111000101111
1111110110001100
1000110000
100101010
1111111001000110
1111110111000100
1111111000000000
1111111101010110
1111111110101101
1111111111111010
1111111111101000
1111111111110101
1111111111100110
1111111110001001
1111111101011000
1111111101101101
1111111100110110
1111110101011110
1111111001110101
1111110101100100
101000111
10000010
1000100010
1011110000
100110010
10110100
1011011000
101010111
1000001110
1111111111011011
11010010
111000101
1111111101110101
1111110111011111
1111110110011110
1111111001100110
1111111111101111
1111111111100111
101010
1111111111111101
1001
1111111101101001
1111111101100000
10110
1111111100111101
1111111110010110
1111111000010010
1111111111110100
1111110111101110
1000110001
1111110111111001
1010100011
10111100
1110011111
111100000
110100111
1111110101110100
1111111011110011
1111111111010101
1010011
100011
1111110110110011
1111110101110010
1111111011011010
1111111111110000
1101
1111111111011000
11011
101
1111111100011001
1111111101100000
1111111110000001
11100
1111111000110111
10010
11001010
1111111000101101
1111111110111011
1111111110100111
1111111010101110
1111111001011111
1111000
11100110
1111111100110000
1001110001
111100010
1111111010110000
1111111001101011
110110011
1111111011011100
1111110111000111
1111111011100111
1111111111110100
0
1111111111100100
1111111111110100
1111111111111011
1111111100010100
1111111101100000
1111110111100011
1111111111011011
1111111010111010
1111111010011001
1111110111111100
1000101000
1111111111111110
1111111101001110
1111111111001000
1111111010110110
110111000
10010110010
11100000
1111111101101011
1111111110011111
101000001
1110011
1110000
1111111110010010
1111110111001010
1111111100100000
10100
1111111111111110
1111
1001
10110011
1111111111100110
10001101
1111111010100100
1111111111011100
1111111001111101
1111111010100010
11000110
1001011
101001100
11011100
1111101111000000
1111110001110111
1111110110110110
1111111101111110
11001001
100011000
100011
110101110
11100100
1111111110000000
1111111110100010
1111110101110111
1111111101100010
1111111111010100
110001
1001110
1
10111001
1111111111010011
1111111111111111
1111111100110000
10011001
1111110100100110
1111110110100010
10010111110
1100101101
1110000001
111001
1111110000110001
1111100010000000
1111110110101010
1111111010110001
1111111101000001
1111111011001010
100111010
11011001
1010111011
1111111111100110
1111111110111011
1111111010111001
100
1111111111101010
1111111111010110
1111111111001000
10011
11001111
1111111111101111
1111111101001110
1001110
110010000
1111111110000101
11011110
10101110100
110101001
111010001
1111111001010001
1111101000111000
1111011111111100
1111111010010100
10101101
1111111011011000
11100110
1111111101100110
1111111101101000
111101010
10011110
1111111111100001
1111111110010101
1111111111101001
1111111111111111
1111111111111001
1000111
101000
1011100
1111111001101001
1001110110
1101111101
1011110110
10010111
10101010
1000011000
1101000
1011101111
1111111010000000
1111100100111000
1111101010111100
1111110010100001
1111111101100001
1111111010001111
1111111110011110
1111111101000001
1111111111101010
101011111
11110010
101001110
1111111101101110
1000
1111111111000110
110
1111111111001110
1010010
1111111111011101
1111111111011100
1000101100
10111
11001111111
10
1111111110100011
1010001000
10011101
1000111001
1111110011110000
1111011010101111
1111101101101000
1111111111101110
1111111011110110
1111111101110100
1100000
1111111100000101
1111111111011111
11001001
101111010
101111101
1111111111110010
1111111111001111
1111111111010010
1
11111
1100011
1111111110001000
10010001
111011001
1111111111011010
100010000
1000100100
110101110
1010010011
1100100001
1111111110111011
1111100011000100
1111100101001001
111
1000101
100001111
111010011
1111111110011101
11001011
1111111101011011
1111111101011101
1011000
1101101
1111111100110111
1111111111000000
1111111110111011
10110
0
1111111111010110
1111111110100111
1111111110101100
11101001
11111
11010111
110011010
1111111110011101
1111101010
10100111
1111111000010101
1111101010100110
1111110000000000
1111110001100100
101001100
1100000100
111100101
110110010
11100000
1111111001011101
101111111
11100
1111111011110101
1111111100010111
1111111111010110
1111111111101111
11010
111
1111111111001101
1111111010011011
1000000
1111111001100011
11000101
1111110111111000
1001010001
1111111110010101
11101100
10001000
1111101101111000
1111101001100100
1111101101100100
1000100010
10100101101
10110100
1101001001
1111111010110110
1111111111011101
100101010
111011100
1111110100110001
1111111001011110
1111111100110010
1111111111110111
1111111111011000
10011
1111111111111100
1111111110110011
1111111100101101
11001101
100010000
1111101
1111110011111001
1001010110
1111111101100110
1111111110010100
1111111011010101
11000100
1111110001001011
10011
11
1111111011011101
1111111100001101
1011100
1111111010100011
100100
1001001000
10110001
1111110110100011
1111111101000000
1111111100100010
1111111111111100
1111111111111110
1111111111110011
10110
1111111110110101
1111111010010110
101100011
1011011111
1111111100011010
1111111010100010
10110
1111111000011011
1010000011
101111010
1101010110
11011000
1111111000101100
1111111001100111
1111110010011110
1111110110010101
1111111010000001
1111111111101101
1111111110001100
1111111101000111
1111111000101101
1111110101110011
1111111010010100
1111111101101011
1111111111110000
1111111111010110
1111111111111011
1111111111011110
1111111110001100
1111111011110001
1111111000011111
100110100
10110100
1111111100110110
1111111110010011
1111111010100101
1111111011111101
111101001
1011100101
110100011
1111111100100101
1111111101011110
1111111101001110
1111110101101111
1111111100101110
1111111010111011
1111111100001001
1111111010001000
1111111011000001
1111111010001001
1111111011101111
1111111111101001
1111111111101010
1111111111000110
1011000
101110
1111111110000111
1111111101110100
1111101111101101
1111111001110010
111000111
1111111110011000
1111111010110100
1111111011110001
1111111000100110
1111111001000111
1111111111000110
1001101001
1111111111111001
1110001011
101111
1111111110110011
1111111110011011
1111111011110010
1111111000110111
1111111110111101
1111111101101101
1111111101000101
1111111101111000
10011
1111111111101001
1111111111111100
1111111111100111
1111111111101110
1101
1001
1111111011010110
1111111000000101
11111
111011100
101101
111100
1000100010
101011001
11100
1111111111000110
101010011
100101100
1111111100001111
100001111
1111111010011100
1111110101010110
1111110101111011
1111111100101100
1111111110110000
1111111101111011
11011
1011001
0
1111111111110100
1111111111111101
1111111111010000
1111111111111111
1
1000101
10010100
1111111110010000
1111111110011111
1111111101110011
11110100
1111111110100011
1111111000100100
111010011
101001
1111000
101100100
1111111001011100
1111110101100011
1111111000110111
1111110111101010
1111110110110110
1111111110000000
1111111110101011
1111111101101110
1111
1111111111110110
1110
0
1111111111010111
101
1111111111100001
1111111111110001
1111111111100100
110011
1111111101010011
1111111101001010
1111111110110010
1111111111000010
1111110111100000
1111110110101100
1111110101101101
1111111001101101
1111111100001100
1111111001111011
1111110110111011
1111111011101010
1111111101111111
1111111100011111
1111111010011111
1111111101111111
1111111111001110
1111111101010010
1111111111110101
1111111111110001
1111111111110001
10000
1110
100
10100
1111111111101111
100100
1111111111110010
1111111101110100
101
1111
1111111110110000
1111111111010110
1111111110001110
1111111110011001
1111111110111111
1111111110001111
1100
1111111010111110
1111111111111010
10110101
10101111
1111111110111101
1111111110111100
1111111111100010
100101
111
1111111111111000
110000
1111111111010101
1111111111111111
11101
1111111111101000
1101
1010
1011
1111111111100000
10010
1111111111110010
11
10011
1111111111110110
1101
1111111111110011
1100
1111111111000010
11000
1111111111101001
11010
11010
1101
111000
1111111111111111
110101
1111111111100000
100001
1111111111100001
1111111111000101
