1111111111011111
1111111111101001
10001
1111111111111000
100010
111
1111111111011010
1111111111110111
1011
1100110
1111111111111100
1111111111111000
10010
1111111111100011
1111111111110011
11110
1111111111111111
1111111111010011
1111111111011110
1111111111101000
1111111111101001
10
1111111111010011
101100
1111111111111011
1111111111001001
10110
1111111111101000
1111111111001011
1111111111111110
1111111111100000
101110
1111111111110101
1000
11010
111001
1111111111000111
1111111111110101
1111111111110010
1111111111110101
1111111111111111
0
1111111111000000
110
100000
1100110
11100
1111111111110100
1111111111011111
1111111111111000
1010
11
10011
10101
100100
101
1111111111101101
1111111111100101
10010
1111111111010101
1111
100101
1111111111101011
1111111111011110
1111111111111011
1111111111000101
1111111111011100
101101
1111111111010101
1111111111100010
1111111111010000
10111010
1111111111110110
1111111111111011
1111111110000010
1111111101111100
1111111110111110
1111111111110111
1111111111111011
1111111111101011
111
1111111111010110
1111111111101000
1111111111010100
1111111111101100
1111111111010100
1111111111101110
1111111111110101
1111111111001111
1001110
11001
1001
100010
1111111101000110
1111111100001000
1111111010001010
1111111011001111
1111111111101100
10010110
1111111010101011
1111111100111110
1111111110010001
1111111001001101
1111110110000010
1111111010001111
1111111011000111
1111111100100011
1111111111011001
1111111111111010
1111111111011101
100
10010
100110
1011
1111111111111101
1
1011111
11001101
111010
10011101
111000101
1111111100100000
1111111101100110
1111111111100000
1000111001
1000110011
1111111111111000
1010000
11001101
1111111110110101
111
1111111100111010
1111110111101001
1111111010000011
1111111011010010
1111111001000111
1111111110001111
1111111111001010
1101
1100
1110
11001
1111111111101101
1101010
1000010100
1100001111
1011101101
1110101101
1010100
1111111110100111
1111111111101000
1111111110010110
1111111111100100
1010100
1111111011111010
1111111101110001
101000010
1111111110101011
1101111
110011101
1111111110001100
1111110110100100
1111111010101001
1111110111011000
1111111010111000
1111111111101001
10110
1111111111101010
1111111111101110
1111111111111001
11
10001010
1010000100
1010001000
1000100100
11110101
101001010
110001111
1111111110101110
1111111101001111
100010001
1111110100
1111111010111010
1111111100000010
1010011100
101110
1111111111101011
1111111110100000
1111111010010110
1111111110111000
1111110011000000
1111110101111110
1111111100100110
1111111111001101
10
1010
101010
1000
1111111111111000
1110011
1101000100
10000000110
10101010
1111111111111101
1111111011010011
1111111111110001
1011000
1111111111111001
10100
1001111
1111111101001001
1111111100001000
111101100
10100
101111
10101110
1111111100011111
1111110111111101
1111110100101010
1111110100111001
1111111011110100
1111111111011111
1001111
1111111111110011
1111111111100110
1111111111010000
10010100
1000010
1000101110
111100101
1111111110100010
11100100
101101010
110101110
100001111
1111111110011111
100011000
1111111011000101
1111111100101100
10110011
100100101
100001110
111101000
1001000111
1101101
1100011
1111111101001111
1111110001011011
1111111001111000
1111111110001111
100100
1111111111101000
10101
1111111111101011
1111111111010011
100100000
10010010011
110011111
11111011
1001001000
100100000
101100
1111110001000011
1111100101100111
1111100110011011
1111111110111011
11011001
10001110111
100011101
10011100
11011
1111111110110101
100011010
101111101
1111111100110001
1111110100101101
1111111010100011
1111111111000111
1111111111011000
1111111111011011
1000
1111111111101111
101101
100010010
11111101
1111111011110010
1111111001010100
1111110011011101
1111100101111000
1111100011011010
1111100010000011
1111110001011100
1111110110000011
1010001001
1111011001
11100100
10000001
1111111011011101
1111110001011100
1111111010101011
1111111101101011
11100000
1111111001101111
1111111000001010
1111111100111100
100110
100011
1111111111101100
11011
10000
1000000
11100
1001010
1111110101111110
1111110000011110
1111101000100000
1111100100100010
1111110101001101
1111110110011110
1000010
11000001111
1101111010
110011101
1010000101
1111110110111011
1011011101
1111111100100010
1111111101110111
1111111011010010
1111110001010100
1111101111101001
1111110101111010
1111111011110100
1111111111100000
1111111111010010
1111111111000011
11000
1111111111011010
1111111111100110
1111111100011011
10101010
11001010
1111110011010001
1111110011010010
1111101101111010
1111111101111010
1011110010
110
1011000100
10111001
1100100001
101011000
110000000
100111100
11001001
1111110010100101
1111101101110001
1111100111010001
1111101101100000
1111111010011111
1111111101110000
1111111111111111
1011
1111111111101110
1111111111101000
11111
1111111110111100
1111111111010011
10011101
101101001
1111111111001110
1111111110010110
1011010
1101101110
1101010111
1111111010101000
1111111111111011
1100011110
1100101101
101111010
100101101
1111110011001111
1111111100001011
1111110100101011
1111111001111100
1111111100110111
1111110000001110
1111111000010011
1111111100111010
1111111110110001
1111111111101011
1111111111010111
10100
100100
111
1111111010010001
1111111110100010
1111111110001111
1111110111110101
1111111001101001
1011010
100000
1111110110000010
1111110110110111
1011000
1111111111111001
10000110
110100111
1111111111000111
1111111000111010
1111111111001110
1111111111111110
11
10010011101
101010010
1111111010100011
1111111011000110
1111111110100101
1111111111001110
101001
1111111111010101
10010
11100
1111111010010001
1111111101101011
1111111101110111
1111110100100101
1111110000100001
1111111011100001
11110
1101001
1111111110110101
1111111110010101
1000011011
1110010011
111001000
1111111010101000
1111111101000100
11110110
101011001
110111100
1111111010
10010111011
11001011
1111111001010101
1111111110000011
1111111111111110
1111111111111011
1111111110110110
101
10000011
1111111100110001
1111111100010110
1111110110011100
1111101100111111
1111110000110000
1111101100000101
1111110101111101
1111111100111011
1111111100101111
1111110101011110
10111110
1111111100010001
1111111110111100
1110001
1000000011
100110111
1111111101011000
110001111
1011010100
10011010001
110110001
1111111011001001
1111111011010001
1111111101111011
1111111111101001
1111111111101011
10101
1111000
101010110
1111111100100100
1111110010011100
1111101010101110
1111110010010100
1111101001011001
1111100011100000
1111001110101000
1111010110000000
1111001011110111
1111010001001100
1111010111101001
1111110001100010
11101011
111111111
1111111110101001
1000101001
10000011
11011000
100011110
110011
1111110011101011
1111111010001010
1111111111111111
10111
1111111111111101
11011
1111110
1111000111
101111
1001
1001111
1111110110001010
1111111111000111
1111110011100000
1111110000111010
1111110011110100
1111101111110011
1111101101011101
1111101001100111
1111110011101000
1111111101000000
1111110111000001
10101101
111110100
110011
110011110
101011001
1111111011001001
1111110101001100
1111111101111000
1111111111001101
100
110001
1111111111110100
1100111
1011001010
1101110
110100000
10110000
1111110101101100
1111111101110010
1111111111000100
1000001001
1010011101
1011110011
1001101000
1111111010011110
1111101101101010
1100000
1111111000111011
1111111000111101
11010100
10101011
1000100111
1111111101111100
1111111101001001
1111111010010000
1111111110100100
1101
1111111111101000
1111111111110110
111100
1111111111011111
110100101
100000001
1111111011010011
10001101
1111111001011001
110000100
111000101
1011001110
10010111
1111111100101010
1111111111010001
1111111110001100
100110000
100010101
110010010
110001100
10011111
1111111101000100
1100100
1001110
1111110110101110
10
1111111111101100
1111111111111000
111000
10110
1000010
1111111100100001
1111100
111000110
11001101
100001011
101100010
1011011
1111111000110110
1111111011000111
1111111000000111
1111111010011110
1111111111110111
1111111110110110
1111111100011011
10000011
1111111111100010
1111111110110110
11101000
1111110101010111
1111111111101100
1111111110001011
1111110101100110
1111111011000100
0
100000
1100
1111111111110010
0
1111111101011110
101011
110011111
110001101
1111111101100011
1111111110001100
1111111010110110
1111111110111001
10000010
1111111010111100
1111111001000010
110100100
10101101
1111110
1111111101010010
1111110110110111
1111111111111101
100100
11010010
1111111111111111
10110011
1111111000100100
1111111011111001
1111111111010101
10011
1111111111110101
0
110100
11010
101100010
111111101
1010011001
100001011
110110000
101010
1001100000
110101001
1001001000
1111111000111101
1111111100100100
1111111100100011
111011111
101010
1111111010100001
10001111
0
1111111101000100
1111111001001101
1111111000111000
1111111001100100
1111111010110100
1111111111101101
1111111111011010
100001
1010
1001000
11
1101011
101000111
1001001110
1010000010
11111011
101100
101111000
100011111
11010
1111110110101100
1111111011001101
111011000
1111111100000110
1111110110101000
1111111011101111
1111110111010111
1111110110010111
1111111010000110
1111111100110000
1111111101110100
1111111101010110
1111111110100001
111011
101100
0
1111111111111011
1111111111101001
1111111111101110
1111111111101000
1000000
10110010
100000011
100001001
100110010
10101
110100
1111111101110010
100110
1111111110001110
1111111111001010
1111111110011010
110000
1111111100001000
1111111100000010
1111111111010000
1111111111100101
10101
111111
1111111111100111
1111
1111111111111100
1111111111001100
1111111111100101
11
1111111111101100
101011
1111111111101100
1111111111111101
1111111111001110
101000
1
1000111
1111111111010101
1111111011111000
1111111011001111
1111111011110000
1111111101100000
1111111101111000
1111111110111001
1111111111001100
10
1100
1010010
1111111111010011
1111111101100110
1111111111001111
1111111111111110
1000
110100
111000
1101
11
1111111110101110
1111111111110111
1110000
1110
1010100
1111111111100011
10110
10101
110001
11111
1111111111110001
100011
1111111111110101
0
11010
100100
1111111110110110
1111111111110101
1111111111111001
1111111111100100
10010
1111111111110101
100001
1111111111111110
1111111111101000
1111111111000110
1111
