1111111111111100
1111111111100100
11011
10
1111111111110111
10111
1111
1111111111111110
1111111111101010
1111111111100110
1101
1111111111110000
101011
111011
1111111111111100
1111111111000011
110000
1111111111110101
1111111110110111
1111111111100001
1111111111110011
1111111111011011
1111111111111010
1111111111101110
1001000
1111111111010000
1111111111111111
10111
1111111111010010
0
1111111111001010
1111111110111110
1111111111111011
1111111111110110
1111
1111111111110101
1111111111101101
1111111111000100
1111111111111010
10001
1111111111110000
1110
0
1100
100100
1
1111111111101101
100000
110010
1111111111111001
1111111111001100
111
1111111111101001
1111111111111100
1111111111000101
10101
1111111111110001
1100
1000011
110010
1111111110111101
111
1100
11000
1
1111111111011001
1111111111101000
11
1111111111111011
110
1111111110110111
1111111111000000
1111111110011000
1111111110100011
10
1011101
10100
110010
1111111111111111
100011
1111111111010001
1111111111001111
11010
1111111111111110
11000
110100
1111111111110110
111000
1111111111011110
1111111111101100
110001
1111111111100101
10011
100
1111111111110000
1111010
10011001
100100
1111111100110101
1111111100111001
110111
10111100
100000
1101101
10010100
1000100
1111111101001110
1111111101110000
1111111110001000
1011
100
1111111111111011
1111111111100101
1111111111101101
1111111111100100
1100
1000011
10000101
110010
1
1000110
1111111010111111
100010000
1011110101
11111
1111111011001101
1111111010111111
1111111010101000
1111111110001101
1111111111111100
1110110
1100111
1111111111000010
1010010
1111111011100010
1111111101011111
1
110001
10001
1111111111101110
1111111111011010
1111111111101011
1111111111111101
1111111111011000
1010111
10111001
1111111001111101
1111111001111101
1111111101001101
1111111101001111
11011000
1111111010100010
1111111111010111
1111111010110010
1111111101111001
1111111101001101
1111111110101100
1111111110011110
101011
1111111111001011
1000100
1111110111001111
1111111001100000
1111111101101011
1111111110010001
1111111111111011
100011
1111111111100011
1111111111101001
11
100101
1000101
1000010
1111111111110111
1111111000101011
1111111010001110
111000010
1010001110
110001000
100100110
1010000
1110110010
1111111111010110
1111111100011011
11111010
1111111000010111
1011100111
11100010
111110010
1111111101100010
1111111001111100
1111111100101011
1111111101100111
1111111110101011
1111111111111110
1111111111101110
100101
1111111111011111
10110000
1111111110010101
11011101
11100001
101111111
101100
10110
11001111
1111111110011101
1111111001110101
11101100
11011001
11111101
1111111110011101
1111111101101011
100110101
101011
1111111111011010
1111111111000001
1111111111100001
1111111011010000
1111111000010010
1111111010001101
1111111110001010
1111111111110110
100
1111111111010110
11011
10101001
1100101
10001
1111111100101110
1111111000101001
1111111111000110
1111111010111111
1111101
110001011
10110
1111111010000111
1111111100111100
101000010
110100110
10010001
110111001
1110100000
111010000
1111110111111111
101101010
110
1111110011110111
1111110111100110
1111111110011100
100100
10011
1111111111100101
1111111111101111
1110101
101101011
1000001
1111110011101010
1111111110101110
100111
101000100
1101100
1001100
100100011
1111111101101111
1111111001101101
1111111001001110
1011010
110011101
1111111101110111
11010011
1111111
10110011
101110000
111010110
1111111111111100
1111111001000000
1111111100111110
1111111101011011
1111111111111101
1000
1111111111100011
1000111
101111011
1111111111010111
1111111101011111
10111111
101011010
1100111100
1101000
10000000
1111111100100000
1111110110111110
1111101010001100
1111110011010001
1111111110111111
101011000
1000011000
1111111101000011
100101010
111111010
10000001
1111111101110110
1111111111110111
1111111011110100
1111111110100110
0
1111111111010010
1001
110100
1111111111000110
10011100
1100001
1011010
10000011
1111110101010010
1111111110011101
1111110000000100
1111100101100000
1111011100100110
1111011100000111
1111111001011110
1000001100
1111111111000110
1111111100100101
1111111111101111
1111111001100100
1111111110011100
1001010011
1111111111011111
1111111011001110
1111111110001110
1111111101110101
11000
10110
1100
110000
1111111110111001
1111111110111111
1111111110110001
1111111111101101
1111111000011110
1111110010100110
1111101010111011
1111011111011101
1111010011001110
1111011101101000
1111101101000010
1111111010111100
1010110001
1101001000
11101011
1111111110010101
1111111000110010
100000111
1111110100111001
10011100
1100
1111111101010010
1111111001101010
1111111111010000
11100
0
1111111111110010
1010111
1111111110100111
1111111111011011
1111111110101111
1111111010010001
1111110100001111
1111101010000010
1111100100001010
1111100111001001
1111101000111000
1111111001111001
1110110100
1011010010
101001010
1111111100110010
11100
100000001
1111111111111011
110110100
1111110111010111
1111111111010010
1111111111110101
1111110101111110
1111111010110110
1111111111001011
1111111111110111
1000
1111111111010001
10001
101
1111111111011110
1111111110101000
1111111100000011
1111110110111001
1111110000011011
1111110100111011
1010010
11100110
111111001
11110101
111000001
1001010010
1111111111110101
1000010101
110101011
111100000
1110111
1111111010000100
1111111000000100
1111111001011111
1111111010001000
1111111011000010
1111111110000110
1111111101101000
1111111111011101
1111111111111001
110001
100110
11001
1111111110100100
1111111100100110
1111111011110010
1111110111101101
10100100
1111111100011111
1111111110100011
1000000
1111111100110011
10101010
1001011101
1100000010
1000011
10101110
1111110111101101
1111111000001011
11000010
1111111100111111
1111111110011000
1111111110111100
1111111110011001
10111
1111111101100011
1
1111111111101111
1111111111010100
100111
1111010
1111111111100110
1011111
10000110
10001
1111111101111010
1111110100000011
1111111100010111
1111111100010000
1000111011
1110100000
1101101010
110111111
1111111111111101
1111111111101101
1111111111110010
1111111100101010
100011001
1111111101000001
1100110
1111111010101000
1111111101010111
1111111111100110
1111111101011101
1111111111000110
1111111111101010
111110
10110
1101110
1110101
10011100
1111111101110101
1111110100000010
1111110000001101
1111110001001000
1111110000011001
1111110111111111
11101110
1010100101
10011011
1111111001
1111111100101101
1111111010001111
101001110
1100111011
1111111111101110
10100001
110101010
1111111110000010
1111111010101100
1111111000101111
1111111101110111
110
1111111111010110
1111111111100111
101111
1101001
100000100
111011
1111110101110100
1111110000110010
1111110000010111
1111101011101010
1111100111111011
1111101011011111
1111101110101000
1111110001011100
1111110010111011
1111111001100110
1101101111
101110101
101100011
10011010
111
1001100010
1000101011
1111111111101100
1111110010110010
1111110110110101
1111111111010110
101010
1111111111101111
11010
0
1111111111110000
1111111111101100
1000011
1111110111111101
1111111000000000
1111111001001101
1111101110000110
1111100001010111
1111000111101101
1111000110000110
1111010100100000
1111101101011100
1111110111000110
1111111100100011
111011000
111100110
1111111110011000
100110111
1010011110
11011000
1111110111101101
1111110111101011
1111111101011000
10001011
11011
1111111111010101
1101
1111111111110000
1111111110010110
1111111101100110
110000010
1110
1100101
1111111111001110
1111111001010000
111101100
101010101
1111111101110101
1111110111000111
1111110011110111
1111111010110000
1111111111001010
1011000
1000000010
1100001110
1010101000
10111000
111111010
1111111101011001
1111111100001111
111010
1111111111110010
1111111111001100
100000
1111111111111101
10101
1111111111010110
100100000
1101111110
1100000010
1001101000
1001000000
1000110000
10010101
10011001011
1011001111
10101111
1010001110
1111110101000110
1111111101111110
110110011
1000100
110001111
1000001001
1010101111
1110000
1111110110011110
1111110011100001
1111111111011000
1111111110011100
1111111111110001
101010
1111111111111001
1111111111011100
1111111101101100
11010110
1110110011
1011011011
11011111
101000111
1011011000
101101111
100100010
11001011
1111111100010101
101101
1111110111101101
1101011
1111111100011110
1001101
1110011
110001
1111111011110001
1111111001010001
1111110101011011
1111110100111100
1111111111000010
1111111111100111
1101
101111
1111111111100111
10101
110011
100011010
1001111001
1101011000
111011111
11101001
111011010
1111111110010101
1111111101111110
1111111101010010
1111111001000011
1010101011
10001101
10100111
1111101111000101
1111111001001110
1111111011011000
1111111011100011
1111111001010000
1111110100011010
1111110011111010
1111111001001000
11101
11111
101001
1111111111111100
1111111111101101
1111111111011111
1111111111101000
100010110
1011010100
1110100110
1010111100
11110111
100100100
1110011100
1010001000
1001001
11010010
1111111110100001
1111111101011011
1111111011000011
1101011
100010100
1111110110000010
1111111100000001
1111111111110011
1111111100010011
1111111110111011
1111111111111000
1111111111001010
10001
1111111111110010
110110
1111111111101011
1111111111000001
101001
1111111111011111
11100011
101100100
111100011
1011100000
10010010010
10010110011
1101000100
1111011
1010100111
1001011010
10100100
1111110111111101
110
1111111001100010
1111111011001100
101001001
1010110
1111111111000010
100110
1111111111100000
1101
111111
1111111111010011
110
1111111111100110
1111111111111101
1111111111011101
1111111111110001
100100
11010
100110
1111111111000111
1111111100010110
1111111101000000
1111111111000010
1111111101100000
100
1110
10100111
110110011
111111010
101100001
100001110
111111
100110
1111111111111101
110000
110010
1010
1111111111010111
1111111110111010
1111111111110010
1111111111100011
1111111111110001
1111111111110010
10011
1111111110110110
101111
1111111111010110
1111111111100100
1111111111100110
1111111111111010
11011
1111111111110010
1111111111000111
100001
1111111110100110
1111111110111011
1111111110101011
101001
0
10
1111111111111111
1111111111011010
111
100100
1111111111111010
1111111111111000
0
1111111111011100
