100110
1111111111100101
101
1111111111111010
1111111111100000
101101
1111111111100011
1111111111110111
1111111111100100
1
1111111111100000
100111
1111111111111111
100110
101011
100011
101111
10000
1111111111010101
10101
11100
1111111111011010
1111111111111010
100011
1011
1111111111110000
100000
101
110100
110010
100110
1111111111111100
10
1111111111111010
1010
101
100
110011
1111111111110010
1111111111000110
1111111111111011
11111
11
1111111111100011
111
100010
11101
100
10101
1111111111101111
11011
1111111111001001
100000
1111111111101110
1111111110111011
1111111111111011
1111111111110110
1111111111101111
1111111111001111
1111111111011101
1111111111101000
101010
1111111111110001
1111111111000100
1111111110110110
1111111101101101
1111111101011101
1111111101111000
1111111011110000
1111111100101100
1111111101101100
1111111101101010
1111111111100011
11001
1111111111100101
1111111110111010
1001
1111111111111001
11000
1011
1111111111100101
1111111111101000
1111111111010111
0
1111111111100111
1111111111001100
1111111111010011
101100
1111111111011000
101011
101011
1111111110010111
1111111010111001
1111111001001011
1111111011011010
1111111011000000
1111111101010110
1111111111100011
10001110
10011100
1010111
1100
1111111100001101
1111111010101100
1111111110101111
1111111111000011
1111111111110001
1111111111010101
1111111110110000
1111111111101000
1111111111011111
1000011
100001
1111111111011101
101000
1111111111101101
101000
10110
1111111111100011
1111111111111001
1111111110101000
1111111110010110
10001
10110000
1111111111000110
1110001
1111111100011000
1011001
1111111111111001
1111111100100111
1111111111110011
1000000
1111011
100010000
11011010
11010010
1111111111101001
1111111111111010
1111111111101111
10100
11
10100
1111111111110011
11110
1101000
1111111
11100111
10011
1110101
1111111100000011
100100100
101011000
100111000
10110000
101010001
10001000
1100001110
1111111111011111
110
10010
1111111111101011
1001100
11000110
100000011
10111100
1111111110111001
1111111111110011
1111111111011110
1111111111110010
1111111111101100
1111111111110000
1111111111010001
1111111110111100
1111111110010101
1111111111110110
1111111110010010
1111111101001010
1111110100011100
1111111110110100
1111111110100101
11111011
1111111101100101
1111111111100110
111010000
1001001101
10011010
100111010
11111000
1111111011111000
10100110
10101011
101101110
11110101
1111111110111011
1111111110110000
10110
10
1111111111111111
1111111111110111
1111111111101011
1111111110010010
10110110
11000001
1111011
1111111010010010
1111111110000010
110
1101000
11011101
10010111
10010011
1111111111111100
1000111
10000110
11111010
1000110100
1111111101010010
1111111100101000
1111111011010011
1111111110110010
1011000
1111111011000001
1111111011001011
11
110101
111000
1111111111100110
1111111111000110
1111111110001011
10000110
100101111
1010101
11011100
1111111111011100
1111111111000001
1100001
111010011
11011101
1011111010
1011110111
1111011100
1111111110111100
110010010
1001110
1111111011111110
101100
1111111011110111
1111111101100010
10010010
1111111010111100
1111111100001001
1111111111100101
11101
10100
1111
1111111110110001
101001
10
1000011
1111111100110011
1111111100000100
111010000
1011110
1111111001100100
1111111001010001
100110000
1111111110100010
1111111111001001
1011011
1111111110100000
100010100
1000000110
101111111
1111111110110111
1111111000110110
0
110000110
1111111101100110
1111111100110100
11
1111111111111000
10100
1111111111111010
10100
1111111110101001
1111111111101110
1111111110010111
1111111011111110
1111111110111011
11100010
10110010
1111111101011111
1111111101001110
11100011
11111001
1011101
1111111101110101
10010110
101110101
1110001
1111111011110110
11010101
1101100
10000110
1000111110
1111111110100011
1111111111001101
100101
1111111111110111
1111111111111111
1111111111011100
100100
1111111101101101
1111111100000011
100
100111
11001001
1010001101
100000011
1111111000111000
1111101110001011
1111110011000001
1111111100101010
1110
1111111101101111
110001111
11010101
1111110111011001
1111111110100110
1111111111010000
1111111111111001
11110100
1010101111
100000
1111111111010010
0
1111111111111011
1111111111110110
1111111111010100
1111111111010111
1111111101110110
1111111110101001
110010000
1111111100000000
11100001
1100011000
1
1111110011111000
1111110011101101
1111110011010001
1111111001000000
1111111010100001
1111111010000010
1111111011011001
1111111110101001
1111110101110101
11101110
1111111110010100
1111111011110010
11101110
111000100
10111101
100000
1111111111111011
11011
1111111111111101
101110
1111111111101110
111
1111111111001111
1000110111
100011111
111100010
1111100100
1111111001001101
1111101001011101
1111101010010011
1111111000111110
1111111000011010
1111110101000000
1111110011100010
1111111001001000
1111110110111111
1111110010111011
1111110110001110
1111111001110010
1111111011111111
11101101
1100
101101110
110110
1111111111111110
10110
1111111111110010
1111111111101011
1111111111111001
1111111111011010
1100111000
1011110111
1001000010
101000110
1110011101
10111000
1111100111000100
1111101101110100
1111111001010111
1110000
1111111010101100
1111110100100011
1111111010011001
1111111000010100
1111110100101101
1111111110101010
11000101
10100111
110001011
1111111110001100
11111
110111
1111111111100010
1100111
1000100
1111111111011101
1111111111101100
10110010
1111100100
1100111101
1000100101
1001100001
1110011000
1111111110110000
1111100101110101
1111101010111001
1111110010101011
1111111010000000
1111111011110001
1111111000000101
1111110101011101
1111111110001100
1101101
10100111
100110100
1101101
100110101
1111111011001001
1111111101000011
101000
1010111
100100
1101
101010
1111111111010101
110001011
1110000011
101110110
111001000
1100111010
110011000
1111111110100100
1111110101001111
1111110001011000
1111110101011111
1111110101100000
1111110110101011
1111101100000100
1111110101010100
11001101
111000
110000010
1111111110001110
110000000
1010101
1111111110101011
1111111010011101
1111111111100011
1001
1111111111100101
1111111111110001
11
1000111
110010010
1110110100
10111001
111001111
11111001
101011001
1111111110000001
1111111100011001
1111111100100000
1111110100110111
1111110000111001
1111101110001000
1111110001000000
1111111101110100
100100010
1111111110101110
10000011
1111111100111100
111010010
11101110
11001
1111111100101010
1111111110100000
1111111110101110
1111111111101100
10000
1111111111001011
1110
10000010
100100010
111000110
11101
1010001100
1101010110
110110110
1111111000100001
1111111101110010
1111110111101001
1111101111100001
1111101100110100
1111110011000111
1111111101110111
101111011
1111111101001011
1111111110100101
1111111111001001
100010110
100011
1111111101011000
1111111101111110
1111111110110010
1111111111101110
1111111111100010
1100
1000
11000
1111111101001000
11011101
11000011
1100101
10110101
11100010
1111111111011000
1111111010100110
1111111111000001
1111111000011111
1111110101001110
1111110011100100
1111111101001110
101110111
10111111
1111111000110000
1111111110100111
1111111110001111
111111001
1111111110111110
11011100
1111111110010001
1111111111010111
11110
1111111111100101
0
1010
1111111110011001
1111111100011011
100011
1111111100010011
1111111101010111
11100010
1001111001
1001001110
100001000
110111010
1111111110111101
1111111110110101
111100
11011110
110010000
1001010
10101011
1111111111000000
1111000
1111111101000010
1111111010111101
10101011
1111111110111010
1111111111111111
10
1001
100010
1111111110101011
11100
1111111110001100
1111111011001011
1111111011111101
100111000
1111111011110000
1111111111100000
1000111100
10110010
1111111000000011
1111111000011010
11100111
111001101
1111111111000001
1011100
0
1111111001110000
1111111000001001
1111111100001000
1111111100000010
1111111101110101
100100
101
1111111111100101
1111111111001100
111000
1111111111101010
1111111111100001
1111111111011101
1111111101100000
11010000
1011101
10100100
1000001000
1000100
100000
1111111101110100
1111111111000100
11101101
1111111011101010
1111111011000110
10101111
1010010100
11011111
1111111010001000
1111111011110001
1111100
10000011
101101
1111111111000011
1011
1111111111000111
101001
1111111111100110
100
1111111111111111
101111
1111111101100000
1111111110010010
11111010
1111111110100101
1111111010101101
1000
101101111
101100101
10111000
100000100
11001001
1111111101010101
1111110
111011100
1111111010010010
1111111011101111
1111111111111010
111110
1111111110100100
1111111101001111
1111111110110110
101
10
100
1
1001
1
1111111111101000
100110
100111
1111111110000101
10000100
10001000
1111111111110010
1111111111111101
1111111001110110
1111111101000000
1111111110000010
1111111110100110
10000101
1111111111111000
1111111111010101
1111111111010110
100
1111111100010010
1111111111100001
1111111101000111
1111111101101110
1111111111101111
1111111111101000
101
10001
11101
11010
11100
11011
1111111111010001
101110
1111111111011010
10000111
1111111110101100
1111111111101011
1111111101111001
1111111010101000
1111111011101111
1111111011101000
1111111000000111
1111111001010001
1111111101101011
1111111110110110
1111111110100000
1111111110100011
1111111101101001
1111111111001000
1111111111110101
1111111111001101
1111111111011100
11000
1111111111110010
1111111111001110
111
10
1010
10011
110010
1011
100000
100
1111111111010110
1111111101110000
1111111110101011
1111111110011100
1111111111101111
1111111111100000
101111
1111111111010101
1111111110101011
1100001
10010000
1101111
1111111111111001
1111
10000
1111111111110000
100101
1111111111100111
1111111111101110
111000
1111111111100111
1010000
1111111110111100
1000101
1111111111101001
110
1111111111100011
11110
10
111100
1111111111111111
11
1101
110000
1111111111100101
1111111111110111
10111
11110
1111111110110110
10100
1111111111010111
1111111111001000
1111111111111011
1111111111100010
1111111111100100
101011
10110
1111111110111011
