1111111111011100
1111111111011010
1111111111110110
110011
101
1111111111101100
101010
1111111111111011
11111
111
1111111111111010
10000
1
10101
0
1111111111011110
11101
1111111111001111
1111111111101111
1111111111111001
10100
1111111111111100
100000
1000101
1001
1111111111010000
0
111001
111100
100
0
1110
1010
101111
1111111111011100
1111111111011011
1111111111101000
111100
100110
1111111111111101
1111111111001001
10000
1111111111111101
100000
1111111111101110
1111111111110101
1111111111110111
1111111111101101
1111111111101111
1111111111010010
1111111111110110
1111111111110011
1111111111101110
1111111110110001
11001
101010
100100
11100
1111111111110110
1000011
1111111111101001
1111111111110100
1111111111100110
1001
1111111111011011
1111111101100100
1111111110010000
1111111101101011
1111111110001101
1111111111110100
1111111111100111
1011100
1100110
1110
1001
1111111111101011
110010
110111
10
101101
1111111111101011
100011
101
110
10010
100010
1111111111111000
1111111111111110
1111111111011100
1111111111110111
1101
1111111111000011
1111111110001101
1111111101111000
1111111100101001
1111111011000001
1111111101010111
1111111010111111
1111111101010101
1111111110011110
1111111110100000
1111111011010101
1111111100010100
1111111110100000
1111111111111100
1111111110101011
1111111111101000
100101
1111111111111111
1111111111110111
1111111111110000
11010
111
1111111111100110
1100
110100
1111
1111111110111000
1111111110001111
1111111110000111
1111111101101110
1111111000111000
1111110111001011
1111111010011100
1111111010000110
1111110111011111
1111111100101000
1111111111010010
1111111100011010
10
1111111111101001
1111111010011100
1111111001101101
1111111110101010
110011
101011
1111111111110111
1111111111111000
1111111110011000
10100
1011
1111111111101110
11100
10101
1111111111011001
1111111111010000
1111111111000100
1111111110110011
1111111101011001
1111111010000011
1111110110110001
1111110110100111
1111110110110011
1111110011000111
1111110110101100
1111110111001011
1111111100010101
1111111100010100
1111110010011000
1111110100110011
1111110110011000
1111111011011000
1111111111110001
1111111101110000
1111111110000000
1111111110110100
1111111111101000
1111111111101111
1111111111100100
10101
10000
1111111111101101
1111111110100110
101101
1111111101110101
1111111100101110
1111111101001110
1111111000000111
1111110100111110
1111111101110011
100001
1111111011101010
11000100
1111111001011000
1111110000101101
1111110100101010
1111110111110111
1111111100110011
1111110100001101
1111111101101110
111010
1111111110110000
1111111101010100
1111111011010000
1111111111011100
1111111111111100
100011
0
100000
100000
1111111111110111
1111111010100111
1101010
110000010
1111111111111011
1111110111101101
11110011
100011
1101010
1111111010001000
1111111011101100
1111110111001010
1111110111010001
1111110111011000
1111111111111111
1111111101001111
1111111010001110
1111111011011100
11101001
1001011011
1111111111001000
1111111001100000
1111111111110001
0
1111111111000001
1001101
100101
10100111
10010110
1111111100000010
1111111111100111
11101
1111111111101001
1111111011011011
1111111101100110
1111111011110111
1111111010101000
1111111000101001
1111111000010010
1111111011011111
1111111000101110
1111111111101000
111111
1000000
101101100
10111101
1111111101110000
1010001111
1010100101
1000110
1111111110110100
1111111111101111
1111111111110110
1101101
100001
110011100
1000101
1111111111010101
10110000
0
1111111100110111
1111111101001010
1100100
1001011111
101110110
100001110
110100110
110111100
1010010101
1000111110
1011101010
1110100
10001010
1101110110
1010001000
1001110111
10000110011
1010000001
1111111101010011
1111111111111110
1111111111101100
1011010
10011001
1000001100
10000101
1111111111010100
1111000
1111111111001001
10100100
11100100
10000110011
1001110110
11001110
10100100010
10010110
100101
101111100
10000111000
10100110011
10001100000
10010011011
1010111000
111101000
1101001011
1110100001
1010100011
1010010
1111111111111010
11
1111111111101011
110000100
110010001
1000111100
1111111111101111
1111111110010110
1111111000110001
1111111010011010
100000010
10000001
1100100111
101011100
1010111001
1111110111100001
1111111000110000
1111111011111111
1001001111
1011001010
1000010110
101111
10010110
1111111111001111
11101010
11000110
110101110
10000010
1111111111111011
11010
1100000
11100001
11010010
101010110
1010001
1111111100001100
100100100
101100000
111010101
111001001
1011111110
1000001100
1111111111110100
1111110010110011
1111111100000111
1111110111100010
1111111111010000
1111111100001010
1111111001100000
1111110111111100
1111110010110101
1111111000111001
1111110100000010
1111111010000001
11100001
1110110
1111111111111000
100111
1001110
11011011
1111111110001011
1111111010110100
100000101
11000001
11010000
1111111111111100
1111111100101100
110111100
1101010010
11110001
1111110011010100
1111110000000110
1111101010010000
1111111000111111
1111101111001100
1111110001011001
1111110110111001
10110010
1111111111100000
1111111011111010
1111110000110111
1111111001001010
1100100
110
1111111111110000
1001
100101
100001110
1110101
1111110110010101
1010100111
111110101
1111111110001011
1000111101
111000101
111000100
10001110
1111111111001101
1111110011010001
1111110110101000
1111110110101010
1111110100110010
1111110010011100
1111110011001010
1111101101100001
1111111011001101
1111111000001010
1111111100101000
1111111010010101
1111111100100101
1111111100111010
1101
1111111111101010
1111111111110001
1111111110100101
1010011
1010110
1111111110110100
100111100
100110100
1011100000
101010100
1111101
11100100
1111111100011111
1111110101001010
1111101000010111
1111110100001010
1111111100101000
1111101010101011
1111111010111110
1111111110100010
1111111011000001
1111111010001011
11000101
1111111100110000
1111001
11011
1111111011111110
1111111111101101
11010
10011
1111
100111
101000
100011100
1010
1111111011011100
1111111100011001
1111111100000000
11010
1111111000111111
1111101110010111
1111110110010110
1111110101001001
1111110100111010
1111111000100001
1111110110110000
1111111111110100
10001110
111100011
1111111001101010
1111111111111110
1111111100010111
1000000
1111111000000001
1111111011100110
1111111111101001
1111111111111111
1111111111110111
11010
1111111111111010
1111111101111000
110001
100000000
1111000
1111110101100110
1111110110101111
1111110110000010
1111111010001100
1111110001011000
1111110101001111
1111110111111011
1111111111001101
111100000
1111111010110110
111111011
100101011
1111111110001010
1111111101101110
1111111011011100
1111111101100101
1111111111100111
1111111001100110
1111111110010101
1111111111010111
1111111111001010
10010
1111111111100110
101010
1111111100111111
1111111101110100
1111110010110111
101000
1111111111011101
1111111110001110
1111110011101010
1111101111101000
1111111010000001
1111111000110111
1111111011111111
1010110
1111111100100000
1111111010000011
1111111111101001
1111111101001100
1111111010111000
1111111011101010
11001101
101111101
1111111100100110
1111111000011000
1111111111001000
1111111111110001
1111111111111000
10001
100
1010100
1111111111101000
1111010
1111111001111010
1111111011000101
11001010
1111111100111101
1111110010000000
1111110010100000
1111110101111000
1111111100011111
10000
1111111100001101
1111111111010001
1111111001110001
101010100
1111111111101011
110
1111111010110101
1111111111110101
10001011
1111111001110010
1111111001000011
1111111100000011
1111111101000100
1111111111010101
11110
100010
111
10000
1111111111111010
1111111101001001
1111111100110100
1111111101100101
1111111111000101
1111111100001100
1111110010000010
10
1010011111
1111111000111110
1111111011001111
1111110101111000
1111111010100100
1111111100011001
10110100
11101000
1111111101011101
1111111100111010
11110011
1111111010110111
1111111100100001
1111111100110111
1111111110101101
1111111111111011
1111111111101101
11
101000
1111111110100101
1111111011011110
101101
1111111011111000
1111110111000011
11000110
1000110010
10000100
1010001001
10001
1111111101110001
1111111001001010
1111111101011001
1111111001000100
1111111111010010
110101000
10100001
10110
1111111101111111
1111111100110001
1111111111010101
1111111110100100
101000
1111
1111111111011110
1000
111011
100
1111111111100001
1111111010111000
1111111101100000
10001
1111111011001010
1111111010011100
100110111
1111111100001011
1111111001100101
11101111
101111010
100111010
1001001110
100000100
110010011
1100110010
1111111111011011
1111111101001000
10010
1111111100010010
1111111111010110
101011
1111111111101010
1111111111110010
1111111111111101
101001
1111111111110000
1111111111100100
10110
1111111100111111
1111111111011010
100101100
101100
1100110
1000101110
1111111101001101
1111111100111111
1111111110110001
100001
10100011
10110
101100111
10011001
1111111111001111
10110010
1111111111110100
1111111011000001
1111111011010100
1111111111001101
1011111
1111111111000010
101000
1011
1111111111011011
11110
1111111111111111
110101
1111111111011010
1111111111100101
100000
10101000
110000011
1011101
111011000
1111111101110110
1111111100011010
1111111101110000
1111111100000011
1111111110101001
10100100
1000000011
1111111110001000
1111111101010000
1111111110101000
10111001
11100
1111111111101000
11010001
101011
1111111111110110
1111111111101101
1000111
11111
1111111111000101
1111111111110000
101
1111111111000010
1111111110100001
1010010
10110
110
1111111111111100
101000110
100011101
1001110011
1100011000
11000111
1011011001
1010001
1111111111100001
1000001100
11010011
1011011
101100
1111111110110011
1110010
1111111111010011
1010
1111111111100111
1111111111001111
1101
111001
1111111111011100
1111111110100101
1111111110001111
1111111100111000
1111111010010100
1111111001110010
1111111000001111
1111111001110010
1111111001001111
1111111100100110
1111111100110110
1111110111011111
1111111101000011
1010
11010
1
100010000
1101
10000001
111010
1111111111011110
11100
11100
1111111111101100
100
1111111111100100
100110
101110
1111111111110110
1111111110100000
100111
10011
10001010
1000100
101010
11101011
1111
1111111101010011
1111111111100001
1111111101011101
1111111011011001
1111111110000010
1111111101101111
1111111100110001
1111111111011001
1111111110001100
1111111111110010
1101
10001
1111111111100100
110110
1101
1111111111111111
