1111111111100111
1111111111101110
100100
10001
1111111111000110
1111111111111001
1111111111011010
1111111111101000
1111111111011101
1011
11010
101101
111
1111111111110110
101
111
1111111111011001
10001
101
10100
1111111111100101
1100
110101
1111111111110110
1111
1111111111101000
100
10101
1111111111110010
1001011
1111111111111101
10110
1111111111111000
110001
100
1111
1111111111100001
1111111111111100
11100
0
11101
1001111
1111111111111011
1111111111111000
100100
1011
1111111111111110
1111111110111110
101111
111
1111111111101011
1111111111100011
1010
11111
1111111111011001
111101
1111111111100010
10111
1111111111100110
1111111111011110
11001
111010
1111111111011100
111011
1111111111100101
1111111111111110
1111111110101010
1111111111011000
1111111110111101
1111111111010101
0
1010001
10001010
1101101
11010110
10110011
1000000
1111111111011110
10011
111100
110
101010
100
1111111111111111
110010
10
100
1111111111111000
1111111110000001
100101
1111111111111111
1000111
1010
1101111
1111111110101011
1111111010011011
1111111101010010
100101100
10110000
11100000
1111111011010010
1111111101000111
110110
11111010
1111111111100011
1111111111001011
1111111010110011
1111111011101001
1111111111111101
1111111111011110
100110
1111111111110111
1111111111100000
1001
11011
10111
1111111110110110
1111111101101110
1111111111011111
1111111111110111
1111111010101010
1111111110010111
11011010
10111111
1111111110000111
1111101111001000
1111111101010100
10011110
1111111111110011
1111111000000001
10111000
110110010
1111111100110110
110100001
101010001
101000101
101111111
110001
1111111111101010
0
10101
1111111111011111
1111111111110001
1111111111011110
1111111010100101
1111111101010111
10100
1111111000110011
1111111110100000
111010001
1100000
101110011
1111111101100101
1111111101001111
1101110
1111111010010011
1111111111100010
110011100
1000100010
11010010
1000010101
1000011001
1101011100
11110001
1111111111010111
1010111
1011
111001
10111
1111111111010110
1111111111111101
110
1111111100111101
1011001
1011110
11001100
11110110
1111111110101110
100000
1111111101111010
111001001
1111111011000111
1001001101
100011101
1111111111110100
1100111001
101010
1100011110
1000000000
111100000
110111111
1111111111001110
1111111111001100
101101
11010
1111111111100000
1111111111111100
11011
1111111111011101
1111111101111010
1111111000101000
1111111011100010
100001
11110
111000110
1111111111101110
1001100111
1111111110100100
110001
1111111110000100
101011011
1000011
111000101
11010010
1101110100
1010010011
1100010111
100011110
1111110010111010
1111110100110101
1111111100101011
1111
1111111111111101
1011111
11011
1111111111100111
1111111111001001
1111111111100101
1111110110010001
1111111000100101
1111111011100010
1111111011000010
1101101
100001111
10101011
10000000
1011000010
1111111100101001
1111111010100110
1111111001111110
1111110111001101
1111111011001100
1111111010010010
1111110110100111
1111101100000011
1111101110000010
1111101100001110
1111110100110101
1111111101111000
1111111100111110
110001
10100
1100
10111
1111111111111000
100010
1111111010011011
1111110111110101
1111111010010101
10110011
11011001
1111111110000001
110011100
111100011
100111
1111110110100011
1111101000010000
1111100011110001
1111100000111011
1111011110111011
1111011010110010
1111011011101110
1111100010011000
1111100011001111
1111101010110011
1111110010000000
1111111011000111
1111111111000010
11101
1111111111110111
1111111111111111
1111111111000000
1111111111101110
1111111111001111
1111111100011111
1111111110011110
1111111011111000
100101000
11000000
111111100
1111111011011101
11110100
111011011
1111111100100100
1111101011011111
1111110001100100
1111110111101000
1111101111011100
1111100011110101
1111011010001011
1111100001001110
1111101010000101
1111101011001001
1111101111110010
1111111001111000
10
11101
1000101
1111111111111000
1111111111111011
1111111111100100
1111111101110011
1111111111000010
1111111101110110
10010011
1111111110000010
1111111011100110
10101
1111111110011011
1010101
1001000010
11111101
1111111001100111
1111111010011100
1110010110
1110011111
11100000
1111111110000001
1111110100011000
1111110000010101
1111101101010001
1111110000101010
1111111000011011
1111111110111010
101011
1111111111011000
1111111111110110
1111111111110101
100011
1111111110010101
1011110
10110101
111000001
1001000
110110010
101010
111000111
1001101001
1111111101100111
1111111000111000
1111111001001100
1111111000100111
11100
1111111001110100
10101001
110111100
100111111
1111110110100001
1111110111111011
1111110111101000
1111111000100010
1111111110100101
1111111111011110
1111111111011101
1111111111101110
101010
111111
1111111110001101
11010
11100111
11010010
110011101
110000111
1011000
1000100
10100010
111110000
1000111
1111111000100100
1111111011011100
1111110110111011
1111111011101111
1111111000011110
100010110
1111111101100001
1111111101110000
1111111101110110
1111111110101100
1111111100101110
1111111110011101
1111111111110001
1111111111110001
110001
1111111111110101
101101
1111111110011100
1111111100001111
1111111100110011
101000100
1000
1011101001
110000010
110101011
10011
1111111111010110
1111110110111000
1111111001111110
1111111011000100
1111111100100110
1111111101110111
100110100
111010100
100111010
1111111110011011
1010000
111010011
100011000
1111111110001110
1111111111111001
1111111111011001
10010
1111111111011110
1111111111111101
1111111110101101
1111111101010001
1111111101100110
1111111110111001
1111111000110001
1111111101101010
110111
11000110
10101001
1111111111011000
1111110001000101
1111110011100111
1111110110001011
1111110111011011
1110
11110
1111000
100110010
11011110
100010011
10101100
1010010111
1111111101001101
10111
100000
1111111111100111
1111111111100010
1111111111101011
110010
1111111100000101
1111111011110110
1111110110000100
1111110011111111
1111110101011101
1111110111001001
1111111100100000
1111111011010100
110001111
1111110110011010
1111111001010101
1111111111101111
1111111101111101
1111111010111111
11101010
1111111110100000
101010000
111101001
1010011111
100000101
1000100011
1111111100000101
1111111101101101
1111111111011011
1100
1111111111110010
1111111110100100
101110101
1111111001010000
1111111011010000
1111111101100011
1111110110101101
1111111000101100
1111110001110001
1111101111111010
1111111010110010
1111111110001001
1111110110110011
1111111101011110
1111110011010100
1111110011111001
1111111011111001
1110011011
11010001
110010101
111001110
11000010
100110101
101100000
1111111101001110
1111111101110101
1111111111100101
100101
1111111111000111
1111111111001001
100001010
11110
1111111101010000
1111111001111010
10000101
1111110111000010
1111110110110000
1111110001110001
1111110001001010
1111110001100010
1111110100011011
1111110101100010
1111101110011111
100011001
10010111
10011111
100101101
1111111110000111
1010101100
1111111111100101
10010100
101000
1111111100001101
1111111110000111
1111111101100100
10011
1111111111011011
1100000
101110110
1000101000
11110
1111111011011001
1111111010000100
1111111001111101
1111111000001101
1111110111000000
1111111111100110
1111111101100001
1111110100000110
100110000
100110110
111100010
1111111111010111
1111111111100000
1111111110010101
101011101
1100001
1111111010011000
1111111101100000
110110101
1111111101111010
1111111111100110
1011
10010
110
10010110
100110001
111001000
1010010010
10011
1111110110010011
1111111011111001
110001
1111111010100000
1111111111011111
1111111001000100
1111111111001100
1111111001101110
1001011100
110001010
11101100
1111111101111111
1111111110001000
1111111110101000
1111111110101000
11100100
11100110
111111011
1111100
1101
1111111111110100
1100
100011
1111111110110110
1111111111010000
1100101
1000000000
11100001
1010001
101100011
111
100000001
1111111110101111
111101
11100010
10001001
101111011
111110011
10000110
11001001
11010111
100100101
101010011
1111111111000100
1001110100
110101110
10011111
1111111111011011
1111111111000010
10000
101
10110
1000
1111111111110100
1111111111111010
1111110111111000
1111111010010100
1111111000011100
1111111101010101
1111111010000110
10001010
100000101
1111111001111010
11010011
1101110
10110101
10001101
11101101
111011101
11111110
1111111100100011
11111000
1011001010
1111111111101100
1101010
1111111111100100
1111111111111110
1111111111010011
1111111111111111
10101
1111111110111110
1111111110011110
1111111111001110
1111111111010101
1111111001001110
100100010
1111001
1111111011110010
1111111110111010
10111110
110011111
110000
1111111111010100
11010110
1111111000000001
1111110100101011
1111111110101100
101001100
1111111110010010
1111111111100000
10001110
1111111111110110
1101000
101011
101001
1111111111110101
1111111111011010
1001
100
1111111110001011
1111111110011111
1111111101001011
1111111110010001
1011
11100111
1011011
101101111
11100010
1111110100110011
1111111100011111
1000100011
1111111001011001
1111111110100001
1010010011
110011000
1001100101
10011110
1001011
1111111110110111
1111111110101101
1111111110101001
1111111111010000
1110
11110
1111111111111010
1001
1111111110111100
1
1111111101111111
1111111110011101
1111111111111000
1100100
1010011110
100101001
100100100
100110101
111110000
100011110
100011001
1111111011010000
1111111101000110
1000000000
1000011000
110011
1111111111111001
10001011
1110010
1100011
1111111111100011
1111111111101110
1111111111001101
10000
10111
100101
111
1111111111101000
1010
1
110
1111111111101100
1111111111110101
100000
10010101
10110010
11100010
110111001
1110101
11001011
1111111110010000
1101111
11110000
1111111111101110
11111
1111111111110100
1
111001
10110
1111111111010011
11101
11010
1111111111111010
111101
1
1101
100111
1111111110011110
1100
1111111110111010
10010
1100
1111111111111010
1111111111101010
10100
1111111111101100
1111111111001000
1111111111100111
10011
100
111100
101110
10001
11111
1111111111101111
11100
110111
1111111111111110
0
