1111111111011101
100100
1111111111110010
10110
10000
1111111111110111
100011
1111111111111101
11100
1111111111100011
1000
1111111111111110
1111111111110011
10
1111111111111010
1111111111001111
1111111111011101
1111111111111110
1011
1111111111111010
100001
101000
10111
10
1111111111100010
1111111111111100
1111111110111101
1111111111110010
1111111111110011
1111111111111001
1000000
1111111111111111
11101
1111111111111000
1111111111110011
1111111111111111
1111111111010101
1111111111101111
1111111111111001
1111111111110000
1
1111111111011100
1111111111011010
1111111111000110
10100
100101
1111
1111111111110101
1
110
1111111111101010
10001
100101
11010
1111111111111010
1111111111110000
0
11111
1111
1111111111110011
10001
110100
1011001
1111111111110010
1111111110111110
1111111111010011
1111111111000010
1111111101100000
1111111101110010
1111111010011111
1111111100101110
1111111011110110
1111111111001110
1000100
10001001
100100
1111111101010111
1111111111001100
1111111111000111
1001
1111111111000110
1011
1111111110111000
1111111111101000
1100
1111111111100111
11011
101000
1001
1111111111010101
1111111111000010
1111111111110000
1111111111001100
1111111101100100
1111111100000001
1111111000011101
1111111000011100
1111110010010100
1111110010011001
1111111000010010
1111111110001000
1110101
1011
1110100
10011100
101010010
10001110
1111111110000001
1111111110111100
10100110
1101101
1010
1111111111100111
100010
10010
10
1111111111000001
1111111100010100
1111111011100011
1111111001100111
1111110110111001
1111111000001100
1111110101111001
1111110110110000
1111110101101000
1111111110011011
1111111000001001
1111111110100101
1111111100111100
101
111101110
1111111011110101
1111111001110101
1111111101101000
1111111110111010
111100110
1001000101
10011011
1111111
1100
1111111111101010
1111111111111001
1111111111000110
1111111111101011
1111111111100111
1111111100011011
1111111000101101
1111110111010100
1111110101011011
1111110111010100
1111111011010001
1111111010000010
1111111101101011
111101
1111111111011001
100011
100010101
1111111000001011
1111111110010100
1111111101010101
111111111
1111111100000001
110011010
100100011
1000100001
1000011000
11000110
10111
1111111111111111
1111111111011110
10111
1111111111101101
1111111110011100
1111111110011011
1111111101111011
1111111001001001
1111110111100000
1111110100111100
1111111010111000
1111111011000100
100100011
1111111110000110
1111111100011101
1111111101010101
1111111011010110
1111111011100111
1111111011001100
101010000
1001010001
1111111110010110
1010100010
1010101110
10100101111
1111000001
101100010
1001100
101010
1111111111110010
1111111111100110
1111111111011111
1111111100101100
1111111110100101
1111111111011111
1111111010110110
1111111101111000
1111111111011100
1111111101001000
1111111100101001
1100111
1001110
1111111100011000
1111111110110101
11000010
101001001
1010110110
1111111001011010
1001110100
1111111111101111
110110101
10100111
1011101111
10001010110
1000001011
110000
10010
1111111111101110
111101
1111111111100100
1111111010101000
1111111100001011
1111111110011011
1111111010000001
1111111110100000
100110
1111111000111100
1111111111001011
10101110
1100000111
1000100100
10000111
1001000111
1000111010
1110011101
1110101110
1100111101
1101000011
1010101011
1011001000
1110111010
1000111110
1111111111000011
11101
10111
1111111111110001
11101
1111111110010100
1111111100110001
1111111010111001
1111111001001110
1111111000001110
1111110110000011
1111111111111111
1111110111001001
1111111010010110
100100
100011111
1000001011
1111111101000010
1111111100001001
101000111
10001111011
101101001
110000101
1101000000
1000000000
1111111001011101
1010000000
11000000
1111111100110000
1110
1111111111110011
1111111111100101
1111111111011000
1111111111000101
1111111110101011
1111111001011100
1111111010001010
101010101
1111111001000101
10001001
100001101
1111111101010100
100101
101010001
1111111010000101
1111110000000111
1111100101001100
1111010110111111
1111100101111100
1111101100100000
1111110010110101
1111111000011101
1111110101011000
1111101110100010
1111111101101000
100011110
10000110
101000
100111
1111111111111101
0
1111111111101000
10011010
1111111010110001
1111111110011001
1111111111110011
1111111100001000
1111110110111000
1111110100110010
1111110110111111
1111111000110011
100101
1111111011101010
1111111011001010
1111111100111001
1111011111101101
1111010101100011
1111010011011111
1111010110110010
1111101001101011
1111101000111010
1111101101110100
1111110001001100
110
11010
1111111111100111
1111111111110001
101101
100000
1111111110100110
11101011
11001100
1111111111111111
1111111110101010
100111010
1111111011101100
111111001
11010
1100110
101011110
1111111010100110
1111110010101001
1111110100110111
1111111101110101
1111110110011101
1111101001011000
1111011100011100
1111011101011001
1111100000011001
1111101000111011
1111110000001101
1111111100100100
1111111111101001
1111111111110010
10000
110010
110011
1111111110111100
11011001
1001100010
100111010
1000100011
1000111
1111111110011001
1111111101010001
10000100
1000101010
1101100
1100101
101010
110001111
1010001
100000000
1111111110111111
1111110100101100
1111100111001101
1111101001111100
1111101101111000
1111110101001100
1111111110000001
100
1101
1111111111110101
1000
110111
1111111111100110
1110000
11011001
100011101
10000110
1011011
100101100
101101001
1111111011101110
100001011
101
1111111001011111
1111111010001111
1111111000110100
1111111001111010
1011000
1111010
10100010
1111111000011101
1111110001110000
1111110111000011
1111111100010101
1111111111000001
1111111111100110
1111111111110110
100111
11100
1001
1111111111001001
1111111111111011
1001110
1111111110001000
110000101
10010111
111000111
100101001
1111110100110011
1011111110
1010010
1111111001000000
11011
1111111101110000
11011100
110000111
1111110010101010
1010111010
100101101
1111111011010010
1111111101001010
1111111010110011
1111111100111110
1111111110000100
1111111111101000
1111111111111101
10100
1111111110110110
1111111101111100
1111111000101100
1111111010100000
1111111110000110
101101
10000001
10001110
1111111111110011
1111110110111100
1111111011010100
1111111010100100
1111111010100101
1111110110111010
1111111110011010
1010100
11101101
10001101
100000001
1100101
1111111011010100
1111111011111100
1111111101100010
1111111101001111
1111111111100000
100001
1111111111111101
1111111111100100
1111111101111110
1101010
1110001
101011110
101101100
1111111100011010
1111111001001001
1111111101100010
1111111100100101
1111111010010101
1111110101110100
1111110111011011
100011010
1000011000
1001010111
111000000
111111010
1111111101100111
100011110
1111111101101000
1111111111011111
10
1111111100000101
1111111100101100
1001
1111111111111011
101000
1000
1111111110000100
11001100
1110110
1111010
110001101
1101010
1111111011101111
1111111000011100
1111110110111010
1111110111010111
1111111100111011
1111111001100011
1001101010
11100110
111100100
101110110
1110010
101011
11010001
1111111010110100
1001
1111111101110100
1111111010111011
1111111110100111
1111111111111000
1111111111110100
1111111111100100
1111111111101001
1111111110111100
1111111100101011
101
11000101
11011000
1111110110000011
100011100
1111111010110111
1111111010100100
1000
111010011
1011101001
101110000
1000001111
1000001
1111111101001100
1000110100
1111111001100111
10110000
1111111111010001
1111111111000010
1111111100101101
1111111011110010
1111111100010101
1111111100110011
1111111111100001
11111
1111111111011011
1111111110101000
1111111001010000
1111111010010111
1111110
100000011
1111111000010011
1111111111101000
1111111111100001
111100111
1101110000
1111111010100110
10110111
1111111110111110
1110111
1111111001111101
11001011
1011010
1111111110001000
100011110
10011110
1001010
1100101
1111111110000000
1111111111000000
1111111111100001
101011
1111111111011010
1111111111000111
1111111110001100
1111111011101011
10100001
10110100
1001000
100101111
10
1111111100110000
1111111111000010
11111011
100000010
1100100001
101000100
100001100
1111111000000111
10010011
1111111111010101
1111111110110010
110100010
10010001
101110101
11100001
1000000
1000000
100010
1111111111111011
100100
1111111111111110
1111111110101111
1111111100010010
11110100
11001111
1111111101000101
1111111001011101
1011101
1111111101010000
100111100
100011000
1100001001
1111111111110011
1111011
111000001
101111101
1111101
1111111111001011
1111111101011001
1000111101
1101100
11011011
110101000
10110110
1001101
1111111111110110
10001
10001
111
1111111111111101
1111111100111100
1110
110110101
101001001
1111110101110110
10010001
110000101
1001101110
1111111001101110
1111111110111000
1111111001011111
100011101
100001011
10010111
1111110110110101
1111111101001110
1111111111001111
101100000
110
100010101
110111001
100001110
1001
1111111111011110
1111111111101101
1011
1010010
10110
1111111111001100
1111111010001111
1111111001110001
1111111011111111
1111111110110100
11101
101101011
1111111111100011
1111111110101110
101110100
100011011
100110100
1111111111100110
1111111110010011
1111111110110010
110010110
1111111110111110
1111100
11101
1110011
101111111
11100111
100
1111111111111101
1111111111110110
1111111111100010
1111111111101011
1111111110101101
111
1111111110101010
1111111100010100
1111111011101100
1111111111110111
1111011
11001001
1111111100010011
1111111001100011
10011110
101110
1111111000001110
1111111110110001
101000100
101001101
11011101
1011011
100001
1110011
11101001
11110110
11100001
1111111111001010
1111111111111000
1111111111101000
1111111111101001
1111111111110010
1111111111010010
1111111111011001
1111111110111101
1000
1111111111001000
1111111111010011
1111111110100011
1111111110010000
1111111110011001
1111111110100101
1111111111000100
1111111111011000
1111111010010000
1111111110101011
11101010
110110
1001
10
1111111111110110
1000101
10111
1111111110111110
1111111111110001
1111111111011000
1010
10
11001
11110
1111111111110110
1111111111100100
1101
1111111111111100
110010
1111111111100000
101011
1111111111110001
1111111111100100
10100
1111111111110111
101010
10100
10110
1111111111001101
11101
1111111111101110
1111111111111111
1111111111100110
11010
1111111111111000
11110
111100
1
1001
1111111111101100
