10101
110
1011000
110111
11111
1111111111000011
100
110001
1
1111111111101001
1111111111110110
1111111111001000
11000
1111111111110110
111
1111111111110011
10101
1111111111100010
1100
111
1000000
101001
1101
100001
1111111111010011
1110
1111111111011110
1111111111110110
0
100
1111111110111000
1111111111101110
11101
1111111111110010
1111111111011110
1111111111111100
1111111111110110
1111111111101000
110
1111111111110101
1111111111101000
1111111111011011
1100
1111111111100101
1111111111110100
1111111111110010
1111111111101110
111000
1111111111010101
1111111111110110
1111111111101011
1111111111101111
1011
10100
101100
10001
101
101011
100010
11000
1111111111101101
10010
101100
1000
1111111111110000
110011
10110001
10001000
100111010
111011010
111101010
111
1111111101111110
1111111111100101
101110
10110
1001
1111111111110000
10111
1111111111111110
100010
1111111111110110
0
10
10101
1111111111111111
100111
100011
1111111111110100
1111111110110110
1111111110010110
1111111110010100
1111111100011110
11001
111010011
100110111
100111100
110001001
101111010
111001110
11000110
10100001
110011
1111111100101111
1111111000001101
1111111111011011
10000010
11111
1111111111111101
110000
1111111110010101
1111111111101110
1111111111111000
101001
1111
100111
101011
1111111101110010
1111111011110001
1111111101000110
1111110110110110
1111111100001011
1111111110010010
1111111011001101
10100010
1010001001
1010001001
10010100
1111111011010100
1101010
11111110
1
10011011
1111111010001111
1111111100111110
1111111101010011
1111111110011010
101011
11010
111011
11111
1111111111100011
101010
1111111110110110
1111111110111001
1111111011000000
1111110111100010
1111111001000100
11001000
1111111111011111
1001110
10011100
1011110
11000010
1111111010001110
1111110110001100
1111111111101100
11110
110101101
1111111011101010
1111111000000000
1111111111001010
1111111011011000
1111111101010011
1111111111100101
11111110
10010011
100001
100101
11000
100001
1111111111111000
1111111111010011
1
1111111100101011
1111111101110001
1111111111000101
10000110
101001110
111100
1100100
1110010
10000111110
101001
1111111111101100
1111111110001100
100011000
11111011
1111111100100110
1111111111011101
1000110
1111111101101011
1111111111010100
1111111111010010
1111111111110101
1111111111110011
1000
11010
1111111111010011
1111111111011011
10111111
10110110
1111111000011011
110000
1010111001
110100
100010111
100110110
1010100
1000110010
1011011
111011
100001010
1111111000010110
101010010
1111111100000000
1111111111110001
11001101
111001
1111111110001010
1111111110101101
1111111111011001
1111111111011111
1111111111111011
110101
101101
1111111110100011
1111111111110000
1010010111
111110110
1111111011101010
1111111100110110
10001111
1111111100100110
110101
11000100
1111111010101101
1111111100111110
10010011
1111111100100011
1111111101000000
10101100
1111110100010101
1011100
110001000
1111111110001111
1111111100111111
11010110
1111111011010110
1111111110000001
11000
10
1111111111111000
1111111111111010
1010001
1111111011110000
101101010
1101000110
1111110110101111
1111111101101100
1111111100011100
100011001
11000111
1111111101100010
101010010
1111111010100001
1111111111011000
110100010
110101011
11100111
101000000
110101110
1111111100010110
1011100
1111111010011010
1010
1111111011001000
1111111110110111
1111111111100100
1101
1111111111110110
1111111111001101
11000
1111111101111011
1101001
11001000
1110100
101000000
1111111101101100
1111111001100001
1111111101011111
1111111011011111
1010110
11000110
1111111001110111
10101000
11001011
1101011100
10010111
1111111110110111
10001110
101000001
1111111010010011
1111111111101011
1111111110010011
0
1111111111111000
1110
1111
100
1111111111101100
1111111111001000
101101
101100011
111001100
1111111110101111
1111110111110000
1111111100010001
1111111001111001
11111
1111111101010101
1111111000110111
1111111010000110
1111111001101000
100111110
1111111000000110
1111111011100100
1111111101100101
1111111010011101
110010010
1111111011001011
1111111101110111
1111111101000010
1111111111101100
10000
11101
1111111111110100
1111111111111110
1111111111000100
101101
1111111111111001
1
1111111101110111
1111111001001010
1111111111010010
1111111101001010
1111111001001011
1111111001111001
1111110010001111
1111101111000011
1111110001111011
1111111000001000
1111111010101100
1111111110100000
1111111101010000
1111111100000100
1111110101100000
1111111101011100
1111110110111110
1111111011110110
1111111101010111
1111111111110110
1111111111000111
101000
1111111111110110
10010
1111111111110100
111010
1111111100100011
1111111100010000
1111110101000001
1111101100001010
1111110001101110
1111110001101010
1111110101000101
1111101111100011
1111101100000110
1111111000100000
1111110111110101
1111110110000101
1111111011001111
1111111110101100
1111111000110010
1111111110000000
1111111110111001
1111111010100100
1111110101100001
1111110111011011
1111111010011010
1111111111111111
1111111111100110
1111111111101100
1
1111111111011101
1111111111101000
1000
1111111011010111
1111110010011011
1111110000111101
1111101011110010
1111101011110001
1111100111100010
1111101101110001
1111101111100001
1111111001010011
1111110001100010
1111111001000100
1111110110011111
1111111100011110
1111110101110101
1111111010100110
1111111100000110
10001111
1111110011110110
1111101111010001
1111110000000101
1111111000000001
1111111110111111
1010110
1011
1111111111101111
1111111111110101
1111111111100110
101111
1111111011010010
1111110011001100
1111101110110101
1111101100001111
1111110000110111
1111111001000011
1111111101010110
1111111001010001
1111110110011010
1111111100010001
1111110111011011
1111110110000011
1111111110001010
1111110011111100
1111111001111100
110001
1111111111000010
1111110010110001
1111100100100001
1111101100110110
1111110100101010
1111111111011000
110110
10110
100111
1111111111111001
1111111111001110
1111111111110100
1111111101010010
1111110100111010
1111110101100101
1111110111000001
1111111010110111
1111111111011010
100010101
1111111101011101
111000110
1100001
1111111100110011
1111110110010100
100
1111111011010000
1111110110110110
1111111001000101
1111101110001011
1111100101010111
1111100011111101
1111101110111101
1111110110110001
100100
110111
1111111111110010
1111111111001011
100010
101
10000001
1111111100101101
1111111010000100
1111111001010010
101011
110011010
1111111111000011
1111111111100111
1111111110110011
100001100
1000110
1111110110000000
1111111001101001
1111111100111010
1111111000111000
1111110010010110
1111101000101111
1111100000000000
1111100110000101
1111101011011001
1111110110000010
11010000
100110101
1000100
1111111111010100
1100
1111111111100110
1101
1111111111110100
10
100010
100111111
1000010111
1000000001
110000001
110110101
1111111101011101
110111001
1111110110011101
1111110100010000
1111110011111000
1111111011111101
1111110100100001
1111110010011001
1111100111001110
1111101110110011
1111111000001100
1000101
100111000
11101101
11100010
1111111111110011
1111111111101111
1111111111111010
1111111110101110
1011000
11100000
1010000001
1111111110101111
100101011
100000111
1110100
1010101001
1000100101
110000110
1010010000
1010001011
111011
1111111001101111
1111111011000010
1111111111000001
1100111
1111110111110010
111111011
1000000010
100111010
1111111110001101
1111111010010111
10000101
10110
101010
11110
1111111111101101
10001011
1011111101
1101110100
1010110110
1101100001
1010000010
1010111111
1100111101
1100010100
1100001000
1011101000
1010011010
1111111100000111
1101100101
1101010110
1100011101
11001000
111011111
10001100100
1101111001
10010100
11010100
1111111101101010
1100001
10100
100011
1111111111100001
1111111111010110
110101100
1100001010
1100000000
110010101
1111111111001111
1111111100010000
1111111100001101
1011101000
1100111
1011000001
100100011
11001010
110000110
1000010011
1100011100
10000000110
101110100
100001100
11001110
1111111111011111
101010111
111100011
110011011
100001100
1000010
1001
1111111110111010
1111111111110110
100011000
110110011
1001110110
111111110
100101
1111111111111101
1001100110
1000110111
1111111100001101
1100001
1111010
1111111001101110
100000010
1111111100011100
1100010011
111010011
10001000111
101111000
111111010
100000101
100100011
10010000
11011000
10100101
1111111111101100
1111111111100101
1111111111011111
100000
1111111111111100
1111111111000100
1011100
110001101
1011011101
11010011
10110111
1000101100
11111001
11111101
101010111
10100011
100110011
1111111010001000
100010
1010101
100100001
1001010001
1011110110
1111000101
1001000100
101001001
11101100
11001011
111100
1111111111110000
110111
111
1111111111011010
1111111111001011
1111111111001101
1111111100101011
1111111100100100
1111111011110011
1111111100001001
1111111101010100
1111111100110100
1001101
101011
1111111010101001
11100001
1011010
11110
111111010
1001001110
111011001
1000010011
10000000100
1011011100
110000110
11001100
1000010
1111111111011011
1111111111111111
110
11000
1111111111110100
1001000
1111111111001000
11110
1001011
1111111111111100
10111100
11010001
10101
1111111010110010
1111111011000010
1111111100011010
1111111111100000
1010111
100
10111
1111111010011011
1111111100011110
1111111111001011
1111111110101001
1111111111001000
10
1111111111111010
10000
1111111111011110
11100
1111111111011111
1111111111011101
1111111111101010
11010
11001
10110
1111111111100111
1111111111000110
1000
1111111111000010
1111111111110011
1111111101111110
1111111101110011
1111111101101100
1111111101010100
1111111101000000
1111111110010001
1111111101111110
1111111101110001
1111111111000101
1000
1111111110111010
1111111111101011
0
100010
100000
1111111111110010
1
1111111111110001
1111111111110101
100011
1111111111011110
10
10
1111111111011011
11001
1111111111110111
1111111111101010
110
1111111111011111
110101
101
100101
1100
111
1111111111101111
10011
11
11
101
100000
101100
1111111111101110
1000
1111111111111111
111000
