1111111111111010
10
1010
1111111111111111
0
100000
1111111111111000
1111111111110011
11101
1111111111110100
110
10110
10100
110
1111111111010010
1111111111110100
1010110
1111111111100010
110000
1111111111110101
10000
1111111111110100
11101
1111111111111010
1111111111001111
10001
1111111111110101
1111111111100000
1101
1111111111000000
101110
1111111111111011
1111111111010100
1111111111111001
11111
0
1111111111101010
1111111111110010
111
1111111111101011
10011
11011
111001
10011100
1111111111100000
1111111111100100
10101
1111111111110001
1000
1111111111001100
100001
1111111111111100
1111111111101101
1111111111011110
1111111111111110
1001001
10101
111
1111111111111010
1111111111110010
100011
1111111111000011
10000
100110
1111111111110001
1111111111111111
11011
10010
10110
1111111110111001
1111
1011101
1111111111110110
1111111110010001
1111111111000111
1111111110101101
1111111111100110
1111111111011101
1111111111001111
1111111110111011
10001
0
1111111110011010
10001
1111111111101011
11
10
1111111111111011
10001
10
1111111111110010
1111111111101110
1
10
11010
1111111111101110
1111111101010111
1111111011101101
1111111011010001
1111111100010100
1111111010000100
1111111000111001
1111110111100110
1111111101001101
1111111110100101
1111110110001010
1111111011111101
1111111110011011
1111111111111010
11010
1111111110010111
1111111111010000
10000
1010
11
1111111111110100
1111111111111111
100111
100111
1111111111101110
1111111111000111
1111111101011000
1111111010101001
1111110111111010
1111110100010000
1111101110101100
1111110100110011
1111111011011010
11111001
1011110
1111111100010011
10111001
101101101
1111111001111110
10110
1111111111000100
1111111001100101
1111111100001011
1111111110110010
1111111101111000
1111111110100111
1111111111110001
0
1111111111110010
110
1111111111000110
1111111100110100
1111111111011101
11
10101001
1111111110001001
1111110111001001
1111111000101100
1111110011101111
1111111101111101
101011110
1111111010001001
1111110101111000
1111111011010100
1111110010110011
1111101110011100
1111111010101111
100010101
1111111101111010
1111111101101001
1111110101110111
1111111001101001
1111111101100011
1001111
1000
1111111111000001
100100
1111111111111101
1111111101111001
1111111010110000
1111111100011101
100100011
1001100111
10100
11101100
101101001
1111111010011101
1110011
1111111100010001
1111111000010010
10010
1001101001
111
110001
1111111011010101
100100111
1111111111100110
1111111011011110
1111111000101010
1111111010001000
1111111100101110
1111111110010101
111010
1111111110110111
1111111111010110
1111111111001110
1111111010111001
1111111000000100
1111110110111011
1111111101111101
101101111
101001000
1111111110111001
1111111100010010
1111111100000001
1111111111101101
1111111001111101
111000100
11001011
1111111100100100
111100101
110101000
100010100
10001101
110101101
1111110010011111
1111110100100000
1111111011010000
1111111100100100
11011
1001110
110
1111
1111111111001001
1111111100110010
1111111000000001
1111111010000001
1111111010000100
1111111100000101
1111111100000001
1111111010111111
1111111100110100
1111111010100011
1111111111110100
1111001
1111111110110000
101100011
1000111
10111
10100010
1111111110111101
10111110
1111111100011000
1111110000100011
1111111000111000
1111111110100011
1111111111111000
1010
1111111111111001
111110
110010
10100
1111111110111001
1111111100000110
1111111100001100
1111111111111011
1111111110010110
1111111101111010
1111111011111111
1111111000010110
1111111010010001
1111111001010101
100010011
10001001111
1000000111
1000110100
10000001
1111111000001000
1111111110001000
11010110
1111110100111001
1111111000100001
1111111010011001
1111111111001101
11111
10000
1111111111010011
1111111111101100
1111111111100101
1010001
1111111110111000
1111111100010100
1111111100000101
1111111111001110
100011
110000111
1111110110100101
1111110000100110
1111110000111100
1111110100111001
1010100010
1111011011
11111001
11100011
1111111011001111
1111111000100001
1111111110100100
1111111010101011
1111111000101000
1111111111111111
11000000
1
1000
1111111111001100
1010000
1111111111111010
10110
1111111111100011
1111111110001011
1111111010001110
1111111010000101
1111111111001100
11000100
1111111101100110
1111110011011110
1111110010100100
1111110010111101
1111111000010010
1100010001
111001110
1111111111110110
10101000
1111111101101110
1111111111010101
1111111110001100
1111111001100001
1111111101101011
1011000
10000011
1111111111111010
0
11
1111111111111001
0
10
101000
1111111101110110
1111111001001100
1111111010101001
1111111001100001
1111111101101010
1111110010110010
1111101100000101
1111111101001011
1111111001010000
101000111
1001111110
1111101001
10101010
100001100
1111111010000101
1111111100101000
1111111110101001
1111111101000010
1111111011111010
1111111100000100
1111111110001010
1111111110110000
0
10001
1111111111010000
101010
1111111111111110
1111111110111001
1111111100110000
1111111010100100
1111111011101100
1111111000101110
1111110101111101
1111111010001101
1111111010010101
1111111100110011
1100011011
1010010001
100011011
11110111
101110111
1111111000010010
1111111001011010
1111111010111010
1111111001011111
1111111011111000
1111111011101100
1111111010111101
1111111100001100
1111111110010100
11110
11001
10010
1111111111011100
10101
10111
1111111110001110
1111111011101011
1111111011111110
1111111001001011
1111111010000111
100
0
1111111101001110
1111110101010010
100010000
1111111110101010
1011001
1101110
1111111111111110
10100101
1111111101000000
10000010
1111111111100100
1111111101101110
1111111110110110
1111111111001000
1111111111010110
1111111111100010
1111111111111011
10100
101000
1011
1111111111010101
1111111100111011
1111111010000011
1111111100010011
1111111011110010
1111111111110101
1111111101101000
100100
10110
1111111101111010
1111111010101101
1111111101110011
11001111
100100011
110000
1111111001100010
1111111111001011
100010001
1111111111000001
1111111100110110
1111111100111100
1111111101110000
1111111111000010
1010
11110
1001
1111111111111001
1111111111011110
1111111110110011
1001
1111111101100101
1111111100110110
1111111010010110
1111111001111010
10000000
111110100
1111111110110111
1110010000
1111111111000110
111011011
101100011
1111111110110001
1111111010011101
1111111100111010
1111111101010000
1111111011010111
1111111010001110
1111111100000001
1111111101101111
1111111110000110
1000100
1111111111111110
1111111111101001
1111111111111110
11
1111111111000000
1111111111110101
1000
1001101
1111111001001100
1111110010110100
1111111010010110
1101100
110001
1100011000
1011100001
111
100110
1111111110000101
1111110001001001
1111111001000100
1111111100001000
1111111011101101
1111111110110100
10101
1000000
100100
1111111111111010
1111010
1111111111111110
11001
111111
1111111111110011
1111111110010101
1111111100111001
1111111010010111
1111111000101101
1111110101000101
1111111000011110
1111111111001010
100001011
101010111
10011001110
1000100000
1111111111011001
1111111111010111
1111110000101110
1111110111000100
1111111011001111
1111111100110001
1111111001110101
1111111010101110
1111111100111110
1111111110101001
1111111110001100
1111111111000010
10100001
1
101000
1111111111000111
1111111111000011
1111111110100000
1111111101010011
1111111010111001
1111111001110101
1111111101010011
1111111100111001
1101010
10011011
1000011110
11001110
1111111111110010
1111101111000001
1111110000000111
1111110000011000
1111110010011110
1111110100111101
1111111100111011
1111111101100000
1111111100101100
1111111100111001
1111111101001111
1111111101110001
101101
100000
10010
1111111111111000
1001000
1111111110100100
1111111110001001
100001
1111111011001010
1111111101100111
1111111011010110
1111111100111101
1111110110000011
1111111111010000
11001111
1111111000000111
1111110100000111
1111110100110101
1111110001101100
1111110111011100
1111110011101000
1111110011100100
1111111011011011
1111111111100111
10011101
1000101
1111111110111010
111101
1111111111111000
1100
1111111111111110
1100
1111111111100011
1111111111110000
1111111111001101
1111111111111111
11101111
1111111100110000
1111111110100111
1111110111010000
1111110011111011
101100001
1111110101101100
1111111110101001
1111110011110101
1111110111101110
1111101101010111
1111110011011001
1111110100111110
1111111000110110
1111111100001110
1111111111011111
11011001
1011000
1111111111100100
11111
1111111111000011
100000
11001
1111111111010001
1111111111111010
1111111111010001
110100
11101101
1101001000
101101011
10110100
1111111100001110
1111110110100010
1111111100001101
1111111001111010
1111111100011011
1111111101011011
11101101
1111101101001000
1111110110000001
1111111001111100
1111110110101111
1111111101000100
100000
10000111
111010
1111111110001111
11110
110001
1111111111100011
1010
1111111111110001
1111111111101011
0
1111111111110001
101100010
1010000000
1000001010
11010100
1111111101111111
10
1111111111101011
11011010
1001000100
10010010
10110101
1111110100111101
1111101111100110
1111110001001111
1111110111001111
1111111010111010
1111111101010110
1111111101100010
1111111101100000
1111111110000001
1010
11101
110100
101
101010
111100
100100
100001
10000110
1010000000
100001000
10000110
100101000
111011
1111111100101000
1111111100110000
1111111000000011
1111111111111110
1000010001
1111111000101110
1111101110011011
1111101101011001
1111110010110011
1111110011100010
1111111001101000
1111111001001101
1111111110010001
1111111110110000
1011
10
1111111111100110
1111111111101000
1111111111011110
1111111111110011
1111111111000100
111111
101001101
100100001
1111111101111111
1111111001010100
100000111
1110010
1111111001101010
1010011
1111111110101010
11001010
1111111110110000
1111110101000100
1111110100101010
1111110110001110
1111111000110011
1111111001111111
1111111110110111
1111111101110010
1111111111010100
110000
10
1111111111011000
1111111111101110
1111111111111000
1111111110110001
1001
110010
11101
1111111110111101
1111111101110101
1111111110101101
1111111110101010
1111111110001001
1111111101110101
1111111111011000
10000
1111111111011011
1111111110101110
1111111110000010
1111111110010011
1111111111101001
1111111111111100
1111111111011100
1111111110100000
1111111111011100
1111111111100011
1111111111110011
1111111111100101
1000
110010
10011
1111111111110110
1111111111010111
1111111111011110
10011
1111111111101010
1111
1111111111001111
1111111111011101
0
1111
1111111111001111
1111111111011110
1001
1111111111101011
1111111111100101
1101
11110
0
1111111110111111
1111111111000110
1111111111010111
11000
100011
1111111111111000
1000
1111111111101101
1111111111000111
1111111111000011
110011
