100110
0
1110
10001
1110
1111111111110111
10001
1010
1001010
1111111110101111
1010011
1111111111101000
10001
11
1111111111000101
10101
1001
1111111111101011
1111111111101101
1111111111010011
1111111111110001
1000
1111111111100000
10011
1111111111110110
110
1000
11000
1111111111100101
10010
1010
11010
1111111111011010
10
1111111110010101
1111111100101101
1111111101101100
1111111111100111
1111111111101011
1111111111010010
1111111101111110
1111111111111001
1111111110001011
1111111110101001
1111111110101001
1111111110111001
1111111111011111
1111
1001
1111111111101101
1111111111101001
111101
100101
1111111111100011
1111111111101100
1111111110110101
1000
1
1111111111001101
1111111111101001
1111111111011010
100110
1111111101111011
1111111010110101
1111111010100001
1111111101010101
1111111101110100
1111111010111110
1111111101010110
1111111101110010
1111111110110100
1111111111011010
1111111101011010
1111111100001001
1111111101000110
1111111110110111
1111111110111000
1111111111001000
1111111111101101
1100
10
1111111111000001
11010
10110
101011
1111111111111001
100000
1111111111101100
101
100000
1111111100001110
1111111101110011
1111111110010000
1111111010110001
1111111011000100
1111111001110000
1111111100101011
1111111011100110
1111111100000100
1111111100110011
1111111101001111
1111111101110111
1111111101011001
10010011
101010101
1111001
1111111110111110
1111111111110101
110001
10110
1111111111111010
0
10000
1111111111010100
1111111111110011
10001
1111111111011011
100101
1111111101010111
1111111101010001
1111111100110111
1111111100110011
1111110101011110
1111110101011001
1111111000111000
1111111011111100
1111111000010100
1111111000110100
1111111011110011
10001110
11111
10100
11001100
11011101
100011001
100101000
1111111111010110
1011
1111111110101111
101101
111000
1111111111100110
1111111111110110
1111111111101011
1111111110110111
11010001
10001111
1111111111011100
110
1111111010111000
1111111000001011
1111110111001011
1111110111111011
1111111111000100
1111110111011001
1111110111000001
1111110111010010
1010010
100000
1111000
1111111111010100
1111111100001010
10010011
100000010
100
1111111111010010
1001
1111111111000111
11100
1111111111100110
1111111111011010
1100
1111111110010111
1000
11001010
111100
1111111111011010
11101001
1111111110100001
1111110111010010
1001101
101110001
1111111100001000
1111111001010000
1111111001100111
100110
1111111101001001
1111001
100111010
1111111001001000
1111111011000100
1100110
1111111110011101
0
1111111111000110
101111
1111111111001010
10101
1111111111101001
10110
1111111100101000
1111111111111001
100011001
1111111001100000
1111111110000000
1010101
1111111001001001
100011110
111110100
1001101000
1111111110001101
1111111000101000
1111111011010000
1111111110011101
1111110011111100
1111111011000001
1111111110100010
1111111100000000
0
11011011
1111111110100101
1111111110011111
110100
1
0
1111111110110000
1111111110100011
1111111101111010
1111111011110011
1110011
1111111111110100
1111110111100100
1111110010000001
1111111100100111
1111111101011110
110100101
101000100
1111111101111011
1111111010110010
1111111000001001
1111111010100100
1010001
1111110101011011
1111111001011011
1111111111010000
1111111111000000
1111111111100110
1111111111101110
1111111010001100
1111111111010011
10111
1111111111001111
1
1111111111101011
1111111110101011
10110
1111111100110010
1010001
1111111110110110
1111111110100100
1111111011001011
1111100
1111111101110001
110000101
1111111110110010
1111111001100111
1111110111010111
1111110011110110
1111111000101111
100101001
110000111
1011110
1111111111010011
11110000
1111111100010010
1111111010001010
1111111010000001
1111111110010110
1000011
1111111111011000
100100
1111111111011100
1111111101010101
11010
1101
1111111111001010
101011011
111001110
100010
11100000
1111111101011100
1111111111110100
1111111001011110
1111111110001010
1111111110110011
1111111111011011
10001111
111001
11100101
101000101
1111111101100111
1111111011101101
1111110100001101
1111111001011001
1111111010110111
1111111111110000
11011
100110
10010
1111111110110101
1111111110111101
1111111111011000
100101110
10111111
110100110
110000111
1010010110
1111111100011010
1111111111001101
1111110100001011
1000100
1000111111
100001011
10100010
11111000
100000110
1111111010010110
100010001
1111111010101000
1111111111001000
1111111000010101
1111111100011101
1111111000000011
1111111101111000
101111
101101
1111111110110110
1111111111010011
1111111110101100
1111111110001110
110100000
111110011
101001110
100001010
1110011
1010011
1111111000101000
1111110110110110
1111111101000000
1111111101001100
1111111010101110
1111111101001101
1111111111000011
10000000
1111110111001101
100010101
1111111100100110
1111111111100101
1111111111000110
1111111101001110
1111111000100001
1111111110000111
1011
1010000
10001
1000
1111
1111111100100011
101010100
1000110100
1111111110011011
10010001
1111111110100111
1111111100100010
1111110110101100
1111110110001100
1111111011011100
1111111010101011
1111111000010010
1111111001000000
1111111101110001
11010000
1100111
111111010
1000111001
110111011
10011101
1111111011010010
1111110110111100
1111111111000101
1111111111110100
11
1111
1111111111000010
1111111111000111
1111111100101010
1000110
1111111111111101
1111111110010001
1111111100100011
1001001000
11001110
10001010
1111111111110010
1111111010111001
1111110101011000
1111111000011111
1111111010000001
1111111010001011
1111111011110000
110010110
1001110011
1001100000
101010011
100100010
1111111010001010
1111110100101010
1111111110101101
101000
101101
11010
10
1111111110101110
1111111100010101
1111111111000111
1111111111011010
101110000
1111111111000111
110100010
1111111101110101
10000101
1111111110001010
1111111100100001
1111111011000010
1111111011101101
1111110111110101
1111110010101110
1111110101111010
1011111001
1110011110
1000011010
1111111100101101
101110
1111110010101101
1111110110001110
1111111110000010
1001111
1111111111101001
11001
1111111111011100
1111111111011100
1111111101100101
1101001
1111111111101110
10010110
111100
1111111111111000
1111111100100001
0
1111111111111111
1101000
111110000
100100
1111111000011010
1111110101000101
1111111100011011
1110100100
111110011
1100111100
1110010
1111111111000010
1111110100001011
1111111010011111
111001
11100
110011
1111111111011001
1111111111111010
1101
1111111111010000
1111111111100111
1111111011001011
101101110
11001001
1111111010000101
11100011
11010
11011001
111100010
1111111111111100
1111111101111100
101010
1111110111111110
11111000
10000100011
111010011
100000111
1110001
100110
1111111001111000
1111111100001111
1111111111100011
1000011
1111111110101100
1000
1111111111110101
1111111111010001
1111111111101010
11011110
1111111110100000
11110111
11100010
0
1111111101101001
1010011
100110101
11011100
1111111000111101
1111110111001100
1111110110100110
1111110111111110
1010000100
10100010000
10011000
1111111010101101
101000101
1111111010001111
1111111110100010
1111111101001001
1111111110110011
11011
1111111111101011
10001
0
1111111110101001
100010110
1111100
1100100
100001001
1111111111010011
111
11101
1111111111101110
11111011
1111111110101100
1111111010101100
1111111010011010
1111110011100101
1111111110011111
1110101
1001101000
1000011
1111111011101110
1111111101101100
1111111001110011
1010111
10110100
1111111111111010
1111111111100011
1111111110111000
1011
1111111111111110
1111111111011111
1000001
1111111110101011
1111111110100000
1001010
1111111101110110
1111111010110000
1111111111011111
1111111010000011
1111111110011000
1111111000011010
1111110110000011
1111110010110000
1111110010000011
1111111011010101
100100001
1000010000
110110111
11100110
1111111111010010
1011111
101011010
1001000011
1100111
1000
110
1111111111101100
1111111111001011
0
101111
1111111011111001
1111111100001111
1111111110111101
1101010
1111111100101100
1111111010110110
1111111010001110
1111111011001101
1111111000010011
1111110110101101
1111110101010011
1111111001111111
10010111
11101010
1010001010
1101101010
101100100
1101010
110011001
110100111
1000000001
1111111111110100
100
1111111111011101
0
1111111111001110
101100
1100
1111111100001010
1111111001100101
1111111100110000
1111111010101001
1111110110111111
1111111011111011
1111111000100001
1111110011101111
1111101110110000
1111101011001110
1111101111000111
1111111101101001
1111111101011101
101001111
1111111111110101
100100111
110010100
1100010
1010101100
1001001011
110000111
110111
11
1111111111111011
100101
1001
1111111111010001
1111111111111000
1111111101011110
1111111011100111
1111111101011100
1111111011101111
1111111000110000
1111111000110110
1111110110000101
1111110011101011
1111101101010110
1111101111000100
1111110110110110
1101101
1111111101110111
1111111001111110
1111111010010000
1110
111000000
1000100
11100010
11000000
1011000
1111111111000001
1111111111110110
11110
1111111111100111
1111111111011010
1010
1111111110111111
1111111100011101
1111111100001010
1111111101110110
1111111110000010
1111111101000111
1111111100110011
1111111101001001
1111111000100111
1111110011111101
1111110111010010
1111111100100010
1111110111001011
1111111000110011
1111111010100010
1111101
110101000
1100100011
101111101
110010111
110010110
1111111101011001
1111111110111011
1100
10000
1111111111110010
1111111111100101
1111111111011111
1111111111011000
1111111111101010
1111111111101010
100110
1111111111010100
1111111110110001
1111111111011000
101100
1111111111110101
1111111111111100
101
11011101
1111111110001101
1111110100011110
1111110101000110
1111111100001101
1111111110101111
1001111110
101110010
1000111
1111111111011110
1111111101011011
1111111111010111
1111111111110110
1111111111101111
1111111111010011
11000
110011
1111111111001110
101101
1111111111000101
1111111111110011
101110
111101
101110
1010
10100
110
100001110
110100011
1111111101001000
1111111010101001
1111111010111000
1111111001100101
1111111010101000
11010000
101011011
1110010
100010
1111111111011101
110110
110010
110111
101
100001
1111111111011001
1111111111000110
1111111111111011
11101
10
10100
10000100
1001001
1111111111011101
1111111111101101
0
1010
10010000
1101
1111111110011100
1111111111000010
1111111111110001
1111111110100111
101111
110101
101110
111110
1111111111101000
1001
111
111001
