1111
1111111111001010
1011
1111111111110111
1111111111111110
10010
101
1011
10101
1110
1111111110110110
1111111111100010
1111111111100001
1111111111111010
1111111111101111
1111111111101000
100000
1000
10010
1111111111100001
1111111111100110
1010
1111111111011010
1011
1111111111100010
101110
1111
1111111111111110
101010
100111
1101
101111
1111111111110100
1111111111111110
1111010
11110001
101000001
1101011
1100001
111110
10011010
10101001
1011100
101000
10001001
101110
1001001
1101100
1010001
1111111111011010
1110
101
1111111111011011
100100
111
100100
1100
1111111111100111
1111111111110101
10000
0
1111111111101101
10001010
101011010
111110000
110011011
1000001011
100110000
111101101
100100000
1010100011
11101011
11111010
101001010
10101100
111011
1111111111111001
10010011
1110101
1100011
101001
101100
0
101010
1111111111111101
110010
1111111111101110
1111111111111011
1111111111101110
1111
101100100
111111010
101011010
111010001
1100000
1001100
1111111100111111
101011101
100111100
1000
1000001
1111111111111010
10110010
110110000
100100011
1000101110
111010111
100100111
1111111111110101
1111111110011011
1111111110111001
10010
0
10010
1101
1111111111110111
10100
1111111110000100
1000101
11010101
1111111101010011
1111111001011100
101010010
1111111001100011
1111111011001101
1101011
101111
1111111100110111
10101110
11111101
10110010
1101001100
111011011
1010110111
111000001
1100010
1111111101011101
1111111101111100
1111111111101010
1111111111001001
101001
1000110
1111111111111011
11
100001001
1111111011010011
1111111100110000
1111111011100000
1111110110110010
1111110111101001
100111010
1111111011001110
10011
1111111011011111
1111111100100111
1111111101010000
1111111111011100
110000000
1101110
101100010
101011001
111001000
10011111
1111111111010011
1111111101011011
1111111101011001
1111111111110100
1111111111110000
1111111111010111
110
1001
1111111110111111
11110100
1111111011011000
1111111111011011
1111111100011110
1111110100100010
1111110111110111
1111111001010000
100011001
1111110111110110
1111111110011010
1111111110010011
1111111010100011
1111111100011110
1111111100111001
1111111000110010
1111110111110111
1111110010111001
1111110100011001
1111111000000111
1111110100001101
1111111011101110
1111111111110110
1111111111000001
1111111111011010
1110
1111111111001111
1111111111101111
1111111010111101
1101001
1111111101110010
1111111111100100
1111111111111001
1111110101001001
1111110110011000
1111111111110011
11101001
1111111000101010
1111111001010101
1010110
1001010101
1111111111000001
1111111011100000
1111110100011111
1111100010100011
1111100001100100
1111100111000100
1111101011011100
1111101001111100
1111111100000011
1111111110110111
1111111110001011
1110
100101
1100
10110
1111111100100001
1111111111111101
1111111001101000
1111110110011100
1111111001000100
1111110111110011
1111111000010001
1111111000000110
1111111111101001
1111111001010010
100010000
1111111011101011
1111101111011001
1111110100010110
1111110010010001
1111011111110110
1111100001010101
1111101000111000
1111101001101011
1111101010111000
1111101010110111
1111110010011100
1111110111110111
1111111011111011
1111111101011001
100110
100111
1111111111110001
1111111101010011
10101011
1111111010001110
1111110101010111
1111111010111111
1111111111001100
1111110110000010
1111111000000011
1111111110011100
110010100
1111111001110000
1111111011110100
1111101100111101
1111100011110110
1111101010100110
1111100111111110
1111101111111010
1111111011110111
1111111011000010
1111110100011110
1111110100010111
1111110010110010
1111110101001110
1111111100000001
10110
10111
1111111111010110
10001
1111111100110101
1010001
10100111
1111111100110100
1111111101010000
100110110
1111111100011101
1111111100101111
1111111011001010
1111110110011110
1111111011100111
1111111000111110
1111110110010000
1111110010101011
1111111001000100
1111111101000010
1111110110011011
1111110110111101
1111111101000010
1111111101011011
1111111010101001
1111110100010011
1111110011110010
1111111100000000
1111111111111100
0
11001
111
1111111011101110
101101111
1001101
1111111010011000
1111111100100011
1111111011110101
1100011
1111111010110010
1111110110010100
1111111001111010
1111111111001101
1111110111111010
1111110100001110
111010111
10000001
10100
101000000
1111111111100010
10000111
111011
1111111110000100
1111110011111100
1111110011001111
1111111000101111
1111111111101100
10000
1111111111100000
1111111111011101
1100010
1000111011
1011111
1111111010111111
1010111
100001101
1101000
1111111110110001
100001110
1111111101101010
1111111001001000
1111111111011011
1111111110100000
111000110
100010101
11100111
1111111111011110
11000101
101101000
101000010
101001101
10011
1111111100001100
1111111001101100
1111111111010110
1111111111111010
1111111111100010
1111111111111010
11011011
1000010001
1000
10101000
100010
1111111000011010
1111111101001110
1111111111111000
101010010
11101000
1101100100
1111110111011110
1000110010
111110110
1111111010101001
10100100
1000100
100110000
1010000100
110110000
1010100001
1011110011
1111111111010001
1111111111011100
1111111111100010
111101
11110
1111111111100111
11010100
1111111111111011
1111111011101010
1000110100
10100010
1111111010101101
101001
10100110
1001011101
100111
1111111110111011
1111110101110000
111010101
1100011100
1111111010101010
1010101000
1111111010101111
100001000
1010001001
1011101010
111001100
1111111111100111
10001000
1111111111111101
1111111111111011
10101
1
1111111111101000
1011000
1111111101001111
1111110101010011
101111011
1000010000
101001001
1111111111000110
1001101
110101100
1001010111
1111111100100011
1111111100111011
1111111101001100
1010011
101011111
1101011
10000011100
1000100001
101100001
111011011
10111100
1111111101010110
110100110
1111111101101000
110111
101011
1111111111010010
111
1111111110110011
1111111101001010
1111111011111110
1001110100
10111010
1111111110111111
100100111
1110111111
10001001010
1111111111010000
11101
101110011
1101110
11000001
110100100
100110
1100000000
1111111110011011
1010100
1111111110110110
110001000
110000
1000001000
10111000
1111111111110010
1111111111101011
110100
10011
1111111011100101
1111111101110000
1111111010110010
11110001
1111111101100011
1010011111
10001
1001011011
1101100100
1111111011011011
110111011
1010110
1111111000100011
1111110110000001
11111111
101000101
110110010
100010100
111100100
11101110
110010000
101000110
101110110
1101111
1000001
1111111111101001
1111111111100010
10010
1111111101010110
1111111011011001
1111111110101100
1111111010010101
1111111110111000
1010001110
1111111110100110
1011111
1111111101010101
1001100111
110000001
10010110
1000100
101110110
1111111111011001
1011100
101011000
1111110110110000
1111111101010001
1111111110000001
100101010
1111110
1111100
11001
10011
1
1111111111110100
1111111111111100
1111111110001000
1111111011101010
10001001
1111111110100101
10011111
10100101
1111111110011001
1101011000
10100101000
10001011001
100111110
10011100
10110110
101101101
1011010
1111111010111110
1100000
1111111101001110
1111111010001101
1111111010110010
1111111101101101
1111111100010000
1111111111001010
1111111111101100
1111111111110101
100
1100
1111111111101000
1111111111011010
1111111101011110
1111111110010010
1111111111100101
1111111101110011
1111110111100101
1101
1010011001
1011100110
111110100
11100001
1010111001
1111111111100011
1111111011010101
101101000
1011011100
10000110
10000001
1111111110011101
1111111010011100
1111111100011100
1111110111100111
1111111101100101
1000
1111111111100001
101010
1111111111110011
1111111111111011
100001
1111111110001101
1111111011101111
1111111101101000
1111111101111000
1111111101101011
11111100
101110010
11111001
111010010
1111111111110101
1100000100
1111111111100000
1111111001101011
110010
1001000000
10110010
1100
1111111010010101
1111111001001111
1111110110010111
1111110111111111
1111111110101000
1111111111110100
1000100
1000110
1111111111101001
1111111111110100
1111111111101011
1111111110010000
1111111100101000
1111110110100100
1111111000111000
1111110010100100
1111111101111101
1000001000
1111111011101110
1111111011101000
1111111111110010
1111111101110000
1001111001
1001101
1111111010110010
1111111010101010
1111111100000001
1111111110001100
1111110111111010
1111110101010101
1111110100101111
1111111001010110
1111111110011100
1111111111001010
1111111111001011
1
110001
1001101
11010
11000
1111111111111011
1111111100111110
1111110101010101
1111110000100110
1111110000101000
1111111001011010
1111101110100111
1111110000011101
1111111000111100
1111111100000010
1111111010001100
1111110111001110
1111110011000000
1111111010110000
1111111010111101
1111111100001011
1111111100101000
1111111011100111
1111111011101010
1111111110100100
1111111110111010
1111111111111011
11001
1111111111001101
11111
1111
1111111111111001
1001101
1111111111110000
1111111111000100
1111111101010100
1111111011001111
1111111011100010
1010
1111111100000000
1111111101010000
1111110100101100
1111110010100000
1111110000110101
1111110110011000
1111110110111011
1111111010010010
1111111010001110
1111111011100001
1111111100101001
1111111111011000
1111111111101100
1111111111111111
1111111110111110
10100
1111111111101101
10001
111
10001
10010
101000
10011
1111111111110010
1111111111101110
1111111111001101
1111111111101010
110101
1110011
1101001
1111111110010001
1111111111110111
1100101
1111111111101101
1111111111111001
1111111110111111
1111111110011110
1111111110011101
1111111111110111
1111111111101110
100110
1111111111010111
1111111111110101
100010
1111111111101001
10
1111111111100001
1111111111101101
1111111111001010
10011
1111111111011010
1111111111101011
1011
1111111111101001
1111111111011010
1101
11000
1111111111111011
1111111111111010
1101001
1000010
1111111111101111
110010
1111111111010010
1100
1111111111101011
1111111101111011
1100
100010
1111111111110111
11110
1111111111101111
1111111111100101
11
1111111111011000
101000
111
11111
1111111111001100
1111111111100000
1111111111111001
1111111111110001
1111111111010010
100
1111111111111101
11001
1111111111111000
100
101010
11110
1110
1111111111101011
10111
1111111110111010
1111111111100011
1111111110110101
11
11101
1000000
1111111111110100
1111111111111001
