100010
100100
1111111111101001
11011
1111111111010111
1101
1111111111111110
1111111111110000
11
10000
1111111111100010
1111111111101110
1111111111111101
10
1111111111001011
1111111111001001
1110
101110
1111111111110110
1111111111110110
1111111111110010
0
101111
1111111111110101
1111111111011011
100100
101101
1000110
1111111111110011
111
11
101
0
1111111111101111
1111111111100100
0
110
1111111111010001
11011
11
110001
1111111111111110
1111111111011111
1111111111111000
1111111111111110
100
1111111111101011
1111111111010111
1101
1111111111111101
1111111111101111
1111111111001010
0
100001
1111111111011001
100101
1111
0
100001
0
1000
1011
1111111111100101
100
1111111111000010
1111111111111010
1111111111110010
1111111111010011
1000
1010
1111111111110111
11000
1111111111010010
101
10011
111100
101
11110
1111111111101011
10101
10101
1111111110101001
111011
0
1111111111101011
1101
0
100
1100
1111111111111111
1000
1111
1111111111111111
100101
1111111111100100
1111111111101110
1111111111111111
1111111111100000
11
1111111111101110
1111111111000111
1111111110111100
1100
10
100000
1111111111011010
1111111111111101
1111111111010100
101
1101
101111
101000
101001
10010
1111111111110010
11111
11010
1111111111110011
1111111111010010
111001
100111
1111111111110111
0
101
1111111111100101
10001
1111111111000110
1111111111011101
1111111111111001
101001
0
1111111111001111
101010
1111111111101011
11011
101100
100010
1111111111001111
1111111111101001
111011
100100
1
1111111111110111
1111111111001010
1000
1111111111110110
111010
1111111111010001
1111111111111001
1111111111001010
110011
1111111111111011
1111111111001010
1111111111100101
1111111111011101
1111111111100100
1111111111101010
11
1111111111011000
111100
1111111111110000
1
1111111111100111
100000
1111111111010110
111
1111111111011001
1111111111010010
1111111111101001
1111111111111010
1
111001
1010110
10110
1111111111110000
1010011
11011
10000
1111111111111000
1001001
1111111111101100
11101
10001
1100
1100
10100
1111111111010010
110
1111111111011010
1111111111101010
1111111111111101
11010
1111111111000001
1111111110111001
101111
1111111111111110
1111111111101001
1111111111110011
10000
10000
1111111111100100
1111111111111110
1111111111111110
11101
1100
0
1111111111100101
1111111111011111
110000
110
1111111111101101
1111111111111010
1111111111001001
1111111111110011
101111
0
1111111110111011
1
1111111111111110
1101
11010
1111111111101000
10001
100010
100111
101
110101
1111111111101001
10000
11001
1101
0
1111111111100011
10111
1111111110111001
100111
1111111111101101
10110
110
110100
1111111111100101
1111111111111001
1111111111010111
10011
1111111111110000
111100
1111111111110010
1000011
1111111111110010
1111111110111111
1111111111111100
110010
1111111111101101
1000
1111111111100100
1111111111111000
1000
1111111111110101
10111
11111
1100
10100
1111111111111010
1111111111111110
11
1111111111111010
1111111111101000
1010
100001
101000
1111111111010000
1
101
1111111111111111
1111111111111110
1111111111110100
111
100011
1111111111111000
0
110110
11110
1111111111010100
1111111111101101
1111111111110111
1011
1111111111110110
1111111111011011
10111
0
111101
1111111111110001
100110
1111111111111010
1111111111111100
1111111111010100
0
111
1111111111101110
1111111111100111
0
1111111111111110
1111111111111100
1000010
1111111111000010
110100
10010
1001011
101011
1111111111111001
1111111111110111
100010
1111111111000011
1111
1110
1010101
1111111111111100
1111111111100101
1111111111110000
100101
101011
110
1111111111101001
1111111111111010
101101
1000
1111111111110000
1111111111010100
11101
1111111111011010
1111111111111110
1111111111111001
1111111111100000
1110
1111111111101101
10010
1111111111001110
10000
1111111111010101
1111111111100000
10100
1111
111101
1111111111111010
1111111111101100
1111111111111110
1111111111011101
1010
1111111111111100
11
10101
1111111111111111
1111111111001010
1110
1111111111011100
100111
110011
1111111111110010
10000
1011
1111111111010101
1011
1111111111011011
1111111111101101
1111111111110101
1111111111001101
1111111111111011
1111111111010000
1111111111011110
110110
1111111111100110
1111111111001010
1000
101001
10100
101111
1111111111100111
1111111111110001
1100
1111111111100101
1111111111010100
110001
101000
100000
10
101
110
1111111111001100
1111111111111011
1111111111111111
0
1111111111000000
1111111111111101
1111111111100110
1111111111111111
1111111111110100
11111
1111111111111000
1111111111000101
1111111110101011
111010
111010
1111111111101011
1111111111110011
101
0
100
1111111111011011
10001
111000
10101
1001010
1111111111001100
1111111111001110
1111111111111110
100101
1111111111101001
10
1111111111101000
110100
1000
101
1111111111011101
10
1111111111111001
1111111111011001
1111111111000011
1111111111100010
1111111111110101
1111111111011111
101100
1110
11100
1111111111110000
1100
1111111111011100
11000
1100
1111111111010111
1111111111001101
1111111111110010
1111111111101100
1000011
100100
10
101011
111
0
1111111111111000
1111111111011110
101101
100
100010
1111111111111100
1111111111101111
1111111111100111
101000
1111111111101111
1111111111111101
1111111110110111
1111111111010010
11
1100010
100100
10011
1001
1111111111110001
1111111111111110
10011
1111111111011110
1111111111110101
1111111111111011
10110
1111111111100100
11
1111111111101100
1111111111100001
1000
101000
1111111111111110
1111111111110011
1111111111110001
110111
11010
10101
11000
1111111111110101
100110
1111111111101001
100011
11
11110
1100
10001
1111111111110110
1010
1111111111111010
1111
1111111111100111
1111111111001100
100
1111111110101101
1011
1111111111111110
1111111111110000
1001
1111111110100100
10101
1111111111101111
111
11000
1111111111001101
10101
1111111111011010
1111111111100001
11
1111111111100111
100010
10000
0
1111111111111000
1100
10010
100101
1101
0
1111111111011001
10100
11011
1111111111011100
1111
10100
11110
1111111111001000
1111111111011000
1111111111010011
10
110101
11
1111111111111101
1111111111101110
10110
1111111111111100
1111111111010010
1111111111011011
101
1111111111010101
100001
1111111111011110
1111111111110000
1111111111101001
100
10000
10010
11001
110010
1111111111111111
101
1111111111000010
110
1111111111110110
1111111111110101
10110
1111111111110011
101
1111111111110101
10000
101001
10100
1111
1111111111100010
11001
111
1111111111101110
1111111111111110
1111111111101110
1001
1111111111001101
10111
10100
1111111111101110
100101
1111111111110100
1111111111100001
11101
101001
1111111111101100
1111111111111011
11110
1101
110
1111111111101111
10111
111
1111111111100000
11001
1111111111110100
1111111111101000
1111111111100010
11
1011011
1111111111010110
1111111111110010
1000110
1111111111111100
1111111111011110
1111111111011000
1111111111001111
1111111111100110
1111111111100011
1111111111111111
10
1111111111101111
100100
1111111111101001
1111111111001111
11001
1111111111001010
1111111110101100
1111111111110101
1111111111111001
0
101110
1111111111010111
101001
1000100
11010
1111111111101101
1000
0
1111111111111110
1111111111101001
1111111111100111
1001
1111111111111100
1111111111100011
11011
1111111111011100
1111111111101101
110
1111111111110100
1111111111110010
111011
110111
1111111111000111
101100
11001
10011
1100
1111111111100111
11101
1111111111110001
110011
1000011
1111111111111100
1111111111011000
1111111111110100
101
1001
0
1111111111110111
1111111111011010
1111111111111111
1111111111001010
1111111111110011
1111111111101000
1010
1111111111111100
10110
1111111111110111
11111
10
1111111111101000
1
1111111111010101
10
1111111111111101
1001010
1
110
1111111111111101
1111111111100111
11000
1111111110010100
100101
1111111111010111
1111111111101101
10110
1111111111100000
1111111110111011
1111111111011110
1111111111010011
110101
1011
1111111111011111
1111111111011011
1111111111111100
1111111111100000
110
1111111111110111
1111111111110110
10010
1111111111111000
1011
10110
10110
1111111111100000
10101
1111111111011110
1100
1111111111011101
10111
1111111111010100
1111111111101010
1111111111100001
1111111111101101
1111111111010110
0
1111111111110010
1111111110101110
11011
10
110111
110010
10
10011
11010
10111
1111111111100100
10101
1111111111110101
11111
10
10000
1111111111011110
1111111111010101
11000
1111111111100101
1111111111111111
11001
1111111111110100
1111111111101110
1111111111110111
101100
1111111111100100
1111111111111110
1111111111000101
100010
1111111111101010
1111111111000100
111010
1111111111101111
10100
1111111111111011
1111111111011001
1111111111111010
1111111111101011
1111111111011000
100001
10001
10111
10110
1101
1111111111101110
10110
1111111111100101
11111
1111111111111001
101100
1111111111100001
0
1111111111101001
111010
1111111111111011
1
101
1111111111110011
1000100
1111111111100101
1111111111100000
1111111111100111
1111111111101101
1111111111110010
0
