11001
1000001
111
1111111111100110
1111111111101000
1111111111101110
101
1111111111010101
110010
1111111111011101
101
1111111111001010
1111111111110110
1111
0
1111111111110010
11011
1111111111111010
1111111111001111
111
110001
10
1110
1111111110111101
1111111111110111
11001
1111111111100100
111
1111
111001
1111111111100011
1111111111000010
1111111111101111
10100
1111111111101111
1111111110000011
1111111110101110
101001
1
1111111111101001
1111111111001100
1111111110101110
1111111111110111
1111111111101111
11010
11
1111111111111110
1111111111101001
1111111111111010
1111111111100100
1111111111000000
1111111111111100
11011
10111
1111111111100101
110110
1111111111101110
1111111111110101
1001
11100
11
1111111111010100
1111111111110011
1111111111001010
1111111110100011
1111111111011110
1111111111001111
1111111110110001
1111111101011101
1111111100011100
1111111110001110
1111111111000110
1111111111001100
1111111111010111
110
1111111110111101
1111111111011101
10011
101000
111
10001
1111111111011110
1111111111000000
1111111111010110
1111111111111001
1111111111011111
100
101010
1111111111110010
1111111110110000
0
1111111111100001
1111111101100111
1111111101000101
1111111011010000
1111111010110100
1111111000110110
1111110111010001
1111111010111001
1111111000110110
1111111011010110
1111111101100110
1111111101111100
111
1111111110101111
100101
11110
1111111111000111
1101
110110
100110
1111111111110000
11001
1111111111100100
11110
1111111110111101
1111111111011010
1111111110101101
1111111110000001
1111111100101101
1111111010010101
1111110111000011
1111110110101111
1111111000001100
1111110101001011
1111110111100110
1111110100001000
1111110100010001
1111110111010101
1111110100101000
1111111000010001
1111111100111111
1111111111100010
11010000
1111111111101001
1111111111101100
1010
1111111111010011
11011
11001
1111111111100101
1111111111011001
1111111111110000
11
1111111111110011
11000010
1000111
1111111101100101
1111111101011010
1111111001001001
1111110011111001
1111110110011010
1111101110100111
1111101110101010
1111101001110011
1111110010011010
1111110000010011
1111110000010110
1111110001111011
1111110100001111
1111110100111001
1111111000000111
1111111000110000
1111111010101110
1111111110001001
1111111101101011
1111111110010001
1111111111110100
1111111111011111
1001
1111111111101001
1111111110000010
1111111101101101
10111111
1100011101
111011111
10101101
110010011
1000111
100011110
1111111111000000
1111111100001000
1111110101010110
1111111001110000
10000001
101001110
110011011
1111110110000111
1111110111110001
1100011001
1111111101011010
1111110100101101
1111111010011100
1111111100000101
1111111111001110
101000
1000
11110
1101000
101010100
111111
101010110
1010011011
1001011110
1001000011
1001101110
11100111
1111111111010110
10100000
111010111
1111111110100111
1111111000101010
101110010
10001001100
1010110
101010010
1001100111
11001111
1010
1111111100001010
1111111100000110
1111111010000010
1111111100010111
1111111111110000
10
1111111111100011
10110010
11011010
100010010
111011000
1001010110
1110101010
10010100000
1000101110
1000000011
1011111011
1100111111
1111111010011001
1000000101
1111111
1111111100010000
1111111011101111
1111011001
1111111001100100
1111111011100100
1111111100100000
10110010
101010
1111111011001111
1111111001010100
1111111100010100
1111111111101001
1111111111011010
1000100
10000101
110010100
101000101
1011100001
110110001
1111111111110101
1001100000
1000010011
1001100
111100001
1010111100
1000110101
1001101101
1000001
10001001
111110111
10010
111001101
11101000
101000001
1011110
1111110101000101
1111111100101000
1111111011010101
1111111100010000
101111
1001
1001
100010011
101001011
100110110
110010111
1000100011
1111111110010111
110010001
101100101
10000001
111101101
10101111
10100101111
10000100100
100101110
110000011
1100101
1111111101110101
1001111
1111111010000000
1111111111100110
1111110110010110
1111111001100110
1111111001011010
1111111100010010
1111111101011110
1100
10110
1111111111101001
1010011
101010001
100010101
1111111111000100
101000010
1100111
1111111101001100
1111110101110111
1111111101110001
1100110010
1111111010101100
1101
1000
1101011011
100110101
101101010
100001110
1111111110111001
100100010
101101001
1111111110111100
1111111100110001
1111111000111111
1111111101101111
1111111101110111
1111111111011111
1111111111101100
10001
111011
10011010
100000001
1111111000000001
1111111011100101
1111111111010111
1111111111001010
1111111100101110
1111110001110100
111111000
1111110111000110
1111101111010011
1111110101110101
1001011001
10000111100
1111110000
10001101111
11010010
1010111
1111111110010111
10101001
1111110100110101
1111110100101101
1111111111001011
1111111111010010
0
1111111111110010
10101
10011011
10011
1111111111100001
1111111000111100
1111111000001101
1111111001000001
1111111100000110
1111110111101011
1111111001000111
1111111010101110
1111100111010010
1111101111010101
11100011
1111110111001101
1011101010
1001010001
1001001010
1111111110111101
1010100
1111111110001010
100000111
1111111001111000
1111111001111111
1111111011101011
1111111111000110
1001001
10011
1111111111101011
1101001
1111111111111001
1111111110101001
1111111001101010
1111111010000010
1111110110111010
1111111010010000
1111111010110100
1111111111101110
1111111011001111
1111111010011110
1111111011110111
1010
10101100
1111000110
1100101110
10010001011
10011110111
1111100010
1111111101000001
1010101100
11011011
1111111100100000
1111110
11100
100010
1111111111101110
1111111111000000
100111
10111001
1111111110011101
1111110011011000
1111111001000100
1111111100001111
1111110110010101
1111110110000111
1111111010110001
1111110011001110
1111111011111001
1111111110000111
110010000
1010111001
111101
1100101101
1100010100
10000001
1010000101
1010111110
1101100100
101
1111111001110100
1111111011110011
1111111100110011
1111111111100000
111111
1000011
1111111111100100
1111111101101001
0
1111110101010101
1111110011000111
100000001
1000110
1111111101110111
10011010
1111111001100101
1111111111010100
1111111011010010
1111111101100010
1001111011
111001100
111011111
1001010
1111111111011101
1110110
1100010111
110100000
1010010
1111111101000011
1111110111001010
1111111110011100
11000
1111111111011100
10111
1111111111101000
1111111100110010
1111111011001000
1111111000011100
1111110010011100
1111111011110000
1111110000001001
10100110
1111111011100101
1111111101010001
1111111100001010
1111111110010001
10110011
1001111110
11101100
1111111111001100
11010110
1111111110101111
10011110
1111111000011100
1111111110011110
1111111100000111
1111111001111100
1111111101100110
100010
11111
1111111111011111
100100
11110
1111111011010110
1111111010000010
1111110110111100
1111110001011111
1111111011111001
10000
1111110111111000
1111111010000101
1111111000101100
1111110101010010
1111111110110010
11111010
1111111101111000
1111110010101111
100010110
1111111011101010
1111110101001001
1111111110000000
1111110110100000
1111111010011001
1111101111110000
1111110101110111
1111111111111010
1111111111110101
1111111111111111
1111111111110110
110001
111011
1111111101110100
1010101
1111111100001010
1111110100001010
1111111000101101
10101111
1111111011011110
1111111010100011
1111110011100010
1111111011111101
1111111110100010
1010100101
1111111100111001
1111111101100000
1111111110000001
1111110101110110
1111111110001110
11
1111110100111000
1111110000010111
1111101111010100
1111111000101111
11000
111100
1001100
110100
100100
1111111111010001
1111111100100111
1111111110111101
1111111000110101
1111101110100011
1111110000110010
1111110011001100
1111111000110100
1111101101100101
1111111000001100
1111110101000010
1111111010101010
1111111111011000
1111110001011101
1111110011010001
1111101000011101
1111011011111100
1111101111000001
1111110011100011
1111101011111001
1111101101101001
1111110101101111
1001
100111
1111111111100010
1111111111101110
1000
1111111111110100
1111111111010000
1111111010100100
1111111001011101
1111110011101110
1111101011111101
1111101101100010
1111101110001000
1111111001001110
1111110101100100
1111110010011110
1111111001010100
1111110101101001
1111111010101100
1111111001001010
1111111111000010
1111110111011111
1111101111101110
1111110100111001
1111110110010111
1111110011111101
1111110011011110
1111110100011100
1111111100100001
1001110
1100110
1111111111111010
11011
1011
1111111111001010
1111111011100101
1111111011110010
1111111001110010
1111110111000101
1111111110011010
1111111111000010
1111111111010101
1111111100111000
1111110000001010
1111111010101101
1111110111011111
1111110111111010
10100101
1111111101011000
1111111010101100
1111110100110100
1111111000011100
1111110001011100
1111110001101001
1111110100001100
1111110100001001
1111111101110001
1
1111111111111011
1111111111111100
101
1111111111100001
1111111110000010
1111111100010001
1111111110100111
11001100
110100111
111111100
1111111010011111
1111111101111000
100010001
1111111010010101
1111110101111111
10010001
1111110010101111
1111110101011000
1111110100100010
1111110101111001
1111101110110011
1111110010100100
1111110000011111
1111110010101001
1111110110100111
1111110101111011
1111111110011111
1111111111000001
1111111111101011
1111
1111111111011101
11111
1001101
1000111
100111111
1110011101
10000101111
100100011
1111111110001010
1111111001111101
1111111001110100
10011
1111110000001001
1011
1111111010111000
1111111101100110
1111101110011100
1111111110011011
1111110110101011
1111111100110011
1111111010010011
1111111010001100
1111111000111001
1111111010101011
1111111111000011
111000
110
11010
1111111111101101
1111111111011000
110111
101101
111100111
1001000000
100101111
1100110
101100
110101011
1111110110101100
110011
1000100101
1111111001110101
1111111110100001
1001100010
111011010
100111
111001100
101000111
11110100
100010110
10001
1111111111111101
11101
11001
11001
1010
1100
10100
1100
1100
1111111101110000
1111111111000101
1001101
1101101
101001110
1000011110
110000110
1111111111001001
1111111011000100
10111010
101001101
1110111
1111110
1111111110111011
10101100
100110100
1111111111101101
1110111
1111111110010110
1111111111100101
0
1011
1111111111010110
100000
1111111111000110
111000
1000
110001
1
1111111111110101
1010110
10001110
1010111
1111111111101011
101000110
111110
11010
10011
101110
1111111111010110
1111111111100101
1111111111111000
1111111110000101
111
1111111111110001
10001001
10101
0
1111111111001100
101
1111111111100010
11000
