1111111111101111
1111111111100110
1111111111010000
10111
1111111111111010
10011
1111111111111111
1111111110101011
1111
0
100100
1111111111001110
1111111111100111
1111111110100011
11110
1111111111100111
11111
10011
1001
1111111111101111
1
1111111111101000
1111111111101100
100
11101
1111111110111110
0
100001
111000
1111111111111000
0
0
1001111
1111111111101100
1111111111111100
1111111111010011
1111111111011010
1111111111001011
1111111111010001
1111111111001100
1111111110000101
1111111110000010
1111111111100110
1111111110011010
1111111111100101
1111111110111001
1111111101111001
1111111111010100
1111111110100111
1111111111001001
1111111111010011
10110
11010
1111111111100101
1110
1111111111101000
0
1111111111101001
1111111111111110
1111111111000110
0
111
0
1111111111111010
1111111111010101
100111
1111111110111000
1111111100110111
1111111100111100
1110
1111111101100100
1111111011100011
1111111100011001
1111111110100010
1111111011001110
1111111011000110
1111111100101011
1111111100111101
1111111101111110
1111111111000110
1111111111110010
110000
0
1000101
1111111111111010
11101
100011
1111111111011100
1
1111111111011100
1111111111111010
1100
1111111111101011
1111111110101000
1111111101001010
1111111101101110
1111111100010100
1111111110101001
1111111111001110
1111111100010110
1111111111010101
1111111110001001
1111110111111011
1111110101101011
1111111000000000
1111111011100010
1111111100010110
1111111110110100
1111111111100011
1111111111111011
1111111111111011
1111111111010100
10010
10011
10
11010
1111111111110101
1111111111010001
1111111110011101
1100
1111111110010011
1111111010011110
1111111010111111
1111111100100110
1111111000011000
1111110111010010
1111111010010011
1111111010110010
1111111100010110
1111111111110101
1111111000000100
1111110100000100
1111110111010001
1111110111010011
1111111001110000
1111111111111111
0
10010010
1111111111111110
1111111111000010
101
1111111111000101
10011
1111111110111100
1000
1111111110001111
1111111100000000
1111111010010001
1111111000110010
1111110110110001
1111110110001100
1111110110110110
1111110111001011
1111110110000000
1111110001011100
1111110100100000
1111110101111101
1111111011101011
1111111011110100
1111110110111001
1111111001000001
1111111001010001
1111111010001011
10101001
1111111111010111
1111111111111111
101001
100000
101111
1111111110110110
1111111111110011
1111111111000000
1111111111110101
1111111100011000
1111111011100100
1111111010001011
1111111001010100
1111111100111000
1111111010110010
1111111011100110
1111110011110010
1111110100100001
1111110100010011
1111110110000101
1111111010011001
1111111100010110
1111111111000000
1111111011000100
1111110110000011
1111110100111001
1111110110001001
1111111100000110
1111111100001010
1111111111100100
11011
10010
10010
1111111111011000
1111111111110000
1111111111010000
1111111110110111
1111111000111011
1111111011100000
1111111100111010
10011000
1111111110110111
1111111110101110
1111111110010110
1111111100101010
10110010
1111111100111110
1111111011010100
1111111010001101
1111111100110100
1111111101100101
1111111000011100
1111111011001111
1111110100101001
1111110111110000
1111111011011000
1111111111000110
10101111
1111111111000101
1111111110110001
1111111111011110
1111111111100101
110010
1111111111111001
1111111110111110
1111110110000111
1111111010010101
10000000
1111111111101010
1111111001000101
10111010
111101000
11010010
101100100
0
1111110111010100
1111111000110101
1111111001011010
1111111010110110
1111111010110001
1111111101010111
1111111101010000
1111111111100011
101111110
101110100
1111111101110000
1001011
11011
1111111111111011
1111111111101101
1111111111011111
100001
10111
1111111111010010
1111111011110010
1111111111101011
1111111101000111
1111111101100101
11111101
101001111
1111111110111111
100111110
1000000000
1111111110111110
1111111101101100
11110101
100100111
11100111
1111111110101011
1111111001111111
1111111101001110
1111111111110100
1111111111100111
1010000
11111010
10000100
1111111111111010
100100
1111111110100000
1111111110110000
1111111111110111
110100001
1100000000
100010111
10001101
10000100
1001011
100010010
101001
1111111100011111
10100111
1010101101
111111000
1011011
11010000
1111111000110011
101111
1111111110011011
1111111111010010
101111
101110010
1000011000
11110000
1111111111100100
10100
1111111110010111
1111111110111001
1111111100001110
10111101
100000010
110001100
1001011110
101001
1111111010100010
1100101
1000110010
1011101
10111
1100011
1001011010
1101001100
1011001011
1111111101110000
1111110100010000
1010101
1111111110011111
1101100
1111111111111100
110011110
1000000010
1111111111111111
1111111111100101
100101
111101
1111111111110111
1111111110011011
100111001
111
110
100001
110001101
110110100
1111111100011001
100101110
10110
110000000
1111111010
1010100110
100110010
10000000
11001110
1111111111000100
11101100
1111111100001011
1111111100100101
1111110101000001
1111111110101101
1001010111
110100101
110000
1111111111101011
1000
1111111110101110
10000111
10101000
1111111110101111
1111111111000011
1111111111010011
0
1111111100100000
1111111011011010
111111101
110110101
1000101111
1111111100011101
1111111100101100
1111111100010111
1111111010101111
1111111101011101
1111111101100110
1111111010110001
1111111011111010
1111111110010101
10
1111111110001011
110000101
110001111
1000000
1111111111011101
1111111111111101
1111111111111011
10110000
1011111
1111111001001100
1111111100001110
1111111010011001
1111110110110000
1111110110000110
1111111001100001
10010000
1111111100001010
1111111111001000
1111110111111111
100
1101110000
11010011
1111111101101100
1111111110100001
1111110111110010
1111110100100101
1111111111110111
1111111011011101
1111111011001100
110001011
11011001
11110
1111111111101100
1
1000000
1111111110111010
0
1111110011101000
1111110010001111
1111110111000110
1111111110001110
1000101
1111111100011001
1111111100111101
1010000110
110000110
1111111000011100
1111111001101110
1111111101010110
1111111111100110
10110010
111001110
100000000
1111111111000001
1111111000100111
1111111011001101
101010111
1001000010
10010101
10101
101010
1111111110001110
1111011
1111111100100100
110101110
1111111100101001
1111111101000001
1111111101000011
1111111010100100
1111111100010100
1111111001011010
1100
11010010
11011
1110001
1011010000
100100
1000010010
1111111111101000
1111111100111001
110100
111111111
100011011
110001
1111111111111011
110000111
100101001
1111111111111010
10110
110
10010000
1111111100000010
1010000011
1000000111
111111010
110001110
1111110110111100
11000111
101010111
1111111101100100
1100011
1111111100101000
11101000
1011101111
1111111100000011
1111111101110000
1111111101111010
10110011
101100011
10001001
1111111001100000
1111111111000110
1111111011001111
101001010
1010111
1000001
1111111111111110
1111111111111000
10110001
1111111100011000
1101000
1101001101
1000101011
11111100
100111010
101101101
1010011011
111110
1111111010111101
11100011
11010010
110001111
1111111010011110
101
1111111111100111
11000000
1111111010011101
111001010
100001010
11011110
111101000
1000001100
11100
100100
1111111111011100
1111111111100100
1111111110101001
101011
1111111011010001
11001011
1111111001110001
1111111110001011
1111111101010111
1111111100010000
1111001
111101100
110010
1111111001010110
1111111100000111
0
1111111100100001
100100110
1010100
1111111100100010
1111111010101100
100111111
1011011010
1101101011
1000001000
100000011
1010110
1111111111101101
1111111111011010
1111111111110010
1111111111100110
1111111100011100
1111111010011010
1111111000010011
1111111100101110
10010010
101110011
1111011
100011101
1101110000
10100101
1111111010001001
1111110100110000
1111111001111111
1111111010000101
1111111010110000
1111111110010110
1111111000101101
1111110111010101
1111111101010000
100000111
11101100
10010100
111110
1000110
110100
100011
101
1111111111110010
1111111101111101
1111111110000111
1111110111100011
1111111011011100
1111110111100010
1111111011111111
1111111001100001
1111111101111111
1111111101010101
1111111000010001
1111110100110001
1111101110001010
1111110001101100
1111101110100010
1111101110101101
1111110101100101
1111110101001000
1111110101001110
1111111000011101
1111111010110111
1111111111001011
1111111101001101
1111111111111101
0
1110
1111111111011100
1111111111010111
1111111111111000
1111111111011011
1111111110101011
1111111011101000
1111111001011000
1111110000100100
1111110010000010
1111101100111000
1111101110001011
1111110011111111
1111110111110100
1111110100010100
1111110100110100
1111110100101001
1111101110011111
1111110010010000
1111110110101011
1111111010101011
1111111001100010
1111111010001010
10000
11011010
1001001
1011000
1111111111011011
1101
1111111111011110
1111111111110101
100110
1111111111111111
1111111110111001
1111111011110011
1111110111100000
1111110100111101
1111110101010100
1111101111100101
1111101111101010
1111110011110110
1111110100101001
1111110010000100
1111110110100111
1111111001010101
1111110111101010
1111111001101100
1111111010101100
1111111100000000
1111111010110101
1111111001011010
1111111101010110
100011001
101100101
1010101
1111111111110000
11100
1111111111101100
101110
101110
1111111111111100
1111111111100001
1111111110001110
1111111011100010
1111111010111011
1111111100011101
1111110110011011
1111111000010101
1111111010000110
1111111001000100
1111111010000110
1111111101100000
0
1111111011100011
1111111111000111
1111111111010011
1111111111110101
1111111101111101
1111111000111000
1111111011001101
0
1111111111111011
1011100
111011
1111111110111100
1
101010
1111111111100111
10
1111111111111110
10011
101111
111010
1111111110110000
1111111101101000
1111111100101110
1111111010010110
1111111010001100
1111111110101100
101000101
11110001
1111111111111101
11011110
101111
1101100
1111111100011010
1111111110111111
1111111101001000
1111111111010000
11011
1000
100111
11011
1111111111010010
1111111111111010
1111111111101001
1111111111110011
1000010
1010011
1010101
0
1111111111101101
1111111110110010
1111111111000101
1101110
10100
11111
1001000
11101
1111111101011110
1111111101101001
1111111111110011
11100
1111111110100011
111000
1111111111001110
100000
100010
1111111111111110
101011
1111111111111111
1111111111011111
1111111111110101
1111111111110011
101001
1111111111011000
1111111111111111
100111
1111111111100011
100
10010
1111111111111101
110101
1111111111101011
111
1111111111101101
1111111101101101
1111111111010111
1111111111100110
110100
100
1111111110001010
100010
1111111111111100
1111111111111100
1011
1110
1111111111000110
1111111111111111
