1111111111111101
1100
10000
1001010
1111111111011000
1111111111111111
1111111111001001
0
100010
1111111111111000
1001
1111111111111110
111110
1111111111110011
101
1110
1111111111110100
1111111111011001
11111
1111111111001110
1111111110111101
1000100
1111111111110000
1111111111110110
1111111111101111
1111111111110100
1111111111011011
1111111111011001
1111111111111010
10100
1111111111111100
1111111111100011
1111111111101000
1111111111100110
11011
101101
110000
1111111111001010
101
1111111111000101
1111111111101100
1111111111111111
1111001
100101111
10111
1
10111
1111111111110011
0
110111
0
1111111111111101
1111111111011101
1111111111100100
11110
100010
110000
100
1111111111011001
111001
1111111111100001
10010
11000
1111111111010010
1111111110111111
1111111110101110
110101
101011
10000001
100101111
110001100
1011010111
110111100
101010
1111111110111001
10
1111111111110100
1111111111110010
1111111111001100
1111111110111000
1111111111010010
111011
1111
100
110
1111111110101010
1110
100101
100101
10111
1111111111110010
1111111111100000
1111111101001010
1111111101001111
1111111011111001
1111111001101011
10110001
100000100
1111111110111000
11001110
101110110
1111111110100011
1111111010010111
1111111011001011
1111111101100000
1111111110010001
1111111111101000
1111111111100011
1111111111111110
1111111111111000
1111111111101111
1111111111101100
110100
1111111110111111
10111
1111111111001000
10101
11010
1111111111000110
1100
11110011
100000011
11100101
1111111100000111
1111111001001011
1111111011100101
1111111001110111
11111
1111111001001111
1111111110001001
1111111000010001
1111110011000010
1111110011011010
1111111001010111
1111111101101101
1111111110100111
1111111111101011
110
1111111110111011
1111111110111110
11101
1111111110110011
110111
100001
11100
100001
1111111111100010
1111111111010110
1111111100011111
1111110111010001
1111111000101010
1111111001011111
1111111010111100
110010010
11001100
1111010010
111101010
1111110
1111110101011100
1111110000111100
1111110000010110
1111111000001100
1111111100011100
1111111101011000
1111111110010101
1111111110110110
1111111111111111
11111
1111111111111010
10000
1111111111001110
1
1111111111000010
1111111100011011
1111111000010010
1111110000001101
1111101110111110
1111110101011111
111011
1111111010011010
1111111010110110
10110000
1000011
1111111011110001
1111111111001101
1111111000100101
1111111001100111
1111110100001110
1111110000100111
1111111010011001
1111111100111011
1111111110100111
1111111101011101
1111111110011101
1111111111110100
1111111111100111
100011
100
1111111111100010
1111111111011101
1111111101110111
1111111011100101
1111110111000010
1111110011100000
1111110000111010
1111111100010010
101001
1000111
100101111
1111110100110110
101011100
1111111110011001
1011001
1111111010000110
1111111101001011
1111111000111110
1111110111101110
1111111010110101
1111111100100100
1111111101010010
1111111100010111
1111111101100000
1111111111101100
1111111111111010
111011
1111111111111111
110
1010
1111111110001011
1111111011011110
1111111100011110
1111111010110011
1111111010011000
1111111100111111
10110100
1111111111100101
1111111100010000
1101101
1110000110
11000000
1111110100001011
1111111100011100
1111110100010101
1111110011100010
1111110110110101
1111111010101000
1111111011011001
1111111001110111
1111111010110111
1111111101111101
10001
1111
10100
1110
1111111111101000
1111111111011011
1111111011000010
1111111100001000
1111111101110101
1111111110011010
1111111010110100
1111110110110001
1111111110001101
1001100010
1111111101110001
1100011101
10101110110
110111111
1000101
1111110101111011
1111110100110100
1111110101001100
1111110110001010
1111111001011000
1111111011001100
1111111010100001
1111111011010100
1111111111110100
1111111
100110100
1111111111111110
1111111111000100
1111111111101111
1111111110111110
1111111011011000
1111111100001001
1111111100000100
10010100
1111111011111010
1111110101000111
1111110101100111
10100
10100100
10101100110
11000011101
10010010000
1000100000
1111111101000101
1111110101000000
1111111000101011
1111110100110011
1111111101111100
1111111110101101
1111111111101100
1000111
101001
1100110
11
1111
101000
1011
1111111111110101
1111111111000010
1111111101010011
1111111011011111
10111101
1111111100110011
1111110010100001
1111111011000111
11100
1111111101101111
1001010101
1100010010
101110011
11101100
1111111000011101
1111101100010000
1111110101011001
1111111100110100
100111110
100100111
1101111
1111111101100100
1111111100010110
1111111111000101
10000
1111111111011110
1101
10001
1111
1111111111010010
1111111101011100
1111111100011101
10100101
1111111100100100
1111111100111011
1111111011001011
1110011
1011011011
101001011
1000110001
1111111011110010
110110110
1111110011100100
1111101101000000
1111111001101000
10010011
100000100
11101
1111111110100101
1111111110000011
1111111111010001
1111111111011001
1111111111110110
1111111111011000
100000
1111111111101000
111011
1011010
1111111110101010
1111111101110000
1111111010111010
1111111110011010
1111111011011011
1111110100101100
1111111001010100
11001011
1111111101100101
1101110111
1010101
1001110010
1111111001111100
1111110100101100
1111111110011010
1111111110111100
1111000
1100101
1111
10000101
10011101
10
1111111111011001
1111111111011011
1111111111100101
1111111111111110
1111111111110100
10000111
1111111110001001
1111111110111010
1111111011011001
100000010
10001001
1111110100000010
1111110011111110
1111111101111011
1111111110101001
1110111011
10110000
1111111101101001
1111111110011001
1111111111110000
1001010011
110000010
110101011
10000011
11
1011111
11001000
1010000
11011
11011
11110
100101
1111111111001110
1111111111111010
1111111111100001
1111111111001001
11010
101101000
1111111010110110
1111110101110001
111010110
11011001
11100001
1010010111
1111111011000010
1010100
1111110111000010
1111110110011010
1111111010101011
1111111100110111
1001
1111111011111011
1111111111110100
11100
1111100
1111111111111100
1110
101100
1000
0
1111111111110111
101
1111111110010110
1111111110111110
10101111
11000110
1111111011011000
1111111101000000
1000010101
1111111001000011
1111111100000110
1100010111
1111111000010100
1111111101000100
1111101111011111
1111101111101011
1111110101001100
1111111010101010
1111111011111000
1111111001011111
1111111101000010
1111111111101011
10001
1001011
1111111111111101
11110
1000
11
1000011
1111111111011001
1111111101010110
1111111100100011
1111111111011111
1111111101011001
1111111011110011
101000111
1111111101010101
1111111001100110
101000100
10001000111
1111111110010000
1111111011000011
1111110001111100
1111101111010001
1111111000011101
1111111001000100
1111111011011011
1111111100100010
1111111110010010
1111111110011110
1111111111100000
1101000
1111111111110001
1111111111110101
11100
11111
10100
1111111111100110
1111111110110110
1111111001001011
1111111001001001
1111110110011100
1111110110100110
1111111100101100
1111110001110010
1111110011111111
1111111110010011
1010010111
1111111101110101
1111110011110010
1111111011110101
1111111100011110
1001001
100010011
1111111111110110
1111111011001110
1111111111000001
1111111101011001
1111111111111000
1110011
1010001
110100
11111
1111111111100000
1111111111110010
1111111110010110
1111111100111001
1111111011111101
1111111001010000
1111110111011001
1111111111001100
1111110101001010
1111111010001001
10111000
1100101110
110001100
1001010001
1101100001
1111111110001111
10010100
110110010
1111111101110101
1111111101001101
1111111100011110
1000001
1111111111111100
1111
1110110
1101000
1111111111111110
10110
1111111111100011
1111111111010101
1111111110111110
1111111101101000
1111111110011110
1111111010101001
100111
1111111110110101
1111110110110000
10101110
1001110100
1111111101111110
111001011
10000010
10001000011
1000011000
1001011011
1000100100
11
1111110111110100
1111111001100111
1111111100111000
1101100
1001101
1100110
1001
1110
1010010
1111111111101010
1111111111111011
1111111111100000
1111111101110100
1111111101000111
1111110110110101
10110010
1111111100111000
101001010
1111111110101010
11110011
1111111000110101
1110100
100100101
10011011
1111111101101000
1001000001
101100011
11010101
1111111111100100
1111111101010100
1111111011011110
1111111101111111
10011
1101
10111
101000
111001
1111111111110111
1111111111110100
1111111110111101
1111111111110001
1111111101001001
1111111011011001
110101111
110101110
1101111
1111110101011101
1111111000111101
1111111101010101
100100
1111111001100010
1111111110100101
11110111
1000101000
1101011000
111101110
1111111111011010
1111111110010100
1111111111110000
0
101110
100100
10100
1111111111010101
1111111111111110
1111111111000111
1111111111111001
1111111111111101
101011
1110
1111111011001000
1111111101100011
110100
1111111010110010
1111111100000100
101111010
1111111011010000
1111111011100011
1111111101000010
1111111100000000
111010001
1111111100111100
101000011
1111111110100111
1111111001010110
1111111000111110
1111111100010111
1111111111100010
10010
1101110
110101
1111111110101111
1111111111111011
10001
11
10010
1111111111110101
1111111111111111
1111111110010010
1111111100100010
1111111100101010
1111111100011001
1111111000110101
1111110000100101
1111110011010011
1001110
1111111101011110
1111110111100010
1111111101011001
1111111110110000
101011110
1111111101101111
1111111000100111
1111111010011111
1111111110010001
1111111110010001
1111111111011011
10
110
1111111111111100
1111111111111101
100000
101
1111111111101111
1111111111100000
1111111110011101
1111111111101110
1111111111101011
1111111101010010
1111110100110001
1111111000111010
1111110011010100
1111111000110011
1111111000010000
1111110000101110
1111110000011011
1111111010001001
1001
1111111111110010
1111111111101011
1111111110011011
1111111111101000
100100
1111111111100100
1111
0
1111111111101000
1111111111101010
1111111111011110
101
1111111111111101
1001
100001
10011
1111111111110101
1111111111101101
1111111110110011
1111111101110100
1111111110011010
1111111010000010
1111111001110111
1111111010010101
1111111100101110
1111111011110100
1111111110110001
1111111110001101
1111111110001110
1111111111110000
1111111111001000
1110
1111111111101000
1
1000
1111111111101100
1011
1111111111101011
1111111111000100
11101
100
1111111111110001
110101
11101
1111111111011001
10101
1111111111111101
1111111111111111
101010
1111111111111001
1111111110111111
1111111111000011
11000
1111111111110001
100
100
1111111111101100
1111111111011111
1111111111011100
1111111111110110
1111111111100000
1111111111010101
1111111111111000
1111111110111110
10001
