1111111111101010
1111111111110111
111100
10
1111111110011111
100001
1111111111100010
1111111111101011
1111111111010101
1111111111011011
1111111111110100
1111111111101011
1111111111110110
1001
10010
1111111111101011
1111111111010011
111111
1111111111111110
1111111111101110
10110
10011
1101
101000
100100
1111111111100111
1111111111100111
1111
1111111111111101
1111111111010010
11111
1111111111111101
1111111111111111
1111111111111110
1111111110111111
11000
1111111111101010
101100
1111111111010100
1001
100011
111001
1010
1111
11010
1111111111111101
1111111111110001
1111111111110000
11000
1111111111010100
1111111111111010
1111111111011010
1111111111100100
110000
11111
1111111110111101
1111111111110111
100001
101010
11111
1111111111110001
111
1000
1010
110111
10101
10110
1111111110111011
11110
1001
1111111111011010
1111111111111100
101
100101
110010
1111111111111010
10100
1
1100
11111
1101
11101
1000
1100
1111111111110101
1111111111000101
1111111111010010
1111111111100011
1010
1100
1100
1111111111010100
1111111111001111
1010
1111111111011001
10000
100101
1111111111010101
111
1111111111101101
100001
101010
10101
100110
1111111110111101
101010
100111
10001
11
10010
1111111111110000
100000
1111
1111111111101101
1011
110000
10100
1001
1111111111001010
1111111111110101
1111111111101101
11001
1111111111001101
1010
100111
101100
1111111111110101
10001
11000
110
1111111111001011
1111111111111001
1111111111010001
11
1101
1111111111110110
101001
11110
11010
1111111111101011
1111111111101001
100100
10001
1111111111011100
11101
111101
10111
10110
11
1111111111101011
1111111111111011
1111111111111101
1111111111110010
1111111111100100
1111111111111101
1111111111110001
10100
1111111111111001
1111111111001000
10000
101
100001
101100
100110
11011
1111111111001100
10101
1111111111100101
11100
1111111111110010
1111111111100111
11
100
1111111111001001
1111111111110011
1010
1111111111100001
100110
1111111111111010
10111
1111111111011101
1111111111101101
1111111111010011
1111111111111011
1111111111111111
1111111111100111
101111
100000
100000
1100
10110
1111111111011101
10001
101011
1111111111010001
1111111111100010
1111111110111101
1000
111
1111111111101010
10011
1111111111111100
1
1111111111101110
1111111111011001
10110
110
1111111111111000
11010
1010
1111111111111111
1111111111110101
10111
1111111111001011
10
1111111111111001
1111111111010001
100011
1000011
10100
1111111111011001
1111111111110010
1111111111110010
1111111111001110
1111111111100001
11011
1000001
1111111111110111
101110
1111111111110001
111
1111111111100100
100
110101
1011
1111111111010100
1011
110
1000
10111
101100
1111111111110110
10011
1111111111111110
100101
1111111110011110
1111111111111110
101010
10011
111100
1111111111011101
1111111111111111
1111111111111000
1111111111100011
110
11011
1001
1011
1010000
111001
101100
1111111111111100
1111111111100010
1001101
1111111111010001
0
11110
1111111110111111
1111111111100001
111010
1000100
1111111111101010
1111111111010010
1111111111110111
1111111111111011
11000
1111111111000001
1111111111110010
10011
1110
1010
1111111111110101
1111111111000101
1111111111110110
10011
1111111111111010
10010
1111111111111011
100
1100000
1111111111010001
101000
1111111111100101
1111111111110101
100000
1111111111101000
0
1111111111110000
100111
1111111111111000
11001
10110
11000
1111111111010111
10101
11101
1111111111001110
1111111111111111
100011
1111111111100010
11110
1111111111110001
1111111111000000
1111111111100100
1111111111110110
111111
1111111111111010
1111111111010110
100
101001
111001
101
1111111111010000
1
1101
1111111111011110
100010
110
100001
1111111111110010
1111111111001011
110001
101001
1111111111110110
11
1100
1111111111101000
1111111111101010
10011
1111111111101010
1111111111011001
1111111111100011
11000
1111111110111011
1111111111001011
1111111111101000
100
110
1111111111111101
10110
0
1111111111111110
10111
1111111111110000
0
1111111111110100
10000
1111111111110101
10100
1111111111101101
1111111110100000
1111111111010111
1111111111111100
0
10000
110100
11
1111111111011111
1111111111101111
1111111110101110
0
11101
10000
1111111111110011
10001
1111111111100110
1000000
1111111110110010
1111111111111100
1111111111111101
1111111111111100
1111111111111110
1111111111101100
10100
101
11
1111111111011010
1111111111011110
100101
1111111111100111
1111111111000101
1111111111101100
1111111111111101
100100
1111111111111000
100110
1111111111101110
1111111110111011
1111111111111000
1111111111110010
10110
1111111111111110
10011
1111111111001101
0
101
110001
10111
1110
1010
101
1111111111000100
1111111111111011
1111111111110100
1111111111110111
111010
111100
1011
1111111111110101
10101
1111111111101000
1111111111111011
1010010
11100
1111111111111111
1111111111010100
1101
1111111111110010
100101
111111
11101
1011
101010
1111111111111010
110010
10001
1111111111110100
1
1001
101011
11
1001
100100
1111111111110101
1111111111010100
1111111111101011
10101
101000
1111111111101111
11100
1111111110111010
10000
110
10100
1111111111110010
11010
1011
1111111111011111
1111111111111001
111001
110100
110100
1111111111101101
1111111111101110
101101
100
1111111111101000
110
11011
10000
11110
1001011
0
100110
1111111111010110
10
1111111111010000
1111111111011110
1111111111011000
1111111111110000
1111111111101011
0
1
100100
1111111111010011
1111111111110100
1100
101110
110
101110
1111111111111010
1000
1000
1111111111011001
1111111111001110
1111111111100000
1111111110101111
111
10
10000
11010
1111111110111001
11010
1111111111100101
11110
1111111111111010
1111111111111111
1111111111011011
0
1111111111010001
101
110
1111111111100000
1000010
1101
110001
110
101100
1000101
1111111111100110
1111111111100011
1111111111100011
1111111111110011
1111111111110110
1000
11011
1111111111000000
1100
1100
1111111111101010
110
1111111111111111
110
1001011
1111111111010111
1111111111110010
1111111111111011
110101
1110
110100
101101
1111111111100111
1000101
1000010
11
111111
1111111111111101
1111111111100110
11000
1111111111111100
1111111111101111
111001
1111111111101100
1111111111110001
11000
1111111111001110
0
10010
111110
1111111111111000
1111111111000001
1111111111111110
1111111111110111
1111111111000111
1011
1100
1111111111101100
1111111111110011
1101
1111111111101110
100101
11001
1111111111111001
1110
1111111111100010
100110
1111111111010001
1111111111101011
10001
1111111111111100
1111111111010011
11001
110
1000
1111111111111101
100100
1011
1111111111111011
1111111111110100
1111111111001111
101000
100010
100100
1111111111101010
10111
10100
101001
1011
10100
11111
1100
1111111111111011
1111111111001001
1111111111111010
1101
1111111111001100
101110
1111111111101011
1111111111011001
1111111111100001
110
0
100
1111111111100010
10
111
11011
10010
1111111111100111
0
1111111111111000
1111111111100001
1111111111110010
111
100001
10100
1111111111001111
101
11011
11010
1111111111101000
1111111111010000
11
1110
1111111111110101
1101
1110
10100
1111111111011011
1111111111101000
1111111111011100
0
1111111111111000
1111111111110001
1111111111111011
1111111111101001
10
1000111
11110
1111111111011000
1111111111100100
11001
111
10011
11000
11
1111111111111011
1111111111100001
1111111111101011
1111111111110101
110100
10011
1111111111111000
101
1111111111101000
111
1111111111101111
1000
1111111111100111
101000
1111111111101001
110
1111111111111110
100010
1111111111000001
11
1111111111100110
10101
1111111111101001
0
1
100
11100
100111
10101
1111111111111011
1111111111110010
101010
1111111111100010
1111111111100010
1111111111111100
101100
10101
101
1111111111010011
100001
1111111111011101
1111111111110100
1111111111110100
1111111111101010
1111111111110001
1111111111110110
11111
1111
1111111111011010
10
1111111110100110
1000
1100
11010
100110
110
1111111111010101
1111111111111001
11100
1111111111011010
0
100
1111111111010010
1111111111100010
1111111111011101
11001
1111111111101010
1111111111000110
1111111111100111
1011
1100
1
11001
1101
10001
10100
1111111111001111
1111111111011011
1111111111101010
111111
111111
1111111111011100
1111111111011001
1111111111001011
1111111111101011
10101
1111111111000001
11111
1111111111101010
1111111111101111
11011
1001001
1111111111100111
1011
1111111111011110
110001
111
1111111111001111
1111111111011110
1111111110111010
101110
1111111111011110
11
11
1111111111110000
1111111111101000
100111
1111111111101111
1011
101110
1111111110111110
10001
101010
1111111111111101
1111111111110100
1111111111101100
1111111111110001
1111111111100001
1011
100101
1111111111111000
1111111111110000
10010
1111111111010010
1111111111100110
1111111111100010
1111111111110011
11010
