1111111111110100
101101
1111
1111111111011000
1111111111100010
1111111111011000
1010
1110
1111111111010011
1111111111101000
10011
0
1111111111011000
1111111111101010
10100
1111111111101010
1111111111011111
10001
1000001
1111111111100000
1111111111101101
1111111111101000
1011
10110
11001
1111111111110111
110011
101111
1111111111100100
1111111111011011
1111111111110100
11000
11000
11111
1111111111001101
1111111111001000
1100
11001
11101
100010
1111111111111101
1111111111100001
1000100
11010111
11000
1111111111111110
11001
1111111111101010
1111111111100111
1111111111111110
11
11000
1111111111100001
1111111111010111
1001
11
1
1111111111101011
11101
1111111111111100
11010
1111111111100000
101010
11011
110
1111111110001110
1111111011100010
1111111011110111
1111111101000111
10001100
1111111111110001
1000001100
11101001
1111111111001110
1111111110110011
1111111101101001
1111111100011111
1111111100110101
1111111110011101
111101
101010
1111111111100111
1001111
11000
1111111111011110
1111111111101101
1111111111101000
1111111111100110
0
11001
1010111
111111
100000101
101011000
110101
1111111100111000
1111111110000100
100110110
1100111011
1111010111
1010000111
10000101
100000111
11101011
1110100011
100000001
1111111101111001
1111111111101100
10111010
11100
1111111111000011
11100
1111111111110011
11011
1111111111001001
1010
1111111111111110
11111110
110010
11010000
100111100
11010001
11111100
1111111011000100
110101011
1010101101
10011000
100011110
101100010
1001
111101001
11011011
1001101
110000110
1111111110110110
1000100
1011100001
10010111
1111111111011010
1111111111001001
1111111110110111
1111111111111010
10
1111111111000010
100001
11111000
10010111
101011100
10100011
10001000
10001010
1000101011
101000011
1010001101
1111111111110111
110011100
1001011101
1110011
110100001
1111111111110011
1111111001010100
1111111101100011
1001101
100101010
1100101010
110001000
1111111111100101
1111111111110011
1111111111110001
1111
1111111111110100
1
11001
110100
1111111111000001
1111111001110111
101001110
1010010011
1111111101010110
1111111101100101
1111111110010101
100101111
1111111101100100
11001110
100101000
100010101
1111111100111001
1111111110110000
10010111
1111111101100100
11001001
100000010
100101111
100110001
1001110
1101
100110
1111111111110100
1111111110011100
1111111101110101
1111111010110011
1111111011001001
1111111101000100
1111111011010000
10001
1111111101111001
1111111010011110
1111110100011010
110001
1111111100101111
10001001111
1000110101
10111010
100011010
1111111100011010
100000010
1100010001
1111111010101111
1111111111111011
11101111
11110010
10101000
10101
1110
1011001
1111111111111101
1111111101010000
1111111011011011
1111110110010011
1111111100000101
1111111111011011
1111111110001101
1111111011010111
1111111000011000
1111111101000001
11000011
11011010
1111111100010101
101100100
1000001
1111111101001010
1111110101001101
1100011
1111111100011100
1000111100
111010100
11011000
100010111
10100000
11111111
1
1111111111111010
1111111111111001
1111111111111001
1111111101101001
1111111100101111
1111111010010000
1111111011000111
1111111110010000
1111111101001001
1111111110001000
1111111100101100
1111111011011010
1011001000
1000001011
1111110111000011
11111100
1111100
1111111111001010
1000
1111110111110101
1111101110011110
1111110010111110
1111111010010100
1111111111010000
1111111100100110
1111111111000101
100
10
1000000
101110
0
1111111111100010
111
1111111100011101
1111111011001100
1111111100001010
1111111101100000
110010101
101001111
1111111100100100
10000010
110011000
1111111100010111
1111100100
1001101110
11111000
101011
1111110101111110
1111110101011011
1111111010101101
1111111011001101
1111111100110010
1111111001000101
1111111100000010
10
1011
1111111111011110
1111111111110110
10000
1000
1000
1111111110011111
1111111010110010
1111111010010100
1111111100010100
111010001
11000011
100110111
1111111011101111
1111111010001010
1111111111101001
1100000101
1110100111
1010010101
1010101001
1110101000
1000010
10101000
1111111010100001
1111101111010010
1111110101010101
1111111100000110
10011
1000
1111111111110100
1111111111111001
101
1111111111010111
1111111111100110
1111111110110100
1111111010011111
1111110101001011
1111111000000100
1111110011011111
1111111010101011
101001
101001100
1111111100111000
11010111
1110101
1100000111
1010111011
100101000
1110101100
1111111101010100
1111111010011000
1111110100010011
1111101110110100
1111110101011100
1111111011100000
1111111111001011
100011
1111111111111010
1111111111100010
111
1111111110001010
1111111110011000
1111111011001000
1111110111110100
1111110000011011
1111100111111100
1111110001000110
1111110100011010
1111110010111011
1111111011001010
1001000100
10001001
1001011111
1000110000
10011000100
11101011
110111010
1111111101101100
1111111001011100
1111111100000000
1111110111101001
1111110110111010
1111111101000001
1111111111110010
1111111111000111
1001000
1010111
1111111111110000
1111111111011001
1111111101100010
1111110111110010
1111110101000000
1111101000100101
1111011100101011
1111100010001110
1111100101101001
1111101101010101
1000011101
1010010001
1111111101011101
1010110110
110100000
1111111101111101
1111011
1011011
1111111000110000
1111111011000011
111000011
100000
1111111101111001
1111111101011001
1111111110110101
1111111110110100
1111111111101111
1111111111101001
101000
11101
1111111011101101
1111111011000111
1111110110100001
1111110000010101
1111101100000000
1111100010001000
1111011100110000
1111010101010111
1111101010110011
10111101
1111111101100110
101111101
11111001
1011000
1111111011001110
1111111110100001
10000101
11001000
1001101
11001110
1111111111010110
1011
1111111111001100
1111111111100101
111101
1111111110110111
0
100010
1111111101001010
101001100
10010110
1111111111011011
1111110110010001
1111101111001010
1111011110100001
1111010010111001
1111010101100100
1111011101001101
1111101111011101
1111101100010100
1111111000111000
1111101111100000
1111111001010101
11101101
111101100
1011010110
1111111101001011
1111111110101100
1111111111011111
100110100
1111111110010011
1111111111001101
111
1111111111100110
1100000
10111
101100011
111101000
1111111110001110
111101101
101101000
110000111
1111111000100010
1111110011110011
1111100010111110
1111011111101000
1111101010101001
1111111000001101
1111111010000100
1111110110010100
111010001
1111111000100010
101011110
1111111110011100
1111101100111100
1111111000001111
11011110
1111111101001101
1111111100000010
1000
1111111111100001
10011
1111111111011110
111111
1110111111
1000101011
101001000
1110101000
110100111
11011111
101001011
1111111100011010
1111110100000001
1111101111110110
1111110111110101
11100101
1111111111011011
1111111111000100
101010101
1111111100011111
10100010
1111110100111111
1111110010101010
1111110111100001
1111111100001011
1111111010000110
1111111101011101
10100
1111111111010111
10111
101
110
1001111110
110101000
10000110001
1011011001
111011110
1100001001
1111111111111111
1001010001
1111111110111101
1111111101001110
1111111100010010
111111
1111111101010100
11010001
1111110011010101
10110101
110100
1111111010000101
1111110111001011
1111111100011101
111010
100001010
1111111111111110
1111111111100010
10000
1101
11101
1111111110010010
1
110110110
110011101
1100111101
110100010
1110000011
1101101001
1110010001
11010011
1111111100011100
101111
1000001011
1111111001001011
10101011
1111111110010101
100010010
1110011
1111111010010100
1111110101011011
1111111110000010
10000
110011011
1000111
1111111111100101
1111111111111000
1111111111110001
11110
1111111010101100
1111111001011111
1111111011101000
10010000
100100111
1010000101
100010111
1111111111000110
111000100
1110000
11000001
101011110
101011111
1111111101110001
110101010
10001000
10000100
101011001
11000111
1111111001101100
1111111001110100
1111111101000111
1000000
10010001
1001
100111
11100
11011
1111111011101010
1111111001110110
1111111011011000
1111111001100011
1111110010110011
1111111011010011
1111111010010101
1111111100010100
100100001
1011001
1111111011100100
111000
10101
100111011
1111111111101101
1111110111110100
1111110110101010
1111111101111110
1111111011101110
1111111001110110
1111111001001101
1111111100111100
1111111111011111
1100000
100100
10
10000
11
11100
10011001
100100011
100000000
1111110101010111
1111110100100010
1111110010001111
1111111011110010
1111111101011100
1111111111110000
101100001
1111111101001111
1111111001110101
1111111100101010
1111111011100111
1111111001011001
1111111111101101
1111111100100011
1111111001111011
1111111011010011
1111111010001111
1111111101011110
1111111111000100
1111111111010101
10010
1111111111111010
1111111111101111
1111111111101110
11101
110101
11001011
11100010
1111111111100001
1000010
1100101
1111111
1111111100100101
1111111101011011
1111111101011000
1000
1111111111001000
1111111100010011
1111111101111001
1111110110111011
1111110101100111
1111111000101001
1111111010010010
1111111100011110
1111111101110110
1111111110110101
1111111110111100
10001
1111111111111110
10
1111111111111011
10011
1111111111011010
1111111111010100
1111111111111110
11101111
110000011
1000101011
111101001
11111101
11100110
1111111010011111
1111111100110001
1000110
1111111110001000
1111111101001010
10000111
1111111101101001
1111110111101101
1111111010000001
1111111110110101
11001
100000
1
1110
1111111111111110
110
110
10111
101
101011
1111111111101101
1111111111111000
1010000
1011110
1001010
10010000
10110
11001
1111111110011101
1111111101000010
1111111110101100
1111111101010101
1100
1111111111101110
1111111111011100
1111111110101110
1111111101001111
1111111110010110
1100
10011
110000
1111111111111110
11111
1111111111110101
1111111111101110
1111111111111001
11010
11000
1111111111110010
10000
111111
111
1111111111001010
1111111111101000
1111111111110111
1111111110001011
1111111101111111
1111111101111001
1111111101110011
1111111110111101
101
1100
1111111111110111
1111111111110101
1111111110111110
1011
1111111111101101
1111111111111111
100100
1111111111111001
10011
1111111111111010
1111111111100101
