101100
1111111111111111
1111111111111101
1111111111011111
10100
1111111111101110
1111111111011101
1111111111111010
110010
1111111111101111
1111111110111001
101111
1111111111101100
1
1111111111100110
11111
1111111111011000
1111111111101011
1111111111010000
10001
101101
111001
1111111111011010
1101
1111111111111011
1111111111110000
1111111111110000
100
1
1111111111001010
1111111111110010
1111111111110110
1111111111010000
1111111111010100
1111111110110100
1111111100111100
1111111101011001
1111111110100100
1111111111100100
1111111101011010
1111111100101011
1111111110001001
10011
1111111110110011
1111111101111110
1111111110110000
1111
1111111111100101
1111111110100101
10011
1111111111011010
1111111111110011
1011
1010
1100
1111111111101010
1111111111111001
1111111111111011
1000111
1111111111011001
1111111111101100
111010
1111111110110000
1111111101100100
1111111101000110
1111111101011010
1111111100001001
1111111011111010
1111111001100001
1111111001111111
1111111010010001
1111111100011010
1111111110001001
1111111110001011
1111111111000111
1111111110101100
1111111111000011
1111111111101111
1111111110111011
1111111111000101
1111111111100100
1111111111100101
100100
0
1111111111101100
1111111111111010
11100
1000
1111111111110111
1111111111110110
1111111110010111
1111111010110111
1111111001110101
1111111001101110
1111111001101111
1111111000111010
1111110110100110
1111101111011011
1111110110100010
1111111100010111
1111111101111111
1111111111000100
10010110
11101000
1010
100
110000
11100
1111111110110100
1011
1111111111110001
1100
1111111111101110
101
11010
1111111111010001
100100
1111111110110001
1111111100000000
1111111001011010
1111110110100000
1111110111011100
1111110000110100
1111101111000101
1111101000111000
1111100110000100
1111101011010111
1111110000010010
1111110011010100
1111111101100010
0
1111111010110101
1111111110000011
1000100
11011
101011
100011
1000
1010000
1111111111110110
101110
1111111111110010
1111111111100011
1111111111110001
1111111110111110
1111111101001010
1111111001110100
1111110111001011
1111111001010010
1111111011001111
1111111100000011
110111101
10011000
100100010
1111110111110010
1111111100101001
1111111110001000
1111111000001010
1111111010110110
1111111000000010
1111111101010111
111110
1111111111001110
1111010
1100010
1111111110111001
101001
11011
1111111111100110
11100
1111111111110100
1111111111100001
1111111011111110
1111111001101110
1111111011011110
1111111101001001
1111111110101011
1111111110000101
1111111111100100
101011100
1001001101
1100100010
1101
1111111101001110
111011001
101011
1000001111
10101110
10010101
1111111100001110
1111111101110110
1111111111001011
1000001
101010
11101
1111111111010010
1111111111111110
11
1110
1001
1111111000100011
1111110100101011
1111111011010101
1111111110110100
1111111100110100
1111111111011101
1111111111100000
1111111100011000
1111111110101010
1001011111
11111101
1100000000
101110011
1000111000
1111111101111111
10100010
11101010
1111111001011111
1100
1101
1111111110011101
1111111111001111
1100000
11110
1111111111111110
1111111110101010
111110
1111111101001110
1111110111011011
1111111001100101
1111111011010011
1111101110101010
1101
1111110110110101
1111111101010111
1111111010100000
1111110110110000
1111111010000010
111100
101110110
1111111011000100
10110001
1000001
1111111010111011
1111111100110111
1111111011111000
1111111000010101
1111111001100000
1111111011000111
1111111011101100
101000
1111111111001001
1111111111111110
1111111111010101
1111111111000000
1111111110010011
1111111001010110
1111111010110011
1111111011000110
1111111001000001
1100000
1111111001011011
1111111100100000
101011000
1111111011110101
1111110100011011
1111111110011111
1110000011
1011101
101111011
10101111
1111110110111011
110100001
1111111001000001
1111111110011110
1111111100100110
1111111000001111
1111111101010010
1111111111010100
10010
1111111111111010
1111111111010001
1001
1111111110011110
1111110111011001
1111111000011000
110010010
1111111110100110
1111111111111000
10010011
110111101
1111111111001000
1111111111111001
1111110100110011
1111111001100111
110010111
1111111110010110
1101010
1111111111001001
110001001
1000000100
1111111110001010
101001101
1111111111100111
1111110110011000
1111111110111000
1111111110011010
101
110100
1011
1111111111010010
1111111010000110
1111110111011100
1111111101011010
1010010001
100110100
100011101
111110001
1001101101
101000111
1111111101101000
1111110110101011
1111111000110000
111000000
11111110
10010010010
11001101
1111111111001001
1000001100
111101111
1011010100
1101111
1111110100011010
1111111100100111
1111111110001001
1111111111110001
1111111111010111
1111111111100000
1111111111101001
1111111010010101
100001110
10000111
1010101001
111101110
1001001010
1010011110
11000101
1111111100101000
1111110010001111
1111111000100010
1111111000101101
111011111
100111100
1101000110
1000000001
111001010
1111111110101110
1010001100
111110110
1011101
1111110011011111
1111111010010010
1111111111100001
11010
110
1111111111110011
1111111111110100
1111111010110001
1101011111
1110101011
110010101
1000101011
111111011
11100111
1111111111111000
1111110111001101
1110111
1111111110010100
1111111011001011
10000010
1101010110
10011001010
110010000
1001000110
1011011000
1011101110
10001010
1111110011001010
1111110000001010
1111111011100111
10001
10001
10000
10000
1111111110101001
1111111101110100
1100000000
10101111
100001100
1010100000
1010011011
111001111
1111111101101110
1111111011100101
1111111110010001
1111111111010000
1111111100000010
10001000
1010110110
101110010
1000101111
1011110101
101001100
1111111110111101
100010111
1111110110001010
1111110001001100
1111111110001011
11100
1111111111110001
1111111111001011
1111111111111010
1111111110110001
1111111011100101
1101100
10001110
11111111
1111111110011101
1001010
111101
10011
1111111110111110
1111110111010111
1111110011010111
1111101010101101
1111111000000010
1011111111
1000000011
100111111
111011011
10100100
110010
110111001
1111110110010010
1111110011110001
1111111111001100
11000110
100
100001
1111
1111111111000011
1111111010111101
1111111001101101
1111111100001100
110001
101110111
1000011101
1111111000011001
1111111011011101
1111111100010110
1111111010000011
1111110001011001
1111101110000000
1111110110100110
110010001
1001001001
1001100011
1111111001001111
10100011
1111111110101110
10000101
1111111101100010
1111111000101110
11
10010100
1111111111100011
1100
1111111111010011
1111111111001101
1111111011010111
1111111000110101
1111110101101010
1111111011101000
1100110100
1000101010
1111111100100010
1111111001100001
1111110110000111
1111111101111101
1111110110001111
1111110101100111
11011111
10101111
1111111010110011
1100100010
1111111000011111
1111111010011100
1111111101010111
1111111011111110
1111111100000011
1111111001111001
1111111111001110
101110
1010000
1001000
1111111111100000
1111111111100101
1111111010011011
1111111011010101
1111110000101010
1111110111111110
1000111010
11111101
10
1111111111001100
110010011
1111111001011011
1111110100011111
1111110001101011
1111110110110001
10010000
110110100
1110110
1111111100010101
100101011
1111111011011100
1111110110110010
1111110111100000
1111111100010110
1111111101111111
1111111111000011
1111111111010011
1111111111101001
1111111111001001
100100
1111111101011101
1111111010110111
1111111100010111
1111110101010111
111010
1111111101101111
1111111010101011
1111110110111011
10011
100110110
1111111111011111
1111111011000011
11110111
1110011011
1111111010011010
1111111011111111
1001100000
1111111110010110
1111110110101001
1111110010101100
1111111010011110
100100
1000111
1111111111111001
1111111111010101
11101
1111111111010100
100100
1111111111101111
1111111111001000
1111111110011011
1111110111101111
1111110001111001
1111110100011011
1111101111110010
1111110001000011
1111101110010111
1111101111111111
1111110110001101
1111111110001110
1111111011111111
101011100
1111111100010111
1111111011111110
1111111010111001
1111110111101100
1111110000101010
1111110110001010
1111111110111010
10000010
1100001
111001
1111111111100001
1111111111110111
100101
1101
1111111110001010
1111111111011000
1111111110111111
1111110111001101
1111101110101010
1111101011000101
1111101010101010
1111101011001000
1111101000111001
1111111011000010
1111110110111111
1111110101001111
1111111101011011
1000100001
1111111011010101
1111110001101110
1111110011111001
1111110111011010
1111110110000001
1111111001011001
1111111110101101
11110010
1111111111010000
1111111111110001
1000
11100
1111111111101010
11110
1111111111010000
1111111111001110
1111111101111110
1111111010110111
1111110100011101
1111110010010110
1111110111111000
1101010
110110111
110001100
100110100
100101101
1111111100011001
1111111110101000
1111111110011010
1111110110000110
1111101111111110
1111111000000101
1111110110010111
1111111101111111
11000000
11011000
10010
100010
1111111111110100
10011
1001
1111111111000011
10010
1111111101100011
1111111101010011
1111111001011000
1111110111000100
1111111001101101
1111111010100000
11100110
1001001
1111111100110100
1111111111101110
1001101001
110110010
1111111111100001
101011001
1111111111110000
1111111010101010
1111111011001100
10001
110010
11011010
1110111
1111111111100111
1100
100011
101101
1111111111111010
1111111111101001
10
1111111100010101
1111111100101110
1111111011100101
1111111001010100
1111111101010101
110100101
1000001000
10011110
1111111000100010
1111110110011000
1111111001101101
10010110
1000011100
1011110011
1111111111000010
100000111
101101111
1111111111111001
100010
11011010
1111111101100101
1111111110100000
1111111111010111
111000
101101
11011
1111111111011100
1111111111101110
1111111111010011
1111111111111111
1111111110101001
1111111101000000
11
11101110
100010100
10101011
10011111
1111111100100011
10111111
1111110011110100
101001
11000110
110111000
101000011
110001100
10011010
1100
1111111111100011
1111111110011101
1111111111100011
1111111110110101
110001
111
11111
100001
1111111110111011
11110
11000101
100000000
101010110
111001110
1000011001
101001100
1001110
1111111011011110
1111111111011100
101110000
11100101
100101010
100101101
100000110
110001
11010001
11101101
1101110
1011
10100
110100
1111111111011001
1111111111011111
1111111111100010
1111111110101110
1111111111101110
101011
1111111111111000
1111
110001
1000110
10010100
1010111
1010
1010
100010
1101100
10111011
1000110
1010
1111111111100000
111110
1010110
11
1000
100101
1111111111110100
1111111111100001
1111111111101000
0
1010
