101010
0
100010
1111111111101010
1111111111101011
1110
1111111111111110
11111
1111111111100000
1111111111110011
110
1111111111101101
1111111111101010
100101
10110
1111111111011100
110111
1111111111110000
1111111111000001
111100
1111111111110111
101100
1111111111100010
1111111111011100
1111111111110010
1000001
100010
111100
1111111111101000
1111111111110110
1111111111010101
110
100100
1111111111011010
100011
1110
11100
1111111111010001
1111111111111110
100010
1111111111010000
10001
1000000
11101
100101
11011
1111111111010100
10000
1111111111000111
1111111111010000
1111111111100111
1111111111110111
110
1111111111111110
1111111111011101
1111111111111011
1111111111011111
1111111111100111
101010
100100
100010
1011
0
1111111111010100
1
11100
1110
1111111111011100
100110
1111111111100101
11011
101001
101101
1010
10010
11101
1111111111110000
1111111111001100
10001
1111111111110010
11111
0
110001
111010
10011
1111111111010011
1111111111101100
1111111111111110
110101
1111111111010001
1111111111110000
101111
11001
1010
0
1111111111110111
1111111110111011
101101
1111111111100111
10111
1111111111110001
0
1111111111010000
1111111111111011
101011
100011
1111111111011101
1110
1111111111111101
1111111111010101
10011
1111111111011011
1111111111111110
1111111111010001
1111111111000011
1111111111011100
1111111111100000
100111
100101
1111111111111101
10110
101010
110100
1111111111110101
1111111111011110
11011
1111111111001001
1111111111110000
1111111111110000
1111111111111011
101001
1001
1111111111111101
1100
1111111111010101
1111111111110000
1111111111101010
1111111111110001
1111111111011010
10000
101111
1111111111100011
1111111111111011
1111111111001001
1111111111010000
1111111111110111
1
1010011
10011
1010011
101111
1111111111011111
1111111111101011
1111111111110010
1111111111001110
1111111110111010
1111111110101110
1100
1111111111011100
1111111111011010
10010
1011
1111111111110001
1110
1111111111100010
1111111111110010
1000010
100000
10110
1111111111100001
1111111111010111
1111111110100110
1111111111011110
10111
1111111111111111
1111111111110101
1111111111110010
1111111111111000
111
1111111111110011
1111111111100011
1111111111011010
100111
10111
1111111111011110
10100
10000
1111111111111000
101100
101111
111001
1010
1100
10110
1111111111110000
1111111111101001
1111111111101010
100000
1111111111111010
10011
11
1111111111011010
1111111111110100
1111111111111000
1111111111101111
1111111111110011
10010
110010
1111111111111011
11000
10110
1111111111001000
1111111111010001
111
1010010
110000
1111111111110000
1111111111100101
1111111111101100
1111111111100010
10111
11110
1111111111001000
1111
1111111111011010
10010
1010010
1111111111111011
111
1111111111100100
1111111111010010
1111111111101010
1111111111101100
1111111111110100
110100
110
0
11
1111111110110101
1111111111010101
111110
1111111111101110
1111111111010110
1111111111111101
1111111111000010
1111111111111110
1
100001
1111111110101001
1111111111011110
1111111111011011
1111111111011100
1111111111111011
1111111111100111
10110
1111111111111001
101110
1111111111101110
11100
1111111111000101
1111111111110010
1111111111111101
1111111111101111
1111111111101101
1111111111101101
1
1000
1
10010
1111111111110010
1111111110101011
100
1111111111100111
1111111111100111
1111111111011001
1111111111101101
1111111111011100
101011
1111111111011101
100
1111111111100000
1111111110111110
1111111111011001
11
1111111111101100
1111111111100101
10011
1111111111110110
11111
10000
1111111111001101
1111111111101001
1111111110111011
110010
11011
10111
1111111111111111
1111111111101011
1111111111011000
1111111111110111
1111111111011010
1111111111110000
10111
1111111111110100
1101
1010
1111111111011100
1111111111101101
1111111111101111
11101
1111111111100001
1111111111111000
1111
1111111111110001
1111111111010010
1111111111110010
1111111111101000
10101
1111111111100100
1111111111110001
1111111111110000
1111111111011100
1111111111101010
111
1111111110101111
1111111111101100
1100
1111111111111010
1111111111111100
1111111110110101
1111111111100011
10100
111
1111111111111111
110100
1111111111111001
11
101001
100011
1111111111110110
1111111111000010
10111
1111111111111101
1111111111110001
100
1111111111110100
1111111111011001
111
10111
1111111111011110
1111111110111110
1010
1111111111000011
11001
1111111110111000
1000111
110100
11101
1111111111100011
1001
110000
1111111111110111
1111111111000000
1111111111011010
10111
1000
11011
1111111111001110
11
1111111111110001
10001
1111111111111110
1111111111111011
110011
1111111111110000
1111111111110111
1111111111111010
101000
1111111111111111
10001
1111111111010110
1111111111101000
101
1111111111101011
1011
1110
1111111111000111
1111111111110101
101110
1111111111011111
1011111
1111111111111101
1111111111000101
1011
100011
110100
1011
110
1111111111100010
1111111111001000
101001
11
1111111111110001
1111111111110010
1111111111100001
1111111111011111
1111111111101100
1111111111100111
10010
10110
1111111111011011
1111111111011010
1111111111010000
1111111111011101
10101
1111111111111010
1111111111100001
1111111110101011
1111111111001001
101111
0
11001
10110
1000
1000
1111111111101110
101001
1111111111011100
11101
1111111111000011
1111111111110101
1011
1111111111111010
1111111111110111
1001
1111111111000000
1111111111100100
10111
101100
1111111111010001
1111111111101101
1111111111101011
1111111111110011
11000
1111111111101101
101100
11110
1111111111101101
1111111111110001
10011
1111111111100001
1111
100101
1111111111100101
1111111111100010
1111111111100100
11001
110010
100
11100
11010
1111111111100001
1111111111001110
11011
1111111111011001
1110
1110
1111111111101100
101010
1111111111001011
1100
101101
1111111111110100
110110
11000
10100
11011
1111111111110101
1111111111110000
10001
110010
1111111111110100
1111111111000110
1111111111110101
1111111111001110
1111111111010110
1111111111111000
1
10110
1111111111001111
101
100101
1111111111110100
11111
1111111111100100
1111111111101101
1111111111110101
0
11111
110010
1111111111110010
1001
10
10101
1111111111101001
1111111111101001
10101
1000111
1111111111001110
1111111111111110
1111111111110101
10110
10101
1110
1111111111101001
1111111111011100
1111111111110111
1111111111100110
10000
0
1111111111100111
1111111111110011
1111111111101101
1000011
11010
1111111111100100
1111
100011
1111111111111110
100010
1100
0
100
1111111111111110
1111111111011000
11111
1111111111111100
1111111111110101
1111111111011011
1111111111111011
1111111111101011
10010
1111111111110110
10101
1111111111101101
11100
110100
1111111111100101
1111111110111110
10111
10011
1111111111000000
1
1111111110110101
10000
1111111111101101
1010
110
1100010
1111111111101110
1111111111100111
1111111111111111
1110
1111111111110101
1111111110101101
1111111111011000
1111111110111011
11110
10111
1111111111111110
1111111111000001
11
1
1100
1011
101100
100010
1110
11001
1111111111010001
10000
111010
1111111111010001
11101
1111111111011110
11111
100001
100
1101
1111111111011111
100110
1111111111011011
11011
1100
1111111111101010
1
111
1111111111101100
1111111111110011
1111111111111111
1111111111111001
1111111111100000
1111111111010100
1111111111110110
1111111111011010
0
1010
11
100
1111111111000111
10011
1001111
1
1111111111111110
1111111111101110
110000
1111111111101000
11100
10
100
110100
101101
1101
1110
111011
1111111111110101
101011
10111
101110
1100
1111111110110010
1111111111011011
1111111111111111
1110
100110
11011
1111111111111101
1111111111100000
110010
1111111111111111
1111111111101110
1111111111100111
101000
1111111111111100
1111111111101000
11000
1111111111000101
100
1111111111100110
11000
1111111111111011
10101
1111111111000100
10110
11001
1111111111110000
1010
1111111111101100
1111111111000011
1111111111111100
1111111111100000
1000
10010
1111111111011101
1111111111001100
111100
1111111111001100
1111111111101111
111001
1111111111100001
10100
1111111111101000
1001
101111
100011
110010
1111111111100110
1111111111110011
101010
1111111111011101
1111111111110000
1101
11001
11
1111111111101101
11111
1111111111110110
1111111111100111
111100
1111111111111001
1111111111100100
0
1111111111110101
11101
1111111111111110
1111111111011000
101011
1110
1000100
1100
1111111111101100
1001
1111111111011000
1111111111000010
1111111111101110
1101
1001
1101
1111111111100101
110100
1111111111101111
1
1111111111111000
110000
1101
1111111111010111
1000
1010100
1111111111101101
1111111111111000
1111111111110110
101001
11110
11001
111101
110110
11001
1101
1111111111011111
10010
1111111111101110
1111111111011010
1111111111100110
101010
11110
100000
10011
1111
110011
10111
100
1111111111101000
1
1111111111110100
11
11011
1111111111111100
110010
1
1111111111110011
1111111111100100
1111111111111001
1111111111001010
1110
1101
1111111111100011
1000
1111111111110010
111
10000
100011
11
1111111111110100
1000100
100
100010
100010
101
11100
1000
101111
100111
1111111111011010
1111111111011111
1011
1001
1111111111110111
1011
1111111111011010
110100
100001
1111111111110011
1001100
11001
