10010
1111111111011110
1111111111111110
1111111111100001
1001
1111111111111011
10010
1111111111100001
11100
1111111111001010
11010
100000
1000111
1111111111101101
1111111111101100
100101
1110
1111111111101010
101110
1111111111100111
1001110
0
1110
1111111111010101
1111111111101110
1010
1111111111001110
110
10111
1111111111010010
1111111110101111
1111111111111111
1111111111101101
1111111111110100
1001
1111111111110110
1111111111100111
1111111111110011
1111111111111100
11100
11010
111101
1001
1111111111110101
1111111111111011
1111111111011110
1111111111011001
11110
10010
11101
1111111111111001
1111111111111110
11011
1111111111001101
111100
1111111111111001
1111111111001011
1111
1111111111011100
1111111111011100
1111111111111101
1111111111110000
1110
1111111111100101
1111111111010011
100001
1111111111110111
11000
1010110
1101111
1101001
10000101
100100
110101
1111111111111001
1111111111111100
1111111111111100
11110
111
1111111111101001
1010
1111111111100000
1111111111100110
100001
0
110110
1111111111001011
11111
1001
1111111111001111
1000
1001
1111111111100101
1111111110011010
1111111110101111
1111111101110100
1111111100001101
1111111101011010
1111111101010101
10000
10000111
1011110
10101110
100101011
11010
1010
1111111111001011
1001000
1010
1111111111111001
1011
1111111111011101
10110
1000
1111111111000100
1111111111100000
101001
1111
1111111111111110
1111111110110000
110011
1111111111101100
1111111110010100
1111111011110110
1111111010110011
1111111101101011
11111010
1001110
110001
1111111110001000
11101010
101010000
1101000
110010
110111
100001
1111111111011110
1111111111100111
1111111110111101
0
1111111111001000
1111111111101101
1101
1
111011
1100011
110111
100100
110100101
100111100
1111111110110111
1111111011001001
1111111101111001
111011100
1000001001
1111111110011010
11000111
1111111101111011
1111111111011000
1011110
1111111101101100
11111
1111111111101011
1111111111101000
0
1111111110111111
1010
1011
11010
1111111111110110
11100
101000
1111111110110100
1
1111111110101001
1111111111111010
1001011011
110101000
1111111111110101
1111111101110100
1010111
1111111110001010
1111111110011111
1111111110001011
101011
100110101
10100
1111111010110111
1111111000111100
1111111101101010
10000000
10110
1111111111011100
10
1
10
1110
1111111111111010
1111111111111011
1010110
1111111110110100
1111111100110100
1111111010100100
1111111101101100
1111000
100011101
11001110
100011
10000011
1000111
1111111011001000
1111111110010101
1100110
101110100
11000
1111111111100001
101010110
1111111
1100
1011001
1111111110011101
1111111101100110
1111111111100110
101
1011
111100
100111
1111111111101101
1111111100001110
1111111010011010
1111111001001110
1111111110001111
101110011
11000011
101000101
100000101
10110111
1111111111010001
110000011
1101110010
1111111111011100
101000110
10001001
1100010
111111001
100000101
1101011
10011010
1010
1111111110100011
100
1111111111111110
1111111111111000
101000
1111111111001010
1111111111000001
1111111111101101
1111111101110010
1111111101110000
1000001
101
1111111110111101
11110001
1111111101000100
1111111111100111
1111111101101001
101111010
111010100
1111111110100010
101110110
1111111111100000
1010110
1111111111001010
1100101
1111111111101001
1111111110100101
1111111111011101
1111111111111110
1101
1111111111011110
1111111111011010
1111111111111101
1111111111011100
1111111111111011
100001
11110
11111001
1111111110101010
1111111110011101
100010
1100011
10110100
110000010
1111111110010110
1111110101111000
1111111011101111
1111111110001110
11100110
1111111101010000
1010111
1111111110001001
1001010
1111111101001000
1111111101110011
1111111110110011
110111
1111111111001011
1110
1111111111010011
11100
100110
11101
100011
11000001
1000110100
10111011
1111111011110100
1001000010
11010110
1101111001
1111111101101100
1111100111100011
1111101010100111
1111111001010100
1111111101010000
11111110
11010111
10101001
100000
1111111111000000
1111111001011110
1111111010000110
1111111110000011
1111111111010100
10
1111111111000011
1111111111011110
10110
1111111111110010
10101
1100101
10101100
111101110
1001111000
1010111000
1101100100
101010011
100101001
1111110010000011
1111100100110010
1111101111011111
1111111110010011
1
1111111110011010
1101011
1111111110100011
1111111011110011
1111111011000010
1111110111100010
1111111000011010
1111111110001000
1111111111110011
111000
1111111111001101
101001
1111111111110100
1000101
10011
11010010
11011101
101110011
101000011
11110000
1100011
1111111100001110
1111110101111110
1111100100000010
1111101001101101
1111111011111011
1111111110100000
1110011
100111
1111111011011011
1111111011001101
1111111000100110
1111111010111000
1111110111101101
1111111000100111
1111111101010110
1111111110110101
1111111111111110
101010
1111111111011101
1111111111100010
1110000
100011011
11101011
111110
1111111111100111
11100101
1111111011010101
1111111011001111
1111110110010011
1111101100010001
1111100100000110
1111100111010011
1111111011011111
100011101
11000
1111111101000101
1111111101010000
1111111100011011
1111110111101000
1111110111111010
1111111010001000
1111111000111100
1111111100111100
1111111111000110
1000011
1111111111111001
1111111111010111
1111111111010110
1111110
101000010
10000
1111111001101101
1111111011000101
1111111011101101
1111110000110110
1111110100011110
1111110010010010
1111101100101011
1111101000101110
1111110000011011
1111111101011100
110011000
1111111101111110
1111111011000110
1111111011100010
1111110111001101
1111111011111011
1111111001111000
1111111000011000
1111111000111111
1111111100111000
1111111111101001
101111
1111111111110101
101011
1111111111110111
10000
11001001
1111111011100000
1111110110011010
1111110111001100
1111110011010001
1111110011000101
1111110000001011
1111110010001011
1111110100011110
1111110011001101
1111110101110010
1111111110100100
101000000
1111111110001111
1010111
1010000
1111111110110011
1111111011000111
1111111001101110
1111111000101101
1111111001101101
1111111101010100
100001
101001
1111111111011101
1111111111111001
1111
1111111111110100
1111111110100000
1111111101110110
1111110101111011
1111110000011000
1111101100000100
1111101111101010
1111110100111100
1111111010101100
1111111010111110
1111111000000000
1111111101001110
11001010
110110001
111011010
11111000
1000011101
11111110
1111111101000001
1111111010110110
1111111100101000
1111111100110011
1111111111110101
110011
11010
110000
1100
1111111111110101
1110
1111111110010011
1111111100010110
1111111001110001
1111110101100111
1111110100000001
1111111100010010
1111111101111111
1111111110010101
1111111111001001
1111111111110100
1111111110110011
11010110
10110100
100001
1111111110101010
11000001
1100011
100110110
101010110
1001011
1111111111010001
111100
11001111
111101
11000
1111111111100111
11
1111111111101111
1111111101101110
1111111001101110
1111110101111111
1111111010000100
1111111010000000
1111111001100100
1111111111011111
1111111100111111
1111111011010100
1111111001000100
1111111011001011
1010001000
10010011
1111001
1011011
1111111101001011
100100100
110100011
11101000
10001011
1100111
10100001
1100111
1111111111111010
101010
1111111111111110
10010
1001
1111111111000010
1111111000000001
1111111000000000
1111111000010001
1111111001111000
1111111010011110
1111111101011010
1000110
111100100
10101100
111111
110000101
1010010
1111111111001001
1010100
1111111101001100
101101011
110000010
11111110
1111111111110100
1010010
1000111
1011001
1111111111111111
1111111111011101
101
1
1111111111111100
1111111111000110
1111111100110110
1111111110010001
1111111011001100
1111111111101000
111
1111000
111110010
1000100101
1111111101011000
100000110
11001100
100111100
11100110
11000
1111111101111111
110111
11000010
1001010100
110000
1111111111111101
110100
1111111111110000
101010
1001
1111111111101111
1111111111000100
111000
100100
10101100
10001010
1110010
10100
110000010
1010001000
100011011
1111100
1111111111001111
11100110
11001111
100111011
1111111100111111
1111111111100111
1111111111101110
1111111100110001
1111111100011010
1111111111111100
10101
1011001
100101
1111111111111110
1111111111111111
1111111111001001
0
1111111111110001
0
1111111111111101
11101
10100
1111111111101110
1111111110110110
1111111010100011
10001010
1110
1111111110011010
1111111011100111
1111111101011111
1111111111110110
1111111111010001
1111111001010011
1001
1111111110111000
1111111011001010
1111111000110111
1111111100010010
11111
1111111111011001
1111111111000011
111
1111111111101110
101
100011
1111111110101011
1111111111001101
10001
11000
1111111110100110
1111111111111100
1111111101010011
100101
10
1111111110000011
10111000
1111111111100111
1111111110011000
1111111110100000
10110011
1111111100000100
11100101
100010
1111111100101100
1111111100101110
1111111110000101
1111111110010010
1111111111011111
1111111110111110
11000
10100
110001
1111111111101100
1111
1111111111101010
110111
101111
1111111110101111
1111111110011000
1011111
11011011
100111001
1111111110110101
1111000
1100001
1111111101010000
1111111111010011
100011
1111111011000011
1111111110100001
100010110
1010001
1111111111000000
1111111111011100
100110
1111111111110000
100011
11
100111
1111111111111000
1000
10110
1111111111001001
1111111111010100
1111111111110101
101111
110101
1111111111011111
10011011
100101000
111010
1111111101111010
1111111011111000
1111111011011000
1011001
1111111101111010
1100000
11101101
110001101
100101000
1111111111110010
111010
1111111111011100
1111111111010110
1111111111110010
1111111111111001
1111111111010010
1111111111110110
1111111110011001
11101
1111111111110000
1111111111000011
1111111111110100
10110
1111
1111111111001000
101011
10010
1011001
1111111111111111
1111111111101110
11010
1111111111100000
1111111110101010
101
1111111111001110
1101
10
1111111111011000
1111111111110110
1111111111100111
101101
1111111111001000
1000
1111
100
