1100
110000
1111111111011111
10110
100011
1111111111101001
100001
111110
100001
111001
11001
111
101110
1111111111100010
10110
1111111111100101
10
11010
11
11110
1111111111110011
101101
100
1111111111011101
100011
1111111111010110
111001
10
1010000
1111111111101001
1010
1111111111110101
110
1111111111111100
1111111111101101
1111111111101100
11010
1111111111111010
1111111111011101
1111111111010110
1111111111101100
1111111110110010
11010
10000
1111111111110100
1001011
1111111111100001
1111111111110101
1111111111110100
110100
1001
11001
1111111111111001
1111111111110011
10001
101
1111111111101010
1111111111011011
110111
10001
1111111111101100
1111
100110
100111
1111111111011111
110
1111111111000011
1111111111100000
1111111111111010
1111111111111011
1111111111111000
1111111111010110
1111111111011010
1111111111110010
1111111111111011
1111111111001100
1111111111100111
1111111111110001
1111111110101100
10111
1111111111111100
1011
1111111111110110
1111111111100110
1111111111000011
1111111111011010
1111111111110101
101100
1111111111101111
1111111111100110
11001
1111111111111010
1111111111011001
110001
10101
100001
1000011
1111111111110110
10010
1111111111010011
1111111111100001
1111111111110010
101000
1111111111110100
1111111111110000
1111111111110010
1100
1111111111110010
111111
110
101111
10000
10
110
1011
1111111111100010
1111111111110000
1111111111110101
1111111111110111
11110
1111111111111100
1111111111011101
1111111111110101
100010
1111111111011001
1111111111010010
11
1101
1111111111110010
1111111111101101
1111111111011101
1111111111101111
1111111110111011
1111111111111010
1001011
101
1111111110111011
1111111111011110
1111111111010110
100111
1111111111001100
1111111111111100
110001
1111111111100110
100011
1111111111111111
101111
1111111110110111
1111111111101110
1111111111110001
11011
1111111111101101
1001101
1111111111010010
101000
1111111111111000
11101
1111111111110101
100001
1111111111110001
1111111111100010
1111111111101011
100011
1111111111011010
11
10000
0
1111111111001001
10100
100
1111111111101010
11100
1101
1111111111111010
1111111111001001
11101
1111111111101000
10010
1111111111101001
1111111111010010
10001
11
1111111110111100
1111111111100010
1111111111110110
1111111111111000
11
11100
1111111111110011
1111111111111000
11000
1111111111110100
1
11000
1111111111101111
11100
1111111111101000
1110
1111111111110110
1111111111101011
1111111111101110
10101
1111111111110101
110
1111111111010011
1111111111011100
10111
1111111111101001
1111111111001010
1111111110111011
1111111111110011
1111111111111110
1111111111001111
1111111110111011
1100
1111111110110100
1111111111101110
1111
1111111110110110
1111111111110100
1111111111101111
1111111111001011
11
1111111111111110
1111111111011001
1111111111100010
100010
10001
1111111110111000
1111111111011010
1111111111010100
1111111111101111
1111111111110111
1
1111111111110001
1100
11001
1111111111101011
1111111111100000
111
1111111111010110
1111111110111110
1111111111100100
1111111111010111
1111111111100111
1100
1111111111110000
1111111111100011
1101
1111111111010010
1111111111101001
1000
1110
11011
10000
1111111110101111
101
1111111111111111
100
1111111111101000
10000
1111111111101001
1111111111100001
1111111111001000
101101
0
1001
1111111111100000
1111111111110010
1001
1111111111110001
10101
1111111111010011
101010
1111111111110111
111
1111111111100011
11100
1100
1111
1010001
1000
11001
1000100
100100
101100
1001
1100
101101
1111111111101010
1111111111111100
1111111111100110
1
1111111111011110
101010
1111111111000101
1111111111010101
1111111111100001
1111111110100110
1111111111101000
1111111111101000
10101
100010
1111111111100111
10001
10101
1001
1111111111111101
1111111111111010
1111111111101011
1001
1111111111111010
11101
1111111111100100
1111111111100001
1111111111001101
1111111110110111
1111111111010110
1111111111010010
101100
1111111111101001
1111111111001101
1111111110101010
1110
110111
1111111111011000
101
1111111111100111
1111111111101111
10011
1111111111001110
111
1111111111101100
10001
1111111111101000
10010
1111111111111110
1111111111100001
1100
1011
1111111111111001
1111111111111010
1010
1111111111110111
1111111111111111
1
10
1111111111010110
1111111111100000
1111111111011011
1111111110111101
1111111111100010
1111111111010000
1111111111110110
1111111111101000
1111111111111010
1111111111101101
1001
1111111111110111
1111111111110110
1111111111101001
11011
101
1111111111111101
1111111111100011
110001
1111111111101111
1111111111111010
100010
11
10100
1111111111011000
1111111111100011
0
1111111110111110
1111111110111001
1111111111110010
1111111111010110
1111111110111101
1111111111000011
1111111111011101
1111111110011011
1111111110100100
1111111111100001
1111111111110001
1111111111111101
1111111111101111
1111111111100110
111101
110110
1111111111111011
1111111111110111
11010
0
1111
111
1000000
10111
1111111110111110
10100
1111111111010000
1111111111100111
1111111111011011
1111111110101101
1111111111011110
1111111111101111
1111111111101000
1111111111100101
1111111111010000
1111111111010000
1111111111010100
1111111110110000
1111111111110011
1000
101001
1111111111101010
110000
11101
1111111111101110
1111111111111011
1111111111111100
1111111111110011
11010
1111111111110110
10100
11100
10000
1111111111100110
10011
110
1111111111101111
1111111111110011
1111111111100001
1101
1111111111010111
0
1111111111100011
0
1111111111110001
1111111111011010
1001
1111111111110001
110101
1111111111011101
10111
101000
1111111111110000
111
1111111111000001
1001101
10011
0
11100
1111111111011111
10001
10101
0
1111111111100010
1111111111100011
1111111111011000
1111111111110011
1111111111111101
1111111111010110
1111111110101110
1010
10110
1111111111001010
1111111111110011
1000110
1111111111101110
1111111111011111
1111
101
100
1111111111010111
1111111111011001
1111111111101101
100000
101
1111111111110111
1111111111011101
1111111110010111
11001
1111111111110000
0
1111111111100010
1111111110000100
1111111111000110
101011
1111111111011000
1111
1111111111011001
10000
1111111111101011
100010
10110
1111111110110110
1111111111000101
1111111111101100
0
100000
100001
1111111111010100
111
100010
110
111010
110110
1111111111011111
1111111111000110
1111111111010110
100111
1111111111000011
1101
0
1111111111101010
11
10
10
1111111111001010
1111111111101110
1111111111111111
100010
1111111110101111
1111111111010010
10110
1111111111000011
1111111111111010
1111111111010001
1111111111110010
1111
10
10111
101000
1111111111100101
11110
110
1110
0
100
11011
1111111111110011
1111111111011010
100
1101
1111111111101111
1111111111110100
1111111111111000
1111111111101010
1111111110110111
1111111111100001
100000
11110
1011
1111111111101000
100001
10111
1111111111110000
1010
1111111111110101
1111111111001011
1111111111100010
1111111111110101
1000010
1001
1111111111101010
1111111111001101
1111111111101101
100111
101
1111111111111011
1111111111111110
10
0
1111111111010001
1111111110111001
1111111111111011
1111111111010110
1111111110110111
0
1111111111111100
11010
10
1111
111010
1111111111110101
110010
1111111111111110
10010
100110
0
1001000
1111111111101110
1111111111101000
1111111111100000
111010
10011
1011
10101
1111111111100001
1111111111100010
1000
1111111111100100
1111111110011111
1111111111000000
1111111111010110
1111111111011111
1111111111101000
1111111111110101
1111111111110111
1111111111001011
1111111111110110
1111111110110110
11100
1111111111101001
1111111111110000
10001
1111111111110011
1
11101
100011
101011
1111111111111110
1111111111010110
1111111111111111
1111111111101110
1111111111010011
1111111110100010
100011
1111111111011110
1111111111111110
10011
1111111111010101
1111111111111010
1111111110111000
10000
1111111111000101
0
11
101010
1111111110110011
1111111111111101
1111111111001100
1111111111100101
11110
1100
1111111111101100
10011
1111111111101101
1111111111110110
1111111111111100
101001
1111111111111110
1111111111001111
1111111111010110
1111111111110100
1111111111010111
1111111111100101
1111111111000100
1111111111110000
1111111111001001
1111111111001010
101101
1111111111000111
1111111111001111
1111111111110000
10100
100001
1111111111101001
1111111110111111
1101
0
1111111111111110
10010
10
1111111111100111
11000
1111111111011111
110111
1111
1111111111110100
1111111111111110
1111111111111101
1111111111011000
1111111110111011
1111111111110011
1000
10011
1111111111101000
1111111111001110
10001
1111111111111010
1111111111010101
1111111111111111
101011
1111111111101011
1111111111111101
10100
10010
1111111111110101
1111111111110011
1000
1111111111110001
11111
1111111111100010
11100
1111111111100100
11111
10010
100
11100
1000111
1010
10001
1111111111111100
0
1111111111110010
1111111111101100
1111111111100010
110
1111111111000101
1100
1111111111111010
1101
111100
1111111111011101
1111111111011011
1111
1111111111111101
1111111111111010
100111
100
10100
1101
1111111111111100
11100
100000
10111
1011
1111111111111010
1111111111101111
1111111111001011
1111111111111000
10101
1111111111101011
101111
100
1111111111111010
1111111110111101
1111111111100111
110000
1111111111111000
1111111111100111
1111111111100111
1111111111011011
10
1111111111110010
10001
0
10111
1111111111100001
10
1111111111111011
1111111111101111
1111111111101001
111010
1111111111111111
1111111111011001
1111111111010011
1111111110111011
1111111111100011
101110
1111111111101000
10
1111111111111100
1111111110111110
1111111111010111
1
111
1110
1111
1111111111010010
1
101111
