1111111100100100
1111110101101011
1111111111110100
1111111111101101
1110
1111111000101000
1001110110
1110001101
10100101000
1011100010
1111111110101101
101000101100
1010101001
10011010
1111101111111101
10011000000
11100001000
10010010100
1111111000101001
1111111101011110
1111111110110010
1111111101010100
10011101001
1111110100111101
1111101100010111
1111111101111010
1111011011101110
10011001
1111110011010001
1111111111110100
