1111111100011110
1111111101000111
100001000
1111111100000100
10011111
1111111110101110
1111111101001011
1011111101
1010111101
1110001000
1010100
100000100
1000101110
100011
110100010
101101010
10010001100
1100111100
1111111111011101
11010001
110101101
10001001
100111
1111110010001111
1111110101101001
1000001111
1111111011101000
10100110
1111111000001010
1111111110011101
