1111111111111001
1111110001010000
10001000000
10000111
11100101
1100101
11101001110
1111111111100011
101011001
1111111100010110
1000011
1111101110111100
1000001
10010010
1111111010110110
1111110100110010
1111110100000111
1111101111010010
1111110101101000
1111101110000100
110011111
100100111
10111111001
10100100111
110001001
1111100100110010
1111111110101100
10111
1111111001011101
1101101
