10010000
1111101011001111
100001100
11001001
1011011
10011100010
1111110011001101
1111111010000010
1111110001010110
1111110001111110
10000100
1111101010111000
10100101101
1001000
1111000101
1100001001
1111110000110011
1111111010011111
1111111111000001
1010100110
1111111110010110
1111101111101001
1111111010100110
10010
10101001101
1111110011101000
10000110010
1111111111000001
1100101101
11010
