1111111110011000
1111111010000101
10000010100
1111111000100000
11110001
1111111011101100
1111111010001000
1111111001010100
1111111101001001
11110001
1111111110110100
1111101100111000
11101110
10111
110111110
1111111000010100
1111110111011111
1111100101000111
1111110100000101
1111100000011010
1111110111000101
1111111111101100
1111111010101101
100001111001
1111101010111100
1111101110101111
1111010101101110
10111011
1111111100110110
1111111100010000
