1111111111001111
1111101110001010
10010100111
10110101
1111111110111011
111111011
10101110110
10010001001
10101010001
11010001100
1111111111111001
100001001000
110011010
1
1111110011011101
11100010111
100110101101
100001111000
1111111000111110
1111111000001000
1111110100000101
11100100
10110011011
1111111000001010
1111110111001000
1111110011001000
1111101011110101
11001
110111001
1111111110101100
