1111111101100100
1111111101001011
1111111101011010
10001111
1111111101111000
1111101001101011
1111111001100011
101000011
10011011111
111001100
11111001
11011000111
1111111110011010
1111111110011000
1111110110011100
101110111
10101111001
11011001100
1111110110000001
11000000
1011100011
10000110
1000001
1000011010
1111101111101101
110111001
1111101000100010
101011
11100101
1000
