1011010
1111010011000010
1111111001111001
101010100
11111
1111001110000110
1111101100010010
1111010110111111
1111100001111011
1111100110010001
111110
10101110101
1111101001100111
1111111110011111
1111111000100111
1111110111010000
1111110110010101
1111111111100100
1111101110101110
11111101
1111011101010001
1111110101011010
1111110000101011
101101101
1111010010111010
1111100001100001
1111100010011000
1111111011010111
100011010
1010010
