10110011
10101001
11110111
1111111110100011
1111111101110111
1111110100001000
1111101111111101
1111111111001000
1111111001011001
10101101111
10010
1111111101110101
1000110111
1111111111100111
1001110101
1111111101101101
1111110011010000
1111110110001101
1111101010110101
1010001
1111111100010100
1111110001001001
1111110011111111
1010100000
1111101100110110
101001011
1111111111110101
101101
1111111101101001
1001000
