1111111011010001
1111111111111001
1111111110001101
1111111100100101
1111111101111110
1111111100101000
11001010
1111111111100101
1111111110110001
1111111100100000
1111111110101010
1111111101111010
1111111100100001
11001101
1001000
1111111101110001
100111
10010
1100010
1101011
1000011
1111111110000010
1111111101010001
1001110
10111000
100111
1111111110111111
1111111110000001
1111111011111110
100001101
