10001001
11010101010
110000100
1111111101111000
10000
1111110111000011
1111110100100001
1111111101001001
1111110000100000
1111111111000011
1111111100000001
100010
1111101110101100
11110000
1111110001011011
1111110111001111
1111110101100001
1111111110010110
1111011111010101
1111101011010011
1100101
1111110001001110
1111101111010011
1111101100011011
1111101110110100
100001000
1011101110
1111111111111110
100111110
10100010
