1111111110001111
1111110010000110
1011110
1010101
100100010
1111110100110110
1111110111010001
1111111100011100
1111010011110110
1111110011001100
1111111111010110
10001010
100011110011
10101111
100111101001
10000000000
1111110101110100
1111110010000001
1111111010010000
1111111111100110
1111100010010110
1111011001110011
1111110110010100
1101101010
1111101001100011
1111101010010101
1111111111100001
1111111100101101
10100100100
1111111100010001
