1111111100101000
1111111001101110
1111111111001011
1000001
1111111100111010
11010010
1111111111100000
11011010
110111
1111111110101101
1111100
1111111101100101
1111111100110001
101111101
1100
1111111100101101
110
1111111111010001
1011110
1111111010010000
1111111110001000
1100100
101111
1001
1111111111100010
1111111111101001
1111111110000100
11010
1111111101111011
10000110
