1111111101100000
110111
1111111110101111
1111100
11010100
1010011
11000010
10011101
1111111110010010
1111111110000001
11000
11001100
1111111110011001
1111001
1111111111100000
101010
101010110
1111111101111010
1111111100100100
111000
11000
10111101
10011001
1101100
100000110
1001000
1111111110111100
1111111110011110
1111101
1111111010101101
