1111111110100110
1111101111010101
1111101111100011
1111111111101100
1111111010110001
1111101111111011
1111100110111010
1111110101011011
110110001
1111111100110001
1111111111011111
1111001001
1111101010100010
1111111111111101
1111100001111011
1111100111011100
1111010100
10000101010
1111111010011011
1111001101111101
1111110011100110
1111111001001101
1111101110101100
1111110010010010
1111110000000101
1111110110001101
1111100000001101
1111111110111000
1011001000
101100
