1101111
100100011
1111001111110010
1111111100010001
1111111001100110
1111100100111011
1111101101011000
1111110110110011
1101111111
1111101000111010
100100
10001101110
11011001011
1111111111001100
10011010101
1011011010
1111101001100100
1111110101100101
1111000011011101
1001111000
11000110111
1111010000001001
1111101001011101
1111101000110011
1111100100011010
10101000111
1011111001
1111111110001001
100001011100
1111111100100111
