1111111110110011
1011001001
100000011111
1111111101010011
1111111100011000
1111111010000000
1110001001
1111111111101111
1111111100111100
111101000
1111111101100101
110011
1000000100
1100111
1111111110010100
1000101000
100011001
1111111011011000
1100010011
1111111110011000
1001001010
1110000111
1010000011
11110011
1111111011110010
100111010
100010011
1110
10111010000
1111111111111010
