1111111100010111
1111110001110000
101010111
1111111011100000
10101101
1111111111001001
100001101110
1111111000101101
1111110100101000
1111111111000111
1111111110101111
1111110110101001
1111111000110111
1110
1111110010000101
1111111001001101
1111111111000010
1111110010111001
1111111101001100
1111101000011100
1111100010010101
1111111111100110
11000100110
1111110100011110
1111110000110111
1111101011100011
1111100010101101
1000001
1111111011110000
101000
