100001
1100110
11
1111111101101110
10000
1111111100011100
1111111010011011
11100
1000101
110100
101000001
11
10010
1111111101110111
1111111110110001
1100101
1111111011010001
1111111110010010
1111111110000001
1100001
1111111101110100
1111111000111111
1111111101000001
1111111100010111
1000
101001
1001100
11110011
1110
10101
