1001100
1111101111010110
111011001
1111111111101010
1111111110011111
1111110111100110
1111101111111111
1100010001
1111101100010000
10000001101
111011
1101101111
1111110110111111
1111111111111010
1111110000010101
1011000101
1111000110
1111111100011111
1111110101101111
1111111001010101
1111110100010110
111101111
1111100001011110
1111101001010110
1111110101000001
1111110111110011
1111110110000010
110001111
110101000
1111111111111101
