1111111101100010
1111110000000011
101011000
1111111011110111
1111111101100100
1111111010101101
1001101101
1111111001010000
1111111100100100
1111111011111010
1111111110011000
101001000
10100000000
1111111111111101
10110100101
100110011
1111111100110101
1111111101011101
1111111100010110
1111110111101010
1001100111
1111111011001011
1100010100
111011111
1111110011001111
1111110001011111
1111111001110000
1111111100001000
100011001
1010011
