1111111111100010
10001011011
1111110001000110
10101100
11101000
1111011110111001
10000110
1111110010101111
1010010001
1111101101100101
1111111110100011
10001111011
1111100011110110
1111111101100110
1111100111001110
1111101100001100
1111111000011100
1111111000010111
111101010
1111111111100100
11010110000
10001011
10000000000
1111101010000000
1111101011000111
10010000110
1111110101100111
1001111
1111111010011100
110101
