100011111
1111011111111001
1111110101000011
100001001
1111111100111000
10101110110
11100100
1111011111110010
1111110100100111
1111011001010010
1111111111001111
1111101001011010
110111010
111100
1111111011001110
10001110
1111100010000010
1111111101010001
1111110011010101
1000111101
1111101110010100
1111110111000100
111010011
1111101100001100
11011001011
1111110111010000
10011101111
101010
10011011010
101111
