1111111110110110
1111100001
10000001110
1111111110101110
1111111101010010
1111111010011100
1111111100010110
11010101110
1111101110001101
11010101111
1111111010101100
1111111001001100
1111111010001011
1111111011010101
1111110010100000
1111100110010010
10001011010
1111100001101001
10010110101
1111111101101000
100010101
10011001011
1111111111010111
1111100011110010
1111110010110001
1111111111111111
1111111101111010
1101001
1111011011111111
101100
