100111
11001100
1111111110011101
1111111111010000
1111111100111011
111111
10010001010
10011001
1111111100001001
1111111111010101
1111111011011111
1111110111110111
110010000
1101111
1111111011100111
100111111
1111111110100110
1111111010101101
1111111101110010
1111111110010010
1111111111111011
1111111110001011
1100101111
1111111001111111
1111111101001100
1111111011100010
1111111010101011
11110011
1111111110011111
1111111011010110
