100111000
1110010
111001000
101100011
11000001
1111101011011100
1111101101000010
1111111001110001
1111111001110110
1111111011111011
1111111111011000
1111111111101110
1111111101110111
1111111101100010
10110100
1111111110010000
1111111100011000
11101110001
1111111011011100
1111101001110100
1111100111101001
10001101
1111101110001011
100001100101
1111101001111100
1111101001001011
1111101100110101
1111111101111000
111000001001
11111
