10001010
1011111101
1111110100000101
1111111100000100
1101000
1111111001111111
1111110001010101
1111110000100000
1111110010001100
1111101100111001
1111111111110100
1111100001111110
1111100001011101
1111111111100010
1111101000110100
1111101001001001
1111011110110100
1111110101111100
1111111011111000
100110000
1110110001
1111111001111110
1111110110010110
1111110010101111
1111111111001100
110110101
10000100
11010001
1111110111111100
11000
