1111111111011110
1111111101001110
10100100
10000
10000101
1111111100000011
1111111111010110
1011111
110001
11011000
1111111100110110
1111111111100111
1111111111111000
1001111
1111111011011100
1111111101010100
110011110
101000100
1111111101001001
101
1111111011100001
1001010
1111111101110001
1111111011111011
10001110
1111111110001011
11100
11111
1000011
1111111100000101
