1111111101111000
1111110110101010
1111111001111101
1111111111110100
1111111111100000
1111111000100010
1110011010
1111111111100001
10111010100
1111111101001011
1111111110111010
101101101
1111110101111111
1010111
1111101101101110
10101100001
1100000000
10010001010
1111110011001000
1111110001000000
1111111011000010
1111110101000111
1101001110
1111110110101011
1111110100111010
1111111000110101
1111100011111001
1101101
110010111
100000110
