101
1111111111011111
1111111110011110
1111111101101011
1111111110010011
11
1111111101101000
101101
11011
1111111110010101
10101011
1111111100100000
1111111110101100
1111111100010000
1011111
1111111111010010
11010
1111111111110111
10000
110110
1111111111000100
101
1000111
1111111101000101
1100010
11111
1001111
1111111111100101
10000111
1111111100011110
