1111111100000101
1111111111011011
1111111110111000
1111111100000111
1111111011001100
1111111
1111111101011000
1111111100110010
1010101
1000001
10100011
1111111101111100
1111111101000010
10110110
11110
1111111111100110
1111111111100010
1111111111110100
1111111100010111
1011110
100011101
1111111110000110
1111111111010101
101001
1111001
1111111101101100
10010010
1011111
1111111101100010
1111111111011111
