11110111010
1111101110011101
1111011100101100
1111111101001011
1111111111010001
1111110110010110
1111101101110010
110010000
1111111101101001
1111110111000010
1111111000000100
10000001010
1111111100110110
1111111110001010
110011001
1111000011000010
1111111100101000
1111111110100110
1111111101101001
1111111101000001
1111111001110000
1110111010
1111111011011100
101010
1111111000010000
11101001
1111111011110010
101011110
1111001000011111
1111111001010010
