1000011100
1111110110011000
1111101100000010
11100101
100001101
10001001111
101111000
1111110001000000
110100010
1111101010100101
11
1010111001
1111111111001000
100111
1111110000000001
1111010101
1111111011111011
1111000111110100
10110111
1111111100011100
1111001000010100
101011110
1111111000100111
1111101001101110
1111111000101101
11001000010
10001010
1111100100000100
1111111100101101
1111110101111110
