1111111001000111
1110111110001000
101100101
10000010
11011
1111000111011000
1111111110101011
1111111001001110
1111111001110100
10110110
1110111010110000
10111111
1111111111010010
1111111110001110
10110101001
10000011
1111110101101100
1111111011111011
1110111
11110
1111111010000000
1100000010
1111111111101011
1111101000111101
10001010
1111110011000100
1110100101
1111111110000100
1111111100111011
100000000
