11011010010
1111111101101011
10100101100
11101110
101000010
11010001001
1111011111100101
1111001000000001
1111010000101010
10000001
1111110101000011
10111011111
1111111101100100
1111111111011110
1111101100110101
1001111010
1111101011111011
1111101111101001
111000
1111111101101100
11010100
111001100
100001001110
100011101100
11111010001
1111111101111011
1111110010000100
1011101100
1111111010000100
1111011001000011
