1111111110100000
1111111110010000
1111111100000110
1111111101111010
1101100
1101110
1111111011111011
1111111111101110
1111111111110111
10100011
10000010
1111111110001111
1111111101100100
1111111010011001
1111111111110010
1111111111010010
10101101
1111111111000011
1111111110111110
1111111111100010
10000101
1111111111001011
1111111111100010
100010010
1111111110111111
11000
1111111101111101
100011111
1000000
101011
