1111111110000011
1
10001010
100110
1010101
1111111110001011
1111111110111100
1111111101111101
1111111111101110
1111111100000000
1100011
1111111101111000
1010111
1001101
110011111
10111010
1100101
1111111111110111
1001
1111111110101100
1111111100100111
1111111111110100
1111111010000001
10100111
1111111100101101
1111111001010111
1111111011011100
1111111011100101
1111111111000100
1111111100010010
