101011110100
1111101101111001
1111110011100111
101010100
1001001
1111110011110110
1111100001000010
111110100
10000001001
1111011001110001
10111100000
100111010110
100110
1111111111010111
10001111101
100000011101
1111101010110001
11010011
1111111111110000
1110001
1111000100010100
1111110110000101
1111101110000111
11110100000
1111111100001100
1111011101010010
1111101100110001
1111100110011001
1111011010100101
101011110
