1111111100001111
1111111010001111
1001
10001011
1111111110000110
1111110110101100
1111111011011100
111111
1111111111100101
1111111101101100
1111111111011101
1111111011111000
1111111111011000
11001100
1100011
1111111110111011
1111111100100101
1111111111111100
1111111111010001
100001
1111111100010000
1111111111101011
1111110011010100
1101110
101000111
1000101
11
1111111110011010
1001111
1111111000100011
