1111111110000111
10001
100110001
1011101
10111101
10011010
1111111011010011
1111111111011110
1111111111010111
1111111101110100
11101
1111111111101000
110100111
1111111110000000
11001000
1000011
1111111000011110
1110000
1111111111001110
1111111110110000
1011011
111001
1111111101101100
1111111100111110
110111010
1111111110011111
1111111101010100
1110100
1111111011101001
1001001
