100000000011100111011
1111111111010111101101011110101
10010001011001101010
1001111111011100110000
10111000100110001011
10011011010101000000
1011111100110110010
1111111110111000001101011000000
100010111101011011111
101000011010010010
100010001000001111000
1111111111101010000100110000111
10011001100011010
1111111111110101110111001000011
1111111111100111010101010010110
101001001111101101011
111001010101000010100
101100011001000000110
1111111111101100101001101000100
101100110011100
111010000110000001010
10001000000000000100
10000000000100010011
1111111111100101011000101001001
100101000010110101
1111111111001010001000001101011
11011101111100101111
1100100101100010100
11100011001001010010
1111111111110111111011111000010
101010011100111111000
101100110101100101111
1111111111101100010111010001011
100001111111000000
1000101010000010110101
1111111111101001011110110110000
101101010001100010
1001111011100111111
100101010110010110100
1111111111100111010000010010000
1111111111111111010100101011011
10011111010000010010
1111111101010110111011100011011
1111111001111101011110110100000
1111111111101101101101011100010
1111111111100100011010101000101
1111111111110000011010101100001
11010011111111000001
1100110110011001010
1111111111111010010100000010101
1111111111010101000100100111100
1111111111101000001000010110100
1000010000111011
1111111111111001010100101101001
1111011000010011100
100010100101001110110
11010101110101001011
1111111111010010011011111001111
11100100111011010101
100010111100110111
10101010101110000110
11001011001010010001
101000101100000001111
10011111010101010011
1111111111000000110001100011110
1111111101110100101101111000111
10110111110111111010101
110011101010000001000111
10100101100100101100001
1111110101011101011100000100101
1111110111110101000011101001110
1111110100110100100001001000010
1111111000011110010100001100001
1111111010101000011101000000010
1111111111100000111011011100011
1111111111000111110110110011001
1111111111000001001101100100100
10101000001101001
1111111111010101100010110001010
1111111111101101100111110111000
1111111111011110111011000110110
110000000011100101101
1111111111101101101000110111001
1111111111100111011000000011000
1100001100110000111
1111111111110111111111100101001
1111111111010011011101000000000
11011110110111100011
101001111100000011101
110000110001110100010
1111111111001000110101110010101
1111111111100100000111001010100
1110000100100111000010
1100101101101101000001
110110000011110011111111
10110101000001011110111010
10010100010101011010000011
100000010100001110111100
10001000001001001110100
10011010110101000111100
1001110011000001010010
1111110110101011111011000001100
1111111011110100001000011000011
1111111110111100101010111001011
10001000010111111101011
10001001010000111010110
100000100000000000
1111111101010001101110001111000
1111111011100010101011001101111
110001001010001101001100
1010111001101011110011
1111111111101110111011101001101
110101101010010101100
1111111111110010011010001001111
1111111110111000011000111111100
1111111111101101011010000001000
1111111111011101110011010111111
10001110101110001000111
101001010010110001110001
1001001010100000000100011
1110001000100111101010000
10000111100011001111001010
10101100111100110000110110
10111011000101011001111010
1000001110110011011010000
110011011010001000010101
101110010110111011001111
101000111100001101010110
1111110101011011111010110010110
1111111101100100011000110101101
110111010100111000001111
1111110111000100100111010100110
1111110110011101111011011010110
110000000011001001100110
1111111111011111111001101111110
110100010110000110000111
1010011111010110101011000
100101001101110001000110
101000010110111001000
1111111111010010001111011011010
1111111111110011111101011101011
110110010010000
10011011101101100001
11010111101110001111
1011110010101011011100
1111111111110111010010101011101
1111100100011010011101
11110110010010001000110
1100000110101010011011001
1100010000001010110111101
11100000101111110100110000
11010011111111001010110101
1111111010110001001010111011000
1010010011111000010101001
10111111000010010100111011
1111110100010010001100011111100
1111110110011000110101100011111
1110011101111001101010101
1111111100011100001101111000110
1111111000001010101101000011111
1111111100010100111010110011011
1111110100101100000101011100110
1111111110001101000110101001000
101001000111011010110111
11101000010010110000000
10000101011110100100001
1111111100001100110000101100000
1111111110101100101110011011000
1111111111111100000100110101001
1111111111111010111100111100001
1001101111001001010101
1111000011111100111001
100001010101110100100111
1000001100000010010010100
11011101001001101011010
110001011001000001000110
10111010000101111101010
111110011111000110100101
100100110000000101111111100
100010110001011000010011010
1000111110011111110100
1011000000110100010011001
1010010111111110001101010
1111111010110000010100110010000
1000101011001001010100010
100010011100000100110001
1111110000001010101100100101001
1111111110001000101111100000000
1111101011111101011010000100011
1111111100000101000011011101000
1111111100111000001111001000001
1001011001100001111010100
1000110101101101100111101
100010100000011010100000
1111111111011000010110000001001
1111111111110101110100011100010
1111111111101010110000000110111
1111111110110010100100001110010
100100111110010010101110
111110111011011101001001
1101011010011110010011101
1110100000010011011111100
1101010100100011110001011
110110111101000101010110
1110100011000001000101000
1011100111000011110011111
101000101111010011000101100
101001101111011110100100010
1010001011100010001111100
10001111110110111111010100
1111110101000011111100001100011
1111111001100111101101001011110
101001011000010011000011
111101100010101001110111
1111111110101111001101000110001
1111111111101010100000011100110
1111110000110111011010001111101
1111111001110011001101010000110
1111101101101111011100111111010
1111111010011101101100101
1111011001111100110111001
100111011100101011111001
1111111101011010000100100111110
1111111110010101000011101001111
101011000110100100001
10000100101010100111
10010010000110010010001
111001101010111000000110
1011011001000001110011111
1101010110100100100001000
10010000011101000110100
1110010001001001010011
1010101111011010110011000
10011000101110011011110111
11100010011000100000101101
11110001110011011001001110
10001001110110100000011111
10101001101001010000001
1111100111000111000000110101101
1111111000111100010100000110100
1110011011101000100011111
1111110011110101110010111101110
1110010101000111100110100
1111110010110101101110010110110
1111111011101110001000101011111
11100110110110111110111
101001111000110001110001
10000011101101111011011111
1111110111101000101010110
110100101000111100111111
1111111111101101011011101100001
1111111111111001010001110000100
11100111111111100101
1000111110000011110000
10100000000010100011
100000101000100010000110
111110111011100001110000
10000100011110111010001100
111010100100010000000111
1111111101000010010010011110110
110000111011111100111001
1010100000110100011001001
1011011011100111110011000
1010100001111011010101111
10110001000000111001101110
1111111010111010011010101011011
1111101000011011010010001111011
1111011101001101101011001101010
1111100011001100010000110000011
1111111010100100011111100010011
1111111011011011011000100000110
1111101110010111000110000110011
100001010001010101111110
1111111011101000101101100001101
110011100000101111101110
111000001100011110101000
1011011000110011110101001
11111001100001111110011
110111111101010011110
101000111001000000111
110001111011110011100
1111111111011111100110101001010
11100100111110011000
11100001010110001100000
100000010111011000011011
1000110110011100111110110
1000110010110010011110010
1111111111111101011101010110110
10010001111101111100010001
1110110010000011010110011
101101110001000111001011
11000000111110110000100101
10000000110010010100110100
1011011001001011001101001
1111011111001010110111000000001
1111010111100101110101110001110
1111110100100101001110100100100
1111110001000001101000011111001
0
1111111110100010111000011111111
1101001111111011010011101
1111111110101100001010110000000
10110100111000101110101
1111111101001110100011110000010
110110111001101001111011
1111001000010111100010
101001010001010111000
1111111111111101011011000100001
1000001010011001100
11111100000011101111
1111111111011000011011010011011
110001000011110100000
1111111111101010010111110000000
110010010000100010010011
10011101101011101110011
11101111110011001100111
11101000110010011101100100
1101111101101011011001001
10011001011111100101110
1010100100100000010010010
100000100100010101010111001
1111000001111010111110011
1111111010111001101110011000111
1111101000100111010101110111100
1111110001111011100110101011000
1010011001111110011111010
1110110110010000001000100
1111111111000001101010010
1110110000100000010110000
110111111100010010011111
100000000100110100001
1111111001000000110000000111010
101110100011000010110001
111100001011100011110
1101100101100010001
1010001110000000101
1111111111001011010011101100010
1111111111101100110100000011110
100100111101100110111
1111111111001111010101110111100
1111111100101110000011011010110
1111111110110101010011110000010
1111111101010111011111101000010
110111000011111110010011
10101011000100010010110100
1100110101001100000100100
10011111110111101001010
100111000101011010000000
10111010110110101111010001
10100110100010010100000111
1111101110101111101011001011010
1111100101010101001001100001000
1111110000010111011111110001110
1111111011010111100010011110100
1010110001101111101001101
1100100110000011101100110
1100111100001111000011100
110011110100111011010001
1111111111100000110110111000100
1111111110101111000011100010101
11011111000111110111011
1100000000010110000001
1111111111011010100011100111000
1111111111101111100110100110110
1111111111010110100110010110011
1011110011000001001
1111111111001011100111000110000
1111111111001110011111110010100
1111111110111101111000101100110
1111111110111110110110011010011
1111111110101001000011000011101
1001110111010101100000011
10010101101011011001100101
10011101011011000000110010
10001010010100101111000110
10101100001111110101101100
1110011000110000100000100
10010111101100010001101111
1111110001011000001011100000110
1111110110101010010100110011011
1111100110000100111100101100010
1111101001010110100011110011001
10010011000111011110100101
11011101010111001011111111
11001110010110101011100111
10010010100011010010111100
1100100111111101000011001
10001110000101010011110
11000111100000010000101
110000001000000000110
1111111111111011010101000011110
11110101110010000100
110000111011111011010
1111100000001101100
1111111111100110000100101011001
1111111110001100011001101011000
10001110011000000101000
101111001110110010000011
101100110000101100110010
1111000111011100111010100
1111111001100110011010011011011
111010110001011011
11100001110101000011111
1001011000010011111011001
10011000001111111101011000
10001100011000001110001010
1111111110010110110011110000011
101001110011100111010
1111011111000111100111100000010
10000010000001101001110011
100011001011101011001001101
100010011010000001000000100
11011110010101101100001011
11100000101010101110001101
10000011101011111111111100
1000000001111100000000100
100101110001110100010001
111110001011110001
1111111101101100110010011001101
1111111111110100100101101011100
1111111111101010101100000000111
1111111111110011000001000001010
1111111111110001000010011001000
11100000010001010
101111110010100000000110
1100010011111111001000000
1101111001011110100001000
1111111110101110110101010011001
1111101110100110100000001100001
1111101000100011001100110110110
11001101011101001010100
111111000111110011110011
11001011100001111111111
1111111110110101111000101100011
10101000000110000
11101000000010011000011
1111100100001001100011101101100
11101011100010111111001010
101111010010011110010000001
101001000011111010011000010
11101100000111010101000000
11001010111110011110110000
1111101100000101111110111
1111111010010001110010010
1001101100011011110110111
1111111110011101001011000000010
1111111111000111011110010010000
1111111111001111001110110101011
1111111111111000010101101000000
1110100011001011101
1111111111011011110001010010111
1111111111111101000001100100000
100011000011011101011101
101001000111001000111100
1111111111111110001010100101101
1111111001010000101000101101011
101100110011111001101001
1111110110101010111010000011011
1101001100010100111000100
1111111100001101010010010011001
1111111110111110000110111111000
10000010001111010010000111
10000101101100010011010010
1111111101110010110101010010110
1111110111000011100001000010110
101001000110111000110000010
11110010011100110000100100
100101110000100001110011000
11111111001010111111111111
10101000000001000000010000
10001001010011110000111100
10001110011011101111000110
11100001111011001010101
1111111011011010001001110010010
1111111101110100010011001110101
1111111111110100001111001011101
10001110110110000
110010000010111001001
110111010010001001001
1000000010000001111010
10111010110011000001100
1110000110011010010001
101011100101111100100010
1001110000000000000100011
1100101111101100000001110
1101101010110011101001001
10010011000000110001101
101101000011001111000100
10010001000100000111111
10001001010110010111011110
110111101001101001000
110000100010011011100101
1100100000110111100110011
110110001100011001101111000
11000011010111001010101110
1110111001011101011110001
10111110010101110010111010
1110110010000011011101110
1101100110001000001001110
1101011110100001011100001
1111111101011110000010010101010
1111111000001100001111001011001
1111111100111110001011011011101
1001110101100110011
1111111111110111011011000101001
1001001010000101001011
101100110011000001010
1011110101110100011010
1111111110101001000110101001111
1001110110001001000110010
1100110111100100001001001
1101001010111000011000110
1000111100111100011000111
1111100111001010100011111101101
10010000011111100100001
1010000011001011001010011
1010001101110110111000000
1111111110100111010100010010000
1111011011010110011010000
11101011010011000010001100
100100011011011001000101010
10111101000001101001101011
1111111111000010111000000011110
1111111000100011100101110101000
1111110000101110110111101001000
1111111011100001000001001010100
1000000010111010011010100
10011100001010010100100
1111110111110000010011001111001
1111111001101000100100101000101
1111111100111010001010010010100
1111111101110101110001111101100
1111111111101001111010101100011
1111111111011001101110100010110
1001001100011100010000
10010000100101010110
1111111111100100110001011111101
10101101011010101001111111
1001110011110011000101000
100000100111011001101010
111110000000000000010101
1111100000100101011011001010000
101110110011110101001000
1110011111000000110001
111101111100010011011010
1111110101001100010101011101100
101111101100110011110000
10110000101111111001100101
1111110010101111111100111000111
101110001111110001101
1111110110100100100101111011000
1111101010011000111000101110111
1111100100100111101100001110001
1111110110111000100011010000001
111000001001111010110
1111111001110101000001110000110
1111111000111001011001101010111
1111111001010100101011000111000
1111111101101011101010111001101
1111111110110001001110001110100
11101001111011001001
1111111111110010001101010010010
1111111111010011100101000010101
10010101001101110010000
11010110101000000001011
10010001011101111001001111
100100110101010100101010
11001011000111000010011010
101001010000010111011101
1111110101000000011100111010111
1111110100110000101111110110101
1111101110110111011111110101110
1111101100111001110011110011100
1111110001100000010101000100000
1111101010001001001100011101100
1111110110111000101101000101111
1111100011010111110011101011110
1111101010110111001000000000110
1111100100001001111111101111110
1111101010100001001001111011010
1111101100101000100011111001001
1111110100111100101001001001101
1111110000100010000111111101100
1111101100100000001110101111001
1111101111010101001111010100111
1111110111101001001011100111110
1111111101100000010000011000101
110111100010001001
1111111110101001010101101010110
1011111000011011010
1101001010111001011010
1111111110111100100010110010010
11011100100000100001111
1111111010101111100100110000101
1111101110110101011010000010100
100100001010001010100001
1111110110000000101010111101011
1111111100111010000100101010010
1101000100100001101010
1100000101111100000101011
1111111011000111001110110011100
1111110100001111010110101110101
1111110111111100011111001010001
1111101100101110100101110100011
1111110000011111001101001111111
1010110011011100100001
1111100110010001110100011010100
1111100010110000100101010010010
1111100010000100000111011110101
1111100111011011100111000001000
1111101101110110110111001110110
1111100101110100110001110101110
1111101100100001000111001100110
1111110101010111011110101110101
1111111111000111000000000011111
1111111111111000001101000001000
1101111101010011001
111000010111100100110
1111111110100100000100010101010
1111111111011100101000001001001
110100010000111100000101
1111110110101110111010000011010
1111110011010011010000110010111
10111010100100100011001
1111110100111001101101101001010
11101001101011110111111
1000000101111000111001
10100100111111110100100
10100010001110010101100001
1111111000001110010001000010010
1111111100010000001011101101110
1111111101000010001010000011111
1111101011111111000101011110111
1111111000101100010110101101011
1111110001001001100101111000111
1111110000001111001110011111001
1111100011000001011000100011000
1111101101110000000111101000001
1111111011010101101111011100110
1111111010110010011011010010111
1111111001101011001011110101000
1111111011111101111001111100000
1111111111110000011111001100110
1011110111100010101
111111110101111100
1111111111100101001010001001010
1111111111101011011110010111001
111001000011010101010110
1010001001011010111000100
100110000001011001011100
1111111111011010000001111010110
1111111011011111000110010001010
1111110110011111111100000011100
1111101010111001111010110010001
1001000101110101001111111
10001101000011011100000010
1111100101000101110010000010110
1111111010000100011010000000111
111011101000000000001111
1111101100110110111100001000000
1111110100011000011000101110111
10010011110111110010100
1011010100101101110101011
110000000111110111010010
1111111001111001011010111010111
1101001000100001100110
1111111010010100010110001011001
1111111111001001010111000101010
1111111110111011010011110100001
10110010000000100110
1111111111100101100111000001010
1000011100110111101010
1111111111111010010011111000110
100010101001011101100
1111111111101110000101110011111
100000101010010110001100
100101001011100010110100
110001100100100101000010
101000011001001100010100
1100101001111001001011011
1101010001000101111001000
1111110111011001100101000100010
110011001010011111101000
1000000110110110001011111
1001101100001111011001100
10111111010101010001001000
11101111001000101000101011
10000111110001101111001010
10111111110110100110000011
1010010001110100111011011
101100110100110011110111
1111111010000100010001001001101
1111111000010010001010000010001
1111111000010100101101000101010
1111111010110011101001110100001
1111111111100011000010110111000
1111111111000110101011000000100
1111111111010111110100111100110
100110011000011110
10111011010100111
10100010101111110110
100011111001100101
11010001110111110000
1110011001010010100
10010100101100110001011
11101101100111111000111
11110010100111100111110
1011011110001100001000111
11100100110000111101011
1111111101110100010100101110100
11001000101100011001001110
1011110101011110111011011
1010011000000110001110010
1011001111001101101101100
110101011000011011011110
11111100001011011100100111
100100011101100110110000001
1110111110110010000010011
100100010101010101110101
100010001100000111101110
1111111110000100100110101101101
1111111110100001010000010000111
1111111111101011101100101100010
111010001011010110110
111110111001111000111
1000101110111001
10001110101110010110
1011100110100001010
100111101101101110000
1111111111101101101010000000011
1111111111001001100010001100010
1000001100000000111
1010110111100001110
100000110111101100011
11001110001000010
1000111100110110000110
10110110111001101010010
100010000000110011101100
1101111100001001010011
100001111011000011101000
1001101000011110001100001
1010101001101100110101010
1000100000110001110111001
1111111111100110110100110110010
1101000010000010010001
1101111111100001010011
1010011101101110011101
10011000110111001110000
1010111100100110101
1111111111111011000110110110001
1111111111010000100111000100100
1111111111101100100001010010000
11101100010111111101
1111111111110010100010110101011
1111111110110011110101100010101
100101100101010100100
10001101110100100010
1111111111111010001010010101101
1111111111000110111011010101011
1000101111010011010
1001010001001111111
1111111111011010111110011100101
1111111111110010011011100001001
1111111111101011110110000100010
111111010110011111101
101001000010111111101
100000111100110100011
1110111010011110
1111111111000001111000010100001
1000110011010010010010
10000100110000111101011
100011100001110111
100101101001000101110
111011001011101000000
1000001101001001001111
1001010001010111111010
1111111111001000101000111001001
10100100010110100001
1111111111110110011011010111110
1111111111100011000110011100000
1101110001000001101
1111111110100100101001100101010
1111111110111110111110011100001
1111111111100100110101011101100
