1111111111111100
1
1111111111010101
0
1111111111110111
1111111111100101
110111
100
1111111111100101
11011
10100
1111111111011101
100100
1111111111111001
1100
1111111111111100
1101
100001
101111
110010
11010
1111111111010000
10101
1111111111011111
1111111111101100
1111111111110010
1111111111100001
1011
1010
11011
110
100001
100100
1110
1111111111100111
1001
1011
1111111111011011
1111111111101100
1111
1111111111101110
1011011
1111111101110001
1111111010001100
1111111000101101
1111111111000000
1111111110111100
1111111111111100
1010
1001001
111000
11100
1111111111010110
100
111101
1111111111100001
1111111111110001
110010
1111111111110010
1000
1000101
11110
1011011
10000011
10010000
100000001
110111010
101111111
100110011
1111111101001111
1111110111111100
1111110001110000
1111110000100110
1111111101010100
1101100
111111010
111111111
100110000
10111001
10000000
100101
1111111111110001
1111111111110111
100101
0
10101
1111111111111110
1000
100100
101010
11011100
100000101
111101010
1110110100
1100101100
1101100011
1010110
1111100010000110
1111010110000011
1111011001011011
1111011001110011
1111110111111000
1000101010
10000101011
1100011000
100001011
110110110
11001111
11001101
1111111110011111
100
1111111111110000
1111111111000111
110011
1111111111001111
1111111110110011
0
100010110
111110110
1010111010
10010110000
10011101010
1110011011
10101110
1111110101101101
1111010011100011
1111000110000010
1111000111110011
1111101001000101
1111111011000111
1111010
10001101001
1100111010
100001
1010111111
111101010
1111111001101001
1111110110000100
1111111001110101
1100101
1111111111100101
111111
1111111111110111
10001
11000000
1100010010
10011010100
10110111000
11110010101
11110000000
11000000111
1111111111010010
1111100000101010
1110110101010110
1110111111010100
1111000111011011
1111111100011100
10100001111
10101010111
1001001011
10100101001
1011000100
1111111101100010
1010010001
10001000111
11010011
10111110
1011111
1111111111011101
1001
1111111111011100
1111111111100100
1111111100011110
1010100
1100110100
11000100011
11101010010
1011011000
10000100101
1111110010110011
1111010110011000
1110100110001100
1111000101110000
110010011
101011100
1010000101
1111111011101010
1111110110001000
10011001011
100011111
1111111010111000
1111111111100100
1101110100
1000100101
1100111
10100101
1111111111100001
1111111111011100
1111111111111001
1111110111011100
1111111100000101
10010000010
1111001000
1110111001
10010100000
100011110
1011100000
1111110101010100
1111001001010101
1110011101110100
1111101110100000
10100110110
11111000001
11011101011
1111111111101011
101011011
1111000001
1111111001001110
1111110110101110
1111101000000100
1111110010100010
10100001
1100110
1010001
1111111111011000
1111111110011110
1111111110110110
1111111100101110
101110011
11000101000
1100100111
10011011
1111111010010000
110001100
11011110
1111101001100100
1110100001001000
1111000101100011
111110100
1010101000
10111111001
100000001111
1111111011001010
1111111101000001
1111101110010001
1111110001100101
1111101111001111
1111100010011010
1111100111111010
1111111000001010
1111111010100111
1111111111110100
1001
1111111101011100
1111111110100011
1111111110011100
111100100
1000110011
1111101101010110
1111110111101011
1111111100000111
11110110
101001001
1111110011100011
1110111010100001
1111001011110011
1111101110011110
100110011001
11110111111
11011011
10001001
100001100
1010001001
1111111011101111
1111100110010010
1111100110101001
1111110000000000
1111110010010010
1111111001110011
1111111111011011
1111111111100001
1111111101100011
1111111101101011
1111111010111011
1010000
1111111010110011
1111011011101000
1111111110011110
110000011
111111001
1111111100011010
1111110000110011
1111100101100010
1111010011011100
1111111011100101
10011011011
101011001
10110110110
1111110110010100
1111110010001111
1111110000111000
1111100110000110
1111100011100111
1111101111101000
1111111011001011
1111111010111000
1111111100010010
1111111111110101
1111111111110000
1111111110010001
1111111110100000
1111111011000101
1111110100110010
1111111100000101
1111111000000111
1111110010000101
1110
1001111011
111001
1111100010110001
1111011010011101
1111110010110000
1111110110000110
101110000
1111000101
100110111
1111100111101111
1111011011100010
1111101110000010
1111110010000000
1111110010010111
1111111000011110
1111111100000111
1111111110110111
1111111110110011
1111111111101000
110110
1111111111011000
1111111110101100
1111111110110010
1111111010001010
101101110
1001001001
100101011
1111110001011111
1001000001
10111111000
1111110011101011
1111110001101010
1101110100
1111110101001111
1111110101110011
1111110111111101
1111110111001101
1111111100111000
1111111001010101
111111011
10101000111
111001101
1001100000
1111101
1111111000010111
1111111100000110
100010
110011
1111111111011111
1111111110100111
1111111110001100
1111111111000111
1101000
1010111100
1111111101111110
1111111000000010
1111111110111000
110100011
1111111100101001
1111110
1100010010
1111110100111001
1111101110010001
1000111111
10011001100
110111100
1000110101
1001010011
10100111
1110100100
10000010110
1111111000101010
1111111001100111
1111111101010010
1111111111100000
1111111111010001
1111111110101000
1111111110010001
1111111110111110
1011010000
10001010011
1111110111101110
1010101100
111100011
1010010111
1011010101
100100101
1000001010
1111111011110111
110000010
1111111011110110
1000010111
10100100100
1111101110100000
1111111111000110
1111110010110001
1111110000101010
100001000
1111110111010100
1111111101010000
1111111101101100
1111111011101011
10010
10001
0
10010111
11111
1101100111
1111111010000100
101000101
10101111110
1100011
1100110000
1011001001
1111110011111010
10000101000
1100000110
1111111110111010
1111110111000001
11010000
1111111101100011
1111110011110100
1111111110011010
1111101001111101
1111111011111000
1101111111
1111110110101111
1111110100010001
1111111010001100
1111111001110011
1111111110111001
11
1111111111011011
1110010
1111111010110010
1111110111101011
1111110111111110
10001000
1100100100
1111111101000011
10000011
1111111001000001
1111101010111001
1110001101
10100110
1101110
1010111100
1111111110011110
1111110011100111
1100010100
100000000110
1111101000
10110111101
1111111010010011
10000000
1111111110011110
100100
1111111110010010
1100
1111111111100110
11011
101001000
11100
1111111111000111
1111111000111011
1111110010111001
1010111
1111111010001001
101011111
101000010
1111110100011001
1111110110011110
1111110100011000
1111110101110110
11111000
1111111010110011
10100011
1100101110
1111110001000111
1101011
11011110
1111101101111001
1111110100011100
1111110110111010
1111111101010111
1111111101011111
1111111110001111
111100
1111111111100001
11000010
1011011011
100000100
1111111100101111
1111110111101001
1111110111101110
1111111000010110
1010100100
100110111
1111111001111011
1010100001
110111101
100000
10011
10001010
1111111000000110
1000100101
1111110001010001
1101011000
1111111111000100
1111110101100101
1111111001110110
1111111010100001
1111111100000011
1111111100110001
1111111111011010
1111111111010100
10100
10000111
100110111
1111111010111111
1111110010001010
1111110100011110
1111110111111010
1111101000100011
1111111010000011
1111110101001011
110001110
1111101110100010
1111110101111101
11011110
1001110000
1010001110
1111111100110011
1111111111111000
1111110111101111
1111111111100110
1111111110101100
1111110100010110
1111111110011011
1000010
1010111
1111111110111010
1000101
1111111111101011
1111111111001011
110101
1101011
1111110100111001
1111100010101000
1111101011011010
1111111101110101
1111111001100010
1111111001110101
10111000110
11000001
1001110
1111110001001010
1111110111101011
10111100
1101101010
1111111011111110
10010010000
1111111111001001
1111101100010110
1111111101110111
1111110111011000
1111111100110100
1111111111010101
100110
1111111111100001
1111111111101101
1111111111011000
1111111111110100
1111111101111010
110111
1111111010111110
1111101111110111
1111110000010001
1111111101111001
1101010011
111110001
10000110101
1010010010
1111101111110101
111111
111000101
1111111111000010
1001010101
1111111111101110
1000001111
11001101
1111110100101101
1000011
100010010
11011101
111101
10100
1111111110101100
11110
1111111111011101
1111111111101000
11
10100
1010100
11011001
101010
1111111010000000
10100011
1111111100001101
1111111010100100
101011010
1111110101010000
1110101100
1111111010101101
1000110001
10110
1111110110001010
1111110101011101
1111111100010110
101000010
1100100101
101111010
1111111010001100
1111111111000101
1000101
1111111111011000
1
110
1111111111101001
11000
1111111111100100
110100
11111011
110101010
1111111110111010
111110111
1111111100101111
1111110011000011
1111111010000001
1111111100111110
10111100
1111111001110110
110100100
1111100110001001
1111100111101110
1100011110
111101001
1110100011
10100000001
100000010
1111111011110010
1111111001011010
1111111111110000
0
1111111111110011
1011
1111111111101101
10010
1111111111010100
1111111101001110
1111111110011010
1111111101100010
1111111011000101
1111111000001100
1111111000001110
1111110010101111
1111110110100110
1111110011010101
1111111110100110
1010000111
1101001101
1111111011011110
10001000011
100000000110
100001001
1111110010010111
110000001
1111111100100100
1111110101000101
1111111110000000
1111111111110100
100101
1111111111000110
1000
1111111111110110
1111111111001101
1
1111111110100010
1111111110010100
1111111001001001
1111110100001110
1111111010000101
1111111001110000
1111110100110011
1111110101001011
1111101101001110
1111111010000110
1111100011011010
10101100
1111101000011011
1111111011011010
110010010
1111010011101001
1111100011111010
1111110101111011
1111110011001010
1111111000100010
1111111111010010
1111111111001010
101110
1111111111101101
1100
1111111111110000
1111111111100000
11111
1111111111011011
1010111
1111111101100111
1111111011110110
1111111001001101
1111111010111010
1111111000010100
1111111101110001
1111110000000001
1111100111111000
1111101001010101
1001100
1111101110011100
1111110000111100
1111100100110010
1111110011101001
1111110100001001
1111110010010000
1111111010011101
1101
1100
1001
1111111111110001
11011
1011
10001
1101
1111111111111001
1111111111111110
11000
1111111111100110
1111111111011011
1111111111011011
1111111111101010
1111111101111110
1111111101010010
1111111100111000
1111111110100100
1111111011000111
1111111101100100
1111111111101011
1111111011000110
1111110101100010
1100
1111111111101001
1111111111011010
1111111101000101
1111111111100101
1111
1111111111100011
1111111111101110
1111111111101011
