100
10111
1111111111010000
1111111111001100
1111111111100101
1111111111101000
1111111111011001
110011
1111111111011111
100011
1111111110110110
1111111110110111
11101
101010
1111111111100110
1110
1111111111111000
1111111111110010
1111111111010010
1111111111011000
1111111110110100
10100
1100
1111111111010111
100011
10011
1000000
10
101000
1111111111001000
1000
1111111111100010
1000
1111111111101101
11
1111111111011001
1111111110101100
1111111111011000
1111111111100001
1111111111011001
1111111110110011
1111111110110011
110
111011
111011
1111111110111100
1111111111111000
1101
1111111111011101
1111111111111100
1111111111011000
10011
100011
1111111111111110
1110
1111111111101110
10000
1111111111000110
1011
1111111111101011
100
1001000
1111111111010000
1111111101110110
1111111110001111
1111111100001110
1111111001101111
1111111011101011
1111111000111011
1111110111100101
1111111001000101
1100001
1111100
1111111011000110
1111111010110110
1111111001101110
1111111100001101
1111111101100010
1111111110011111
1111111110111001
1111111111011011
1111111111001110
101111
1010
1111111111100100
1111111111000000
101111
100100
1111111111110111
1111111111101111
1111111110111001
1111111100000111
1111110101111000
1111101110101111
1111101111110100
1111101111010011
1111110101000011
1111110011011011
1111110010110011
101101010
100010010
11000
1101110
1111111010101110
1000
1111111011100111
1111111010101100
1111111100010011
1111111101011101
1111111101011110
1111111101010110
111110
1111111111100110
1111111111110010
1111111111101110
111011
1011
1
1111111011111000
1111110010100100
1111110010000011
1111101000100010
1111101100110110
1111111000010100
1111110100111010
1111111010011010
1111110010110011
11100
1111111000010011
1111110000100110
1011001001
1000100101
111010000
11000010
1111111111010000
1111110011001001
1111110110000110
1111111010110101
100101
1111111111101100
1111111111111110
1111111111110101
101101
100010
100100110
1100111000
11110001
1111111100111101
1111110110001111
1111111010010101
1111111011001100
1111101110100111
1111111000111000
1111110000110011
1111110100011010
1111110010001000
1111110100001101
1111101011011110
1111101101101011
1111001010
1111110110101011
1111101110011101
1111110111011010
1111110000011110
1111110110111110
1111111001100000
1111111110010000
1111111111100100
110110
110000
1111111111011001
1010
101110010
1111101101
10000010101
1111111010010010
1111111101011001
1010001100
1011000101
1111111101110001
1111111101101001
11111010
1111111110111000
1111110111110111
110001000
100010001
111110001
10111010000
1110001110
1111111110110011
110100001
1111111110010000
1111111001101001
1111111100111001
1111111110110001
1111111110010101
1101
1111111111111111
1111111110001001
10001111
1100000110
10011101111
1111001010
10000101
100100111
11100111
1011111000
1111111100010010
1111110111110001
1111111111110110
1111111110100111
10111101011
111000011
1011110100
1110011110
100000011000
11000100111
1111111000100111
101100010
11011
1111111000001000
1111110101110000
1111111111111000
1111111110110110
10011
1111111111011011
10000
100110101
10011001111
10011101011
1100001110
11001000
111100111
111001010
1111111011110010
1111111000010000
1111101110010111
1111110010001111
10000000110
100000110111
1100101101
1101101100
10110111101
101110101
1100000000
11000111
1110010000
1111111000001000
1111110110100001
1111111011101000
11000000
1000
10011
110000
111100
111010001
1100000111
100110010
1111111111011111
0
110001111
1110110
1111110111001100
1111110111101100
1111110001111001
1111111000111010
1111111101100110
1111111001011111
10001100110
110010101
1100110000
1100001011
1111111101110100
1000000001
11000110001
10000110
1111110110010011
1000000100
11110111
100111100
1111111111101100
1111111111011111
1001110
101011000
1111111001010011
1111101110011001
1111110010110001
101000010
110011101
1010011101
110111011
1111111100010010
1000
1111110111001110
1111101001100110
1111110101010010
1111111111011000
1011000
10100101100
1011100000
11000011
1111111001010001
1111011010
110100
1111110101101010
10101010
10011100
111
101
1011
1111111111111010
11110111
1111111010011001
1111110000110011
1111111010100100
10001110
10110111000
1001101000
110010
1111110111111000
101010010
1111111100001010
1111111000000011
1111110010101011
1111111010010110
1110001
1111111011110100
1111101001011010
1001001110
1111111101001100
1110111000
1111111110110001
1111110001001100
1111110111010010
1110101
11101
11
1111111111011111
1111111111110110
1111111100100100
1111111001111011
1111111110001111
1100010010
1000110001
111100110
1111111000010010
1111111011100110
1111101001110010
11001101111
101100010111
101001111010
100000110011
1011110101
1111101100001101
101110100
110001
1000000000
111000010
110111001
1111111110000100
1111101111010110
1111111011110001
1111001
1111111111100101
1111111111110101
110010
1101000
1111111101101000
1111111111100100
1111111101001110
101111111
1111110111000000
1111110101010101
1111110101011010
10001
101000000
11001100101
101010010110
1100010010
11011111110
11011010000
1101011011
11101001101
110101111
10000100
101111111
1111110100100000
1111110100110110
1111110100100100
1111111101101000
1111111110101010
1111111101110011
1111111111101110
1110000
1011000
1111111111011001
1111111001100110
11011010
11010110
101000
1001110101
1111110110010101
1111110111100001
1111101100101101
11001011001
11011100110
11110100110
10010110101
1110110111
10000111111
1100010111
1100111111
10100
1111111110010110
1111110110110101
1111110111000001
1111110011000001
1111111001111110
111110
1111111111101010
1111111111100101
11010011
10011101
1
1111110111101011
1111111001111100
1111110001010001
1111111110001110
1111111000011001
1111101101101000
1111100110110110
1111110001000010
1111010111
10110010100
10111110010
1010011110
10001110110
1010111001
1111111000100100
1111111000111010
11101001
1001
1111000101
1111111101010100
1111110110110010
1111110111001101
101110
1111111111111011
100010
1001100
11001100
11111
1000101100
1111101111001110
1111100011111010
1111111000111111
1111011111001111
1111100000001101
1111101011010100
1111011001111110
10000010
10111000110
10000011
10011110110
1001110110
1000010
10010100
10011011
1111110011101000
1111110111100001
110111011
1111110101001000
1111110001000100
1111110010111100
1111111111101101
10011
1111111111010111
1111111111101001
11011100
110010100
10000001
1111101001111101
1111011000101011
1111101011110101
1111100101100101
1111100101011100
1111001101000110
1111001100000111
1111101010110001
1111010
10111100
1111110011001010
1001110110
1010001010
100001111101
11000100
1111101010010010
1111111111111101
110101111
10011
1111101001101111
1111110110101000
110110
1111111110111000
1101
1111111111000001
10111111
11100010
10
1111101000001101
1111011101010101
1111100110111100
1111110111011010
1111101101111100
1111011101001101
1111011110010110
1111101001100100
11010
1111101101011111
1111101001010001
10100
10011100010
1111010101
110101
1111111011110110
101001111
1111111001111111
1111110000101010
1111100111101101
1111111010111000
10100
1111111111110011
1111111111111010
10011
101010
1111111011001111
1001100
1101001
1111101011001100
1111111010111101
10000010
1111110000011001
1111110011111000
1111111100011011
1101011000
1111110111101010
1111011101000110
1111100100111011
11011111
10110001000
10001010
101000100
111001001
1000110101
1111111000010111
1111101000000110
1111110110101001
1111111101110011
1111111111001011
1111111111010000
1111111111101111
0
1111111101010000
1111110011100101
1111111011111100
1111111100011011
1111101110000011
1111111000100000
100010111
1111011111111010
1111010001100000
1001011110
1011101010
1000011000
11001110111
1111101101010111
1111111100000100
1111111001101110
1111111101010100
1010110001
111100011
1111110011001111
1111110100010011
1111101011001001
1111111010000111
1111111100100111
1111111111100110
0
1111111111100110
1010
1111111011000000
1111110011010011
1111111011001101
1111111110001001
1111110100000001
1111110001011001
10111
1111011100010111
1111101110000000
1111111001011001
1111111010011010
1001001011
10100011100
1111110001110001
1111111100001101
1111110010001011
10001010
1110000000
10010100
1111101100011000
1111101010011111
1111100111000011
1111111100111101
1111111101011001
1111111110101111
1101
1111111111111011
1000
1111111010001100
1111110110001001
1111111110110001
111101101
1111111110010111
1111110000101010
1111110001001010
1111100111101001
1111011110100011
1111100111101101
1111101100101000
11110011
1100101
1111111101111100
1111111110010000
1110111011
1001101100
10100000101
1111111011001101
1111110000010100
1111110001011111
1111101100101001
1111111001010010
1111111110110101
1111111111111011
1111111111111100
1111111111100110
100110
11001
1111111110100010
111001100
1011110101
1111111110100010
10
1111110111011010
1111110111010100
1111111010111010
100011010
1111110111001100
1111111011101111
1111111100100000
100010110
1001110011
10100100100
1110000
1111110011000100
1111111110100111
1111111010011010
1111110000000011
1111110001011101
1111111010101011
1111111100110101
110
0
101
10100
1011010
10001011
1010111100
1111111000
1000001100
1010101101
1111111101111100
1111111100110101
101000110
10010000
1111111111100101
1111111111010110
1111111000111011
1111111110011110
1010101011
11010101111
1101110111
111011101
1001101010
11001100
1111111001111010
1111111010011011
1111111000001011
1111111011101001
1111111110110010
0
1111111111100111
1111111111111000
100000
10001
11101101
111010111
101111011
1001000111
10001001111
11011101010
10010011011
10101001101
11111001111
10101101111
1111011100
1000100001
1111111100100011
1111111110111001
1000001001
1100110101
1001100101
11111000
10001110
1111111110101001
1111111110110100
1111111110100111
1111111110011111
11110
100100
1111111111101111
1111
1111111111111010
1111111111101001
1000001
1110011
110000111
100000110
1000100100
111000000
1011111
1111111011011111
101001
110101000
11001000
11101010
1111111111010111
110110101
100110010
1010001
11011111
10001010
10
1111111111110010
1111111111110010
1010
1111111110111100
1111111111110000
1100
1111111111110111
1111111111110010
1100
1111111111111001
1111111111110100
1111111111011010
1111111111011001
110
1111
1111111111110100
1111111111101110
1111
10111
11100
10100101
1000111
10111000
100000
100000
1100
100011
11010
100001
1111111111010010
1111111111100110
10000
