1111111111101001
1111111111111101
101111
10101
10111
1111111110101110
10101
1111111111111110
1111111111100111
1111111111111111
1000100
101
1111111111010101
1111111111111000
1111111111110011
111101
1111111111100100
1111111111011110
1000010
101
1010
0
101101
10111
1111111111101000
1111111111101111
1111
10010
1111111111101101
100101
1000
1111111111101010
1111111111010011
10101
111
1
111
10000
111100
1111111111000000
110100
101110
1101100
11010010
10010111
1101110
101000
1111111111011101
111001
1111111111011101
1111111111110010
1111111111110101
110
1111111111100011
1111
1111111111111101
0
1001110
11
10
1111111111100001
110100
10010
1010001
10001000
1101001
1110010
11000001
10110011
110011
11000011
111010
1111111100111001
1101000
1111111111111100
1111111111010100
1111
100001
1111111111101011
11100
10000
111011
1111111111110111
10
1111111111011110
1111111111010001
1111111111111110
1111111111110001
1111111111101000
110000
1111111111101111
1111111111011111
1111111111111111
1100010
110111
1111111111010110
1111101000111100
1111100101001101
1111101110110011
1111101100110110
1111110000101101
1111111000010011
1111111001000010
1111110110100101
1111111010011110
11100000
10101001
100
1111111111100111
1111111111001001
1111111111111000
1111111111100101
1111111111000101
101011
10100
111100
1111111111111001
1111111110000100
1111111100101011
1111110111100101
1111110100101001
1111111000011110
1111111000001110
1111110101110011
1111110110011001
1111110101010110
110101001
1111111010101100
1010110010
11011000100
1111111000100101
11101
101011000
101001100
1000000111
11001
101101010
1111111101010000
1111111110011111
111010
1111111111110101
1111111111100011
10011
1111111111011000
1011
1111111000000110
1111111000000110
1111111010110111
1111111001001011
1111111011011101
1111111001111100
1110101000
10000010001
1111110101101100
1100010001
110101010
1111111000101001
1001111001
1111111111100110
1111111111110100
1111110001111011
1101011000
1000010000
1111111111010100
1111111011110110
1111111100101001
1111111111111100
110101
1111111111011111
1111111111010010
1111111111001011
1111111110110011
1111111111110001
1111110100010011
1111111101010001
1000110
0
1111111011100100
101001000
1111111100010011
1110101
1100000101
1100011
1111110011001110
1111110110011000
10001101011
1110010100
10110101000
1010011000
10001110011
10110010010
101010010
1111100111110000
1111101101101110
1111111100110010
1111111111100001
1111111111100011
1000
1111111111011100
1111111011110011
10101011
1111111101000100
1111110011100010
1111110001011111
1111111111011111
110111110
1111111110101111
1111110011011001
1111110100101000
1111111110110001
1111101111010100
11100101101
101101111
1100000
10001111001
1010001101
1111101011000110
10100110
1011100110
10010111
1111011011110000
1111101110001010
1111111010001100
1111111111010000
1111111110101100
1111111111000100
1111111111111110
1111111101001110
10011110
1111111100000101
1111111100110010
111000000
1111111110110011
1111111
100010001
111001111
1111111101100101
1111111011100101
1111111111010000
1111111000010001
1101000
1111111010111011
111011010
1110101101
1111111011010110
110010111
110110011
1111110110101100
1111100010101101
1111110010100011
1111111011100000
1111111111100111
1111111111111111
1111111110101101
1100101
101110
1111110111100011
1
1111111100111100
111110011
1111111111001010
1100000
11001000010
10010101000
1111110000110100
1111101000100011
1111111000011111
1111110010010011
1111101011010000
11010110
1111111101010011
1111111110000011
1011010101
10010000011
100011
1111111111100111
1111101100101001
1111110010111001
1111111111011101
1111111111110110
1010
1111111111010010
11101
1111111101110000
1111111100111110
10000000
110000
110101000
1111111110110111
10001011
10100011010
1111111111000100
1111111011001001
1111101101001111
10000010001
10011000110
11000110010
1111011111
1111111110110101
11011011100
1011010111
100101000
10001110
1011011010
1111110010110001
1111110001111001
1111111101110100
1000
1111111111101000
1111111111000000
1111111100111111
1011111
1111111111010111
1111111010101000
1111110110110101
1001010011
1111000111
11000101111
11011101001
1010001011
1111111000010011
1111111001000000
11001010001
10001111010
1011110001
1111110000100011
1111100111101001
1100011
10001001110
10010011101
1110110110
1011001111
10110100
1111110100010101
1111111101000001
110010
1111111111110001
0
1111111110100011
11110010
1111111110001011
1111111111110001
1111110100111001
10001011
1111111100011001
1111111110111011
1111100010101100
1111110000110110
1111111100100110
110011010
11101111101
100100111001
10011010111
11001110011
1111110101111010
111110100
111000111
1100101101
1111111100001000
1001111110
1010011110
10010110
1111111111111111
1111111111110100
1111111111111001
110011
1111111110111001
11100000
1111111110101001
1111111010001111
1111110001001000
1001000110
1110000110
1111111010110100
1111101000001111
10110011
10010101000
11101101010
1110101101
100101101100
11010101
1011100001
10010001011
100110111
1111110111101011
1111111001011101
110110100
1001111
1111111010100001
11101001
1111111111101001
1111111111111100
1110000
1111111111011101
1111111110111000
1111111110101110
10010101
1111
1111110010000010
1111110110000110
1111111010100000
1111101110001010
10100111
10011000011
10100110000
11100011110
1111110111110000
110101
10010001001
1010111100
1111111001101101
1000001001
1111111101101010
1111110010011110
1111110010111010
1111101000110110
1111110101101011
101101010
100101
101001
1111111111110111
1111111110011100
1111111111011101
1111111111110011
1111111101111111
1111111011111000
1111110100100011
1111111011101101
10110111001
1111110110111101
101101000
1010010001
1000111100
10010101110
1110010110
10001001110
10111101010
100010000000
1101001000
1111110111001000
1111101101010011
1111101011011000
1111111001110010
1111101110011111
1111110110000010
111000111
1111111111011101
1111111111111101
111
1111111111011101
1111111110000010
1111111111101000
1111111101000110
1111111110101011
1001010110
11101111011
100001001111
11011011001
1111110101000111
10000010
1111111010100010
1011001
11010111111
10111101101
10110100111
11011000
1111110000100001
1111101111100000
1111100100011001
1111011010001001
1111101001111110
1111111010111110
1111111011001111
111100001
111001
1110
1111111111110000
1111
1111111110010101
1111111010101001
1111111000000101
1111111110000001
10010100001
11010001
10010100101
100010000011
100010110001
11011001000
11001011111
101011000010
1110011001
10100011000
10001010011
1111110011111111
1111011100111100
1111011100010000
1111100111100100
1111100101110110
1111110100101101
1111111000100111
1101000111
1101110
111111
1111111111101101
1111111111100011
10
1111111101101100
1111111011110111
1111110101100011
100100000
10011001010
1000010011
1000101001
100101011110
101000100011
111001101100
1001010010110
111010101100
1111111101101001
1111111101011011
1111100011100011
1111100111000101
1111011010000011
1111011100111001
1111101010100011
1111100111111001
1111110001111000
1111111100110111
1100011000
111
101101
1111111110111010
1111111111111111
1111111111110111
1111111111000001
1111111101000110
1111111100100001
110011000
10011000111
111111111
1010101010
11110011111
11010000110
10001101010
1010101010
10100011111
1111100101100001
1111100011000011
1111100001100011
1111101101011001
1111100110110000
1111110011111110
1111111000010101
100000
1111111100001111
1111111111010110
10000011
1111111101011110
11001
11010
1111111111101111
1111111111001100
101
1111111001111010
1111111111101010
110001
10000011111
10101010
1111111110110110
1111110111110111
1111101101101011
1111101110110010
1111110010100100
1111011110111101
1111011110010011
1111100110011010
1111011111011110
1111100001101101
1111111010110101
1010110111
1110101101
1001
1111101011111010
1111111111010101
1111111110110011
1111111111100011
1111111111111111
110
1111111111001110
111110
1011
1111111001111010
1111110011101001
1111111010110011
1110
1111111001111110
1111101110010000
1111110101000101
1111101110101101
1111100000001011
1111100011111011
1111101100101000
1111101110110000
1111101000111110
10011000
10010001
1111110001110101
1111111011110011
1111100111010110
1111110100001101
1111110001110100
10111111
10000011
1100010
11010
1111111111111001
1111111111110010
1111111111101011
1111111111110111
1111111010111111
1111110111111000
1111110100000101
1111110011000110
1111111110111001
1111111001000101
1111111101101111
1111111001001101
1111111001101100
1111011110100111
1111110100010111
1111111111100000
1111101100111111
1111110000010011
1111101011011111
1111111001111111
1111111100001001
1111111100101010
1111111111010011
1111111101100001
11000110
11011101
1101001
1100
1111111111111011
10111
1
1111111111110110
1111111101000100
1111110100000110
1111110010011101
1111110010001111
10010101
1111111110001001
1111110010110001
1111011100010111
1111011010011100
1111111101110110
11100100
1111110100001010
1111101110011111
1000100001
1011101010
10001111000
10010010001
1011100010
1100100110
1001100101
101111000
100010100
1011110
10100
1110
10110
10011
10
1111111101101111
1111111100011101
1111111100101011
1111111000101001
1111011111100011
1111100011111011
1111100010101100
1111100111110111
1111100101110101
1111111111101111
100001101
1111110001101010
1111100000101110
1111111001000011
1111101100000010
11110001
11011111001
10000100001
101101100
1111111111100100
11001001
10100011
10100001
1111111111011101
1000
1111111111000111
1111111111110100
100
1111111110110001
1111111111001111
1111111111110001
10001010
1111111010010101
1111110010110001
1111101001011001
1111110101010101
1111101001000111
1111100100101010
1111100000010111
1111110101111001
1111111010000111
1111111110011110
11110111
0
1111111101110011
1111111110000110
1111111010010011
1111111000100001
1111111101101111
1111111111111010
1111111111011100
1001100
1000
10010
1101
1101
11010
11010
1011010
1111111
1111100
1111111111110110
1111111010100001
1111110011111001
1111101111110011
1111111001010110
1111110111011101
1111111101111111
1111111101011111
1111110011000100
10010110
1111111101100011
1111111010000110
1111111011110001
1111111010010010
1111111011111111
1111111111001001
111
1111111111010011
1111111110111011
100100
10011
11100
1
1111111111101001
1111111111011111
11001
1111111111100010
1111111111101110
1111111111110010
1011
10010
11
111101
1111111111001001
1111111111001100
100100001
10001001
1111111111111110
1011001
100010
100
1111111110110011
1111111101100001
1111111111111111
1001100
101111
1111111111101111
1111111111111101
