1111111111101101
101000
1111111111110111
1111111111101001
1111111111111100
1111111111110101
101011
100
1111111111001100
1111111111110000
1111111111111111
10010
1111111111100101
10001
1111111111100000
1111111111110001
10101
1111111111111100
0
0
11
1111111111110010
1111111111100010
10100
100
110111
1010
10001
1111111111101011
1111111111001111
1111111111011101
10100
1111111111001111
100000
11111
1111111111101111
101011
1111111111110101
11100
1111111111111110
1111111101011011
1111111111000101
10011
1111111111000110
1111111100111001
1111111110001111
1111111111111100
1111111111101111
101101
1111111111100010
1110
1111111111111011
1000
1111111111110110
1100
1111111111101011
1111111110110100
0
0
1111111111111001
1111111111100010
100
1111
1011010
10001101
100011100
101110011
101001011
101000101
110000100
101011110
100111001
101100100
100000100
11100
1111111111100100
100000
1111111111010111
1111111111010011
11000
1111111111010111
1111111111010001
1111111111010100
1111111111011101
100011
100010
1111111111010100
1111111111010010
100
1111111101110101
110000
10000110
10011010
111100100
100000000
1111111111000111
1111111101100100
1011000
1111111111000100
1111111110000101
1111111100000100
1111110101100010
1111111110111100
110000000
1111111111110101
1111111100111000
1111111110000011
110110
1000010
101111
1111111111100100
101001
1111111111110110
1111111111111100
1111111111110011
1111111110011100
1111111110111111
1111111101100010
1111111101000011
1111111101000001
1111111011110101
1111
110101000
1111110010011100
1111111100101110
110111100
1111000101
1000001011
1111111100011111
1100101
111010110
1111111010111111
1111111011110001
10100100
1111111110000010
1111111000000001
1111111000110100
1111111101001110
1111111111001001
11000
111110
1111111111000110
11010
1111111101000001
1111111111111110
1111111101010010
1111110111111111
1111110011111101
1111111011000000
1111110100001100
1111111010110000
10000010
10100110001
111010110
1110101001
1011000011
10001001111
10000110010
10001001110
1111111110010110
1111111010110111
1111110110100010
1111111000100111
1111110110011001
1111111000011000
1111111011010011
11
100010
11111
1111111111101110
10101
1111111011111011
1111111101110110
1111110010110000
1111110010000101
1111110110011101
1111101010010000
1111100110100000
1111111010110101
1000010111
110010
1111110011011100
10011001101
10101011101
10101011011
1111101101101001
1111100110110000
1111010101100111
1111010100101111
1111110110011010
1111110110101111
1111110000100110
1111110110010011
1111111011011101
1111
1111111111110010
1111111111111011
1111111111110101
100111
1111111010111010
1111111100011011
1111110101011011
1111111001110010
1111111011110001
1111101011011000
1111011010101110
1111110000111000
1110011010
1111110111110001
1111111011000001
100001100110
1111111101001000
1110011
1111110111000010
1111100111100101
1111010001000111
1111101110001010
1111100101010110
1111111000100010
1111110110100110
110000111
1111111110011001
1111111111100001
101010
1111111110111101
100101
100110
1111111001001000
1111110000101010
1111110101011001
1111111010011000
1111111101111100
1111110000100100
1111100010110000
1
1111101110000110
1111100000001010
11000111100
11110000100
100000110000
1111100111000101
1111101011100101
1111100100101111
1111111010010100
10000100000
1111100111010011
1111111000010010
1100101100
100110110
1111111111000001
1111111111111100
1111111110111111
100000
1111111111110011
111
1111111001101111
1111110001110101
1111111010011010
1111101100100011
1111111011101111
1111101110001011
1111101010100100
1111101111100110
1111100110110010
1111110111011101
1100111101
11011001101
1111111001101111
1111011100111011
1111110100111011
1111101010101101
1111110111010111
1001101111
1111110010000000
1111111100111010
1110111
1111111001010011
1111110110111100
1111111100111101
110
1111111111110000
10001
1111111101101011
1111111010101010
1111111101010011
1111111111111100
1111111000100010
1111110111110111
1111110111010100
1111110001010110
1111110011101101
1111111011101101
100001001
11100010010
1100111
1111111010011010
1111100101101010
1111110011100111
1111101110010101
1111111000001000
111100111
1111111101111000
111100001
1111110101010011
1111110011100110
1111110110101000
1111111111011101
1111111111111000
1111111111000111
1111111111001011
1111111101011000
1111111100101000
1111111100111100
111111111
1111111001101111
1111111111100001
1001011011
1111111101001111
1111111000011000
1111110100000010
1101110
1111101100111101
1111100110001000
1111100100011111
1111101101111110
1111100100101000
1111110001010001
1011110101
1111110110111111
11101111
1000100
1111110001101010
1111100100111001
1111111101011010
1111111011101100
1111111111011100
101111
1111111111000100
1111111101110100
1111111101010000
1111110100000011
1111111001110010
1111101101001100
1111111001000010
10110010111
1010011111
11000111
1010000001
1011000100
1111110101111111
1111111000100010
1111110001011101
1111111100001010
1111100010011011
1111111000000001
1111111001110011
1111101000101110
1111111110010010
10011001
1111101000011111
1111110011100100
110011010
1111111101001110
110
1111111111010100
1111111111000111
1111111110111100
1111111100110111
1111101111111101
1111101111111111
1111111101110110
1111110111111010
110110110
10000000
1000111010
100110010
10011000110
1111111111100110
1001010010
1111110111000110
1111101111100101
1111111001000101
1111111001000010
1111110001010110
1111110010001010
1111110111100110
1111100111100000
1111111001101111
1000100111
100110000
100010110
100010100
11010
1111111110011011
1111111101110010
1111111110100011
1111111011000101
1111110011100100
1000001100
1000101001
1110101
10100111
1111110010011000
1111110111101001
10001100011
1111111101110110
110101001
100011000
1111111001011000
1111100000111000
1111111011101101
1111100111100101
1111111010101001
1111111001010000
1111111011000000
1111111010110000
1111111100011100
1000100111
101011010
1111111111111010
11000
1111111100111100
1111111110110100
101011100
1111111011000110
1111110000001010
1011000000
1111111101011101
1111111110100011
11110001001
110010100
1111111111101010
10001111101
1110101011
10101011010
100110100
1011000111
10101000000
1111110010110100
1111111010001100
1111110101011001
1111111111001111
1111111001000101
1111110011000011
1111111001011111
1110001000
11001100
101010
11
1111111110100001
1111111011110011
10110100
1111111101110001
1111111111110111
10000011000
10111010001
1010100010
100100111101
1100111100
1111111101011000
1111110110000100
1111110100010001
101001001
1010001011
11111100010
101011011011
1111111101001000
1000111010
1110100
10011100100
1111111101101001
1101010110
1110000011
10111100001
1001100100
1111111111100111
101010
1111111110110111
1111111011010001
1111111011111101
1010101111
1010100010
11010001
1111111001100011
10110011101
100011101
1111111000000001
1111101100010111
1111110110001111
1010000011
11010100110
1100101001
1111010001
1111111110001101
10100000101
10110101
1000011101
11101000
10111101
110111011
111100
10000110010
11110001
1111111110110111
1111111111101000
1111111111001010
1111111101000011
1111111110101000
1011111101
11000110001
101010110
1010011
1101101011
1111111111110110
1111110010011010
1111111001110100
10101111000
100000111111
100011101110
1011110110
1111111111110010
1111110111010111
11001110010
100000101101
10000011000
1101000011
1100001111
10011010101
10100010001
1111000111
1001000
10110000
11010
10
1111111110101010
10001
111000000
1101101110
1011101111
111110110
1111111000100000
1111111110011110
1111101001010111
1011110011
10111100
10101110101
1110000010
101011111010
1010001111
1111111010010010
1011111100
11101000010
10100110101
1100111010
10110010011
10110110011
10000001100
1011101011
10011011
1100001
100100
1111111111110000
1111111111011111
11000010
110100101
111110010
1101001111
1001110000
1111001
1111110010101110
1111101011100001
1000001010
1111110100101001
1111101000000110
10110000100
100110001
11100111000
1011000001
11001111111
1100100011
100011110011
100001000101
10011101110
1111000001
1010001111
100010101
10101011
1111111111000011
11110
1111111111111100
1111011
11101100
1011100111
1101011111
1111111011000101
1111111001001011
1011000011
1111110001011011
1111111001111110
1111110000111001
1111110100010010
1111110011010010
1111111000110000
1111101110111100
11011010001
10010011100
100111000001
11000100010
1101101010
10100000111
1011001111
10010010011
11001010
1111110
1111111111100001
1111111111000100
1100
1111111111111110
10010101
10111111
1101101110
1110001001
1111111000001000
1000101
10101010
1010001
1111110110100001
1111110000001010
1111111000000010
1111110111000010
1111100101110010
1111101111101001
101000000
10001001011
1100100011
10001110011
1100101100
1101111011
1111110010110001
1111111011110001
1111111100111001
1111111111011100
0
0
111
110100
100010
1111111111110111
10100100
100001011
1111111011111101
1111111001101110
1111110010010010
1111111101001011
1111111010100010
1111111110010110
1111110100111011
1111101000010100
1111100110110101
1111100010111100
1111100001001001
1111011010101010
1111101011000000
1111101111001011
1111111111010010
1111111010110011
1111110000111110
1111111011110101
1111111010100111
1111001
1001101
1111
1111111111111100
110000
101111
100011
1111111111111011
11001001
1111111110100110
1111111000011111
1111111111000101
1011011100
10010011
1001010111
1111101001111000
1111010101100010
1111100111100111
1111110001111100
1111011110110000
1111010110010111
1111011101001101
1111101110001011
1111100110101110
1111110100011110
1111110001111000
1111110011100110
11100011
11010010
11100
10000
1111111111101101
1111111111100010
1111111111001001
101
1111111110101001
1111111100110010
1111111100111111
1111111011001110
1111111100011011
1111111011010101
1111111100100001
1111111000011111
1111100101110111
1111011111011000
1111100100010000
1111110100010101
1111010010101100
1111011101111101
1111011010001010
1111011000010000
1111100111101111
1111110101000001
1111111110010101
1111111100100010
1111111111000001
1010110
1010000
1001
1111111111001000
100010
1111111111011000
11010
1111111110110111
1111111101101001
1111111101001001
1111111010111011
1111111011100010
1111110101000001
1111111000100010
1111111001100001
1111110110011011
1111110110001101
1111110011110000
1111111011111010
1111111000100011
1111110111101110
1111110101100111
1111110111111010
1111110111111011
1111111101000011
1111111110100011
100100
1111111111011001
1111111111110001
1111111111110110
11101
1111111111100000
10000
110001
100100
1101
1111111111111101
1111111111111111
1111111111000101
1111111111010000
0
1111111110010110
1000
1111111110010010
1111111111001001
1111111110010000
1111111111001111
1111111111110010
1111111111001100
1111111101010100
1101
100
1111111111100110
1111111111100011
100001
111
11111
1101
1111111111111010
