1111111111101011
10100
1111111110111000
1111111111101000
110
101
110001
1010
1111111111010000
1111111111111000
1100
10001
1010
100101
1001
1111111111111011
111100
1100
1111111111111100
100
11011
1111111111110010
1111111111100010
0
11100
1000
1111111111111100
1111111111101101
1111111111010111
1001
11
100000
1111111111100111
100110
10010
1111111111111110
1111111111110011
100001
1101100
11010
1100000
1111
1111111111110010
1
1010110
11101
1111111111101011
1000101
110111
1111111111110101
10000
1110
1111111111100010
101001
1111111111100011
1111111110111011
10010
1111111111110111
1111111111100110
1111111111001101
1111111111111011
1111111111111001
1111111111101110
1111111111111011
10110
1111111111001111
100001
1111111111101111
1111111110001110
1111111111010100
100100
1000000
111010000
111000000
101000110
110010
10
1111111111111000
1101
1001011
1111111111110011
1001
10
1111111111100101
11001
1111111111101010
1000111
1001
1100
1111111111101000
10000
110100
11100000
1101000
110100111
11001101
1111110
101011000
10010000
10000000011
10001011110
1111000100
1100111100
11100100
101010011
110010100
10110000
10110000
10011010
1111111111111111
10010
1111111111110010
10111
1111111111011110
1111111111110000
101001
1001
10010111
1001000
1010011
110111110
1100100010
10001101000
11011101
1111110111101110
1111110100000111
1100001111
11001111011
10000001010
111110000
1010101010
1111111101010111
1111110100010011
1111111111000001
1111111001110011
1111111010010111
1111111010100100
1001101
111101
1111111111110011
1001011
1111111111101010
0
100011
1111111111101101
1111111111011110
1111111000111010
1111111011100011
1111111000101100
1111110001000011
1111110010000101
1111101100010010
1111111000100101
1111110010110010
1111111000101101
1111110101110010
10010111
1110010100
10101110100
110011111
1111111111011000
1101001111
1001010101
11011000
100010
1110010
110010
110
101101
1000000
1111111111010100
1111111111100001
1110101
110000000
110111
101011
1111111101010100
1000011111
100001100
1111111001011110
100000010
111001110
10000100000
10001100000
1111111111100011
1000101
1010010100
111100
1111111000100000
1011000101
1001111111
10011100
1110000001
110100010
1101001
1111111111100101
1111111111111110
10111
1111111011011001
1111111111001011
1111111010001101
1110100
1111110100111110
1111111011101111
111011100
1000100
10011100001
1111111010001001
1111110101001001
1001111010
10000110000
1110110111
10110111
1111111001010110
1111111110111110
1111110011000001
1111111011100000
1111111111101011
1111111111010010
1111111101011011
1101000110
110101011
1001010
10
110000
1111111111000011
1111111011011111
1111111011011110
1111110100101110
1111111111101000
1111111010001001
10001101101
111010100
1111111000000001
1111111011000111
1111111000000001
1100000100
11001111011
10011011000
110110101
10010000
1000011110
1111101011110110
1111110101000110
1111110010000001
1111110100111010
10011010110
110101101
1000111000
1001101001
100111101
1010
111
1111111111101101
1111111101111001
1111111011111101
1111111010100011
1111110011110111
1111111100000000
10110110101
110011001
1111101101001010
1111111111111110
1111111111001100
1001000010
100001100
11001101001
10111011110
1111111101101000
1111111001111001
1111101010110110
1111101001011101
1111101110100101
1111110001011010
1010000001
11110010
100101101
1100110001
110011001
10101
1001
11
1111111110011101
1111111010100100
1111111011101000
1111110110111011
1000000000
100100001
1111111110001100
1111110010101011
1011000000
1111101101101101
11110110
100000100100
110000110101
110011100010
1111111010100000
1111011110011010
1111111001111010
1111110010010011
1111111011001000
1111111010110001
110011010
1111111001110001
111100101
100111001
111101011
1111111111011101
100111
110010
1111111101111011
1111110111100010
1111111110100101
1111111001111000
1111110000010000
1111110001011111
1100011100
1111111100111101
1111101000011101
1111111011000001
1111111010100010
1111111100110100
111111001000
100011011001
1111101111001010
1111011110010011
1000101
1111110000010101
1111101010000010
1111110111010110
1111110011011100
1111110111101101
111000100
1001010001
110111011
1111
1111111111111110
0
1111111110000111
1111111001100000
1111110110100110
1111110010110011
1111111000111010
1111111111001101
10110
11110010
1111110100000000
1111111101011011
1111101011101110
11100011100
1011000100010
10111011111
1111100101011111
1111100001110011
1111101100101100
1111100111011110
1111101000010000
1111110101110001
1111100111011100
1111110000100100
1111111011110100
1011001000
1000100
1111111110111101
1111111111000100
1111111110111111
1111111110100001
1111111001010110
1111100100100110
1111111100100101
10001001
1111110011100001
11001011
1111101010000000
1111101101111110
111100100
1111101011
1000000001110
111100000000
1111111011
1111100100101010
1111011100101000
1011000001
1111101100100101
1111111110010111
1111101101100000
1111100011000010
11111100
101000010
1000011100
1111010
101011
1111111111010111
111010
1010011
1111111001111010
1111101111101001
1111110010100110
1101001
1111110001001011
1111100101000111
1111101110010011
1000110
1100111111
10101101011
100000110110
11001101000
100101010
1111010111111010
1111110000000010
1111101111111111
1111011100001011
1111101011100001
1111101110100001
1111100100100110
110010
1100110011
101110110
1111111111100011
1111111111000100
1111111111100101
11010010
1000001
1111111011110101
1111110011100110
1111111100001110
110111011
1111111011001001
1111110110000000
1111100110010001
1111110110000100
11111111110
10101101111
10111001010
100000101010
1111000111
1111110011110111
1111110100011111
1111100110110010
1111011100001111
1111101001111011
1111110011110110
1111100110111101
10000010101
11001011001
1000011110
1111111110110100
10100
1111111111110000
1010110
10111110
101010000
1111110101111101
1111110001111100
1111111111100110
1111111101001111
1111111110110101
101100111
1111111011111110
1111001011
11100110011
100101000000
100100010101
1111110011011111
1111100111001000
1111101001010111
1111110010111100
1111111010111000
1111101011011110
1111111010011011
1100001
10111110110
10101000111
101000100
110100
10111
0
10010
1100
1101110010
1111111100100001
1111110110010100
1111111001011000
1111111001011111
1111101111110111
1111111101111000
1111111111101101
11101001011
11110110101
100011001111
1111110000
1111011000100000
1111010100110001
100010000
1111101111110101
10101011
111111
1111111000110010
1111111001000100
1101000101
111100
1111000
1111111111010101
11101
1111111111010110
111001
1111111110011111
1111000001
111100011
1111111011111111
10100111
1111111100101010
1111110111111110
110000110
1111111110111100
10001110001
1101010100
1011100111
1111111001111010
1111101100110101
1111100010111110
1111110110001100
1111101011101010
1111110000100011
1111111110011100
1111111000001100
1111111100010010
111100000
1111111110010100
11000001
1111111111111111
1111111111010101
1111111111101110
1111111111011100
1111111110110000
1111000000
1100111100
1110100000
1000100111
11111001
110110001
1111111000010001
1111110101111110
1100100001
11100111010
11011000110
1111111101000011
1111110100010111
1111111001010100
1111110101000100
101100101
1111100110111110
1101011010
1111111110001110
10011
1000
1111111011011110
11101
11001
100010
10000
10101
1111111111100001
1001000001
10010001111
11010100
11000001100
10110101100
10111101001
101010001
1111111011011010
1111111101100001
1010100000
101001101
1110111101
10110000000
1111111100010001
1111111001000000
1111111110100100
101111
10010001110
100111111
1111111110101100
1111111111000111
1111110011111111
1111110111010100
1
1011
101000
1111111111100000
10001001
111001000
1100100101
1111111110001100
1001000110
10001001111
1011010100
10000011
1111111110000110
100011010
1111110111000000
11100111
11000111011
11000010010
1111110100010111
1111111010001100
10000001101
1111111111100010
1010010001
1111010
101110
1111111101011100
1111110111000001
1111111101111001
1111111111010011
1111111111111000
100111
0
1000110
100001011
1001010111
10101000000
11010000111
1000101010
1111101110110101
11111011
1111010
1111111000001110
1111110000110011
1111111101000000
100000010111
10000111111
10101101111
101001101
1100100000
1111111100111101
1111111110100111
1000101010
10011001
1111111111110001
1111111111101110
1111111111010010
100010
1111111111110010
1111111111111010
1111111111111000
101101100
101010110
1110001110
11111001100
100011001011
10000010
1111111111101110
1111111110110111
1111111001011100
1001010111
1111110111110010
100111101
10001
100110000
100000101000
10010110011
1111111001
1010000000
110000111
110100000
100100010
1111111110111100
1111111111111001
1100011
10101
1001
100101
1
100011111
101101011
1000011111
111100101
1110110
1101011101
1101101111
1111101011000110
1111110001001010
1010100010
1000001010
110111110
10010111110
1101101010
1100010011
111111101
1111010110
11010010
1111111110110110
1111111101101101
1111111100100001
1111111011001101
100100011
1111111111010110
1111111110111011
1111111111000001
1111111111110000
110100
1111111111111100
110010
1111111110111010
1111111111101000
1111111010000110
1111111101111110
111011001
100001010
11000100000
100010001
1111110000000001
101001010
1111101100111010
1111111011001110
1111111011110110
1000010
1111111100100000
100110110
1111111011101000
10000010
1001001000
1001100000
101101010
1
11111
111
110011
1111111111111101
100110
1111111111011011
1111111101011000
1111111010010010
1111110100101011
1111111011100000
1111111010111111
1111110100011101
10001011
1000001011
100010010
1111110011011000
1111110001011100
1111111011111010
111100
1111111001110011
1111111010100101
1111111101001001
1111111101101000
1101010
10001101
101010
1111111111111000
1111111111111001
1111
10
0
1111111111010010
1111111111110100
1111111111100100
1100
1111111111000011
1111111111110010
1111111111011011
1111111110010101
1111111110111001
111
1111111111101010
1111111111010000
1111111111110110
1111111101010101
1111111100010000
1111111101000000
1111111101011001
1111111010111100
1111111101111001
1111111101011111
1111111101110110
1111111111100111
11001
1111111111101011
1111111111001101
1111111111111010
1111111111111000
