1111111111001001
1000
1100
1111111111100011
1111111111011110
11100
0
1011
1111111111010011
1111111111100110
1111111111100010
100110
1111111111000110
1111111111101101
10011
1111111111011001
1111111111110011
1111111111101001
1111
1111111111010101
110111
1111111111101100
101
1111111111011011
1111111110111110
110001
1111111111111000
10110
100
1111111111100110
1111111111111010
1111
100110
1111111111011101
1110
1111111111010111
1111111111111001
1010
1111111111101111
1111111111101011
1111111101010101
1111111101111101
1000011
1011101
11100011
101111
10101
1111111111110000
1111111110100011
1111111110111011
111000
101110
1111111111101011
10
1111111110111001
1111111111110111
1111111111111010
11110
1101
101100
110011
10001
11101
1111111110100010
111110
1011100
1111111110111001
1111111101001010
1010100
110011011
1000010011
111100001
110101011
1111110111010000
1111110101110000
1111111011011110
1111111110100100
1111111011010001
1111111110101100
1111111110100100
1111111111110100
1111111111110010
110
10
1110
1000000
1000110
1111111111001111
11001
1111111111001000
1111111111011101
1111111111010101
111110
1111111111100010
100011000
110110101
10100110000
10001001100
1100011
1111111101100001
10010111010
11100101110
100100001
1111111011111010
1111111111010010
1111110001111010
1111110010000101
1111110100010110
1111110111100101
10100
100111
10
1111111111011010
1000100
10101
100011
111010
1011101
10011100
1000001101
11010011011
11101111011
11010100011
10000101110
1111011100
10101100110
1110001001
1110001110
1111011010
100111011
10100101000
111111000
1001101101
1111110111100011
1111110010101111
1111100101101001
1111110000111101
1111111011100011
1111111111111111
10000
1111
10001
1100
111110
1100111
10000001
100011000
1101111101
10100001011
10110111000
10111011110
1101001000
10011001110
1001111001
1111111110010010
1111111000010011
1101001101
10111100111
10011101110
1111111101111110
10100101000
11001101
1111111000000010
1111110100000001
1111110010100100
1111111001110010
1111111111101111
1111111111111000
0
1100
1111111111111011
10010111
101110110
101101110
100010111
10000000100
1111110110011011
1111111100001110
11011110110
11001000011
1111111110001100
11111000011
11100100001
1001000000
1111111001011000
11010
11011111000
10010000010
1011001110
1111111111100100
110110110
1111111001011010
1111111011001001
1100
1100010
111011
110011
1001110
100100
100111001
1000110110
100111011
1111111111101011
1111111101110010
1111110110111101
1111101000101010
1111101011010100
11101001011
1110011111
11011111
11011111111
1110010001
1000101001
10010011
1111111010011110
1000011000
1111111111011010
1111111100010110
1111111001011101
1111111011110011
1111110001111100
1111110110100011
10000010
110011
111001
10101110
100001
1000110111
100001110
1111110110111111
1111110011000110
1111110111000101
1111111100001011
1111111010100100
1101110010
1001111
10101000
1111110111000101
1111110111101100
100100001
100000010101
10100101110
1100000
1101000011
1111110000111110
101001111
1111110111100010
1111111000010010
1111101000101001
1111111100101111
1101011
1000110
1111111111111101
1101101
101100101
10001000
1111110101010000
1111011110101011
1111011111000001
1111100010101101
1111011110101110
1111010101011000
1111001000011011
1111001010001010
1110111001111000
1111000110010001
1111011111100000
1111111011001100
10010000010
111110010
10011011101
1111111001011110
1111110100001001
1111111011111111
1001000001
1111110011101111
1111110000000101
101001010
1101
111110
1111111111111000
10110010
111001101
1011111
1111100111010000
1111001110100001
1111000111001010
1110110001100111
1110010101010010
1110100000101101
1110101110101110
1110101010111100
1111000110111010
1111111000110100
1111110011100000
1111101000111101
1101101010
11101111110
1111111101000010
1111111001011010
10011100001
101010000
1111111000000100
1111101010011101
1111110111000000
1111111110010110
101110
1111111111011000
10110
1101111
111011110
1010011
1111101001011011
1111010000100110
1111001101000110
1111001110011011
1111001001000100
1111011101110110
1111100110011011
1111110110001110
11111110
1011101
10010010100
10011111000
10000110
10101010100
1111110111111000
100100010
10001101110
1111111111000011
1111110101010101
1111110010110101
1111111000010010
1111111011100010
10
1111111111010111
11110
11101
11101000
111000
1111110000111011
1111101000011011
1111100100111001
1111111001011000
1010100000
1010101001
11111100000
11110101110
11001100110
100001110
10011011000
11100101
1111111011101011
1111110011100011
1111111100100010
10010010
1111111101100101
1111110110100100
1111111010111001
1111110010100000
1111111011100100
10101110
1110110
10111
10000
10100
11010100
101011110
101000
111000010
1011001110
1110101111
100001111111
11011010010
11010001101
10110000100
1110011100
1111111111110100
1101111001
1111111001101110
1111111001000111
1111101101010010
1111111111001111
1010101010
10110111101
1001111
1111101110010111
1111110110000100
1111111110010101
10011000
101000
10101
10011
1111111111010110
1011101
110011000
1101100101
10101110111
110101111101
110011110001
101000000011
10000101011
10100001011
1111111100010001
1111101111001001
1111101101111110
10000100011
1111111111101001
11100111
1111111000001100
100110000
1111110111010101
1111111001001101
1010011010
1111111011110001
1111111010111101
1111111010100100
1100100
11001101
1111111111100111
110010
1111111111111100
110
1011011001
11010001010
100001001000
100001110011
1111110011
1111101101101110
1101100
1111101010111010
1111110010011011
1111111101100111
1010001111
1111110110111010
1111111011101001
1111111101111101
1111100101101110
1111110011110100
1111110101100001
1111011111001011
1111101101101010
1111110011111100
1111110110101110
1111110101100000
10000010
10110111
1111111111011101
1010
100
10010000
10010001110
1111000000
111110111
11101000
11011010011
1111111011101101
1111110101011000
1111111101101100
100111001
1111111010011010
1111110110101111
101010101
1111110010111000
1111110001011110
1111110001110101
101101001
10001000
1111101100000111
1111101110000001
1111110100100110
1111110111110101
1111110111000001
10010111
11101101
101011
1111111111011111
1111111111110001
10110110
1010010011
1010
1111111110000110
1111111000110110
1111111000001011
1111101110101010
1111110000110011
1111101000001010
1111111001100101
1111101111100111
10000111
1111111001111101
1111111010011100
1111110110001001
1111110011001111
1111101110011011
1001010
1111110001000111
1111110011001100
1100110101
1111111100000011
1001100
1101111001
10110011
1111111110111001
1111111111111010
110
10111111
1110111110
1111110010100100
1111111100110110
1111110101011101
1111111101000001
100011110
1011011000
1111110111111111
11001100
1111110111010000
1001110110
1111110011010110
1111111010100111
10000
1001111111
1111111110000000
1001100010
10110111111
10000001111
10001011111
1111111111000001
1000011111
1100101111
1110111
1011001
1111111111001111
1111111111010101
1111111000101111
1011100111
111111000
1111111110000000
111111
1111110110111011
1111101001010000
1111111001011100
1111110100001100
1111111110000001
1111111111100000
10000011010
1001000110
1111111110000000
11001101101
10101101000
1111111100110010
1110001000
1000100100
110100110
11011111
1111111010100100
1100000
111010111
1001011
1000111
111100
1111111110011110
1111111000011111
11100100
10000001100
1111111011100111
1111111110101010
1111101100110001
1111111110010101
11110101
1111111011110000
1111111100011011
1100001011
10001100000
1010110100
1111110010000111
1100111000
1111110001111001
1101110111
0
10000100
1111111011100001
1111111110100111
1111111011101100
101011110
100100010
1000000
111
1111111111100101
1100
10111001
11100000
111011
1111111111001000
100110110
10001011
1111110000101011
1111101111011110
1101010101
1111110010010101
1111101010011110
1111111001111000
1111111010011100
1111100100110100
1011011000
100100111
1101110110
11111010
10001101
1111111000000000
1111111011011000
110111111
111110101
1011100
1111111111000000
100000
1111111111110110
100
1000110
1010101
1111111111011100
1111111111110000
1111111111011000
110100110
1111110011111000
1111100100110100
1111111001111101
1111110010001011
1111110111100100
1111110010011011
1011101010
1010100000
1111111000011010
1111111001110010
1111101111011110
100010101
110110100
1111110011011111
1111111001100010
1010010
1
1111111111111101
1111111111101110
11001
1111111111111001
1111111111111000
1000101
10101011
1001001
10000
1111101001010001
1111110000101101
1111110011100100
1001011011
10001011
110010
1111111001010111
1111110101011011
1111111110100101
1111110100100110
1111110101000111
1111111001111001
1111101101001011
1111110010011110
1111111011110000
1111111111100111
101100110
111001101
1111111111001011
101
111101
100010
10011
1111111111110101
10111
1101010
111110
1111111111111111
1111111011000001
1111111011000110
100011111
10110010000
1111111101111001
1111111010111111
1111110011001001
1011110111
11100110000
100001011
1111110011110100
1111111011110111
1111110000010011
1111110010100101
1111111000000111
100011011
1000100
101000001
11010101
10010
11001
1011
11111
10000
1111111111011001
0
10111111
10101
1111111100001011
1111110111000001
100001011
1101000100
100110011
1111111111011010
10011100001
10011011101
1011101110
1111111100000011
1111110101000011
1111111110110111
100110010
10011110
1111111010010000
1111110110011000
1111111101110011
11010
1111111111011010
1111111111100111
1111111111110011
100001
111
1111111111011111
1111111111101111
10001
1111111111001110
1111111111011001
1111111100110101
1111111010011010
101110111
101110001
111100011
100110101
1111111010111000
1111111110010101
1111111011111101
1111111111010010
100101110
11010100
1111111110000111
1111111111100001
1111
1000
1011100
1111111111110111
1111111111111110
111
1111111111111110
1111111111101000
110010
100101
1111111111100110
111001
10101
1111111111110100
1111111111000110
1111111100110110
1111111100111111
10010
1111111111101011
1111111111111100
1111111110011100
1111111110101100
11000
1111111111011111
1000000
1111111111110111
1111111111010100
10
101001
1111111111110111
100010
1111111111001100
1111111111110010
110101
110101
1111111111010001
