10000
1111111111010110
11101
1111111111010001
1111111111010110
100111
101100
1111111111110011
1111111111100111
10
100
1
1111111111111111
1100
1101
10001
1111111111111101
11
1111111111100001
1110
1111111111100000
100011
1111111110110010
100100
1111111111101101
1111111111010011
1111111110111011
11101
1111111111001110
1111111111011101
111
1001110
111
1010111
1111111111100011
101
1001111
101101
110010
1000010
1101100
10011100
110011
1111111101110100
1111111100101001
100100
1111111111111111
10001001
1011001
1000110
1111111111101100
1111111111011001
10011
1111111111110000
1111111111100100
11011
10101
1111111111111011
101110
10
110001
10110
1111100
100011011
11101001
1101001
1111111111000001
100011
10010010
110
10101
1111111111011000
1111110101100010
11111100
10011000
1111111110000000
1111111101010001
111000000
1111101
1000
1111111100000111
1111111100110110
10
110
1000000
1111111111011011
1111111111110011
1111111111010110
101001
11000
11011000
1100011
1111111110110010
10010101
10011000
1111111111110011
1111111001011001
1111110100001110
1111111101001101
110101011
1111110101101111
1111111110100010
1100100010
101100001
111010
100000
1111110
10111100
1111111101111010
1111111101100000
10101
1111111111010101
1111111111011110
1111111111101011
1111111111011000
1111111111111011
1111111111100001
10001010
100011100
1111111101111000
1111111110111111
110001011
1111111000011101
1111111010001001
10110100
1110011101
10011110100
1010010100
111000110
1000011101
1111110001000101
1001011
1111110101011111
1111111100111001
1111111011001001
1011111
1111111111010000
1111111111100010
100111
111000
1111111111110110
1111111111101100
1111111111001100
10100
1111111111001101
100101001
101010000
110011000
1100100101
100100101
111100001
10010100001
1101100011
101100011
100010111
1100101100
10011101
10001010110
10010000101
11001010010
1111111010010000
1000010
111000111
1001010101
1010110110
100011010
10101011
101100
1111111111001110
11
11111
100000
1111111011111011
1111111001110100
1111101011001000
1111101011100110
101110011
1111101110010101
1111100000010000
1111111000011001
1111111111101001
11110101
1111111000001111
1111111111000010
1111101110101110
111110100
1011111
1111111111110010
111000010
10001000110
1011110110
10101000001
10111110101
1010111000
1111111111110001
101
1111111111011110
1111111111110101
111111
1111111111100001
1111111010000000
111100
1111110000000101
1111111000111111
1111111000001000
1111110100010011
1011010
1111111101010001
1111101111001010
1111101011110011
1111110011111010
10
1111111110100001
1111111110110001
1101111101
10001010
1111111111111100
100111000
10011010
1111011001
1101000100
1110000100
11110
1111111111111110
1111111110101101
1111111111110100
10010110
1111111111010101
1111110111001110
1111110110110110
10000011110
1111111011110001
100100111
1111111010011011
1111110000101100
1111111100011101
1111110111011100
1111110111011111
1111100110000100
1111111100011101
1101111101
1111111111000010
11100001
10100110
111101001
10000011
11111011
1110010110
10011101111
110110110
1111111111001100
1111111111111001
1111111111100111
1111111111101011
1111111110010000
100011
1111111010001111
1111101111001011
1111111000000011
1111110100011000
1111110100101001
1111110100010110
1111101010011001
1111110010100110
1111011111001010
110101
1100000000
10001110001
1111111110001101
111001100
100011100
1100111001
10001100110
10101110000
1111111110111000
11011110
10110001011
101001100
1111111010100100
1111110111001001
1111111111110011
1000
1111111111011000
111101
101100100
1111111010110011
1111101110100101
1111100100010010
1111010110010010
1111110110011001
1111101100001001
111000010
11010000110
101010100000
100110000011
10110010001
1100110110
11000101
1111101101011100
10110101
1111111100000110
1110011001
101011111
1101101000
11110010
1111111010110000
1111111000100111
1111111110001011
1111111111011010
10011
11000011
1011010101
10011011011
1110110000
1001011
11011101010
11000001101
110100000010
1010010111000
1011010000111
1110101000101
111100011000
100110110000
10101011100
1000111
1111111111100000
1010101
1111100001
1111110111110000
11011000
1010110101
10001011001
100101100
1101110
10001101
1111111111011101
110000
101000
11011110
10010010100
11100110100
110010001101
110101110110
1011100011001
1111010110111
10001011100011
1100001011101
111000000100
1000010101
1111101011110110
1111111101000011
1001101
1111111000110100
1011010100
1111111100011010
1101011001
10111110
1001
1111111110
1111110111
1001101110
1111110100101001
1011011
1111111111111100
10111
1111010
1000110
10011101100
101010101100
1000111001111
1010110011000
1100101000011
1010010101101
101010010111
1111110101011001
1111101101010101
1111111010010111
1111101010011001
10001110
10000001000
1001000110
1111111001110010
10011001000
10010010011
10111100011
1111111011010010
1111111100100000
1111110101111000
1111110110101001
1111110001011100
1111111101101011
1111111110010000
1111111111100111
0
1111111111110001
10110011010
11111111100
100110000000
11011001100
10011111110
11100010
1111010110111010
1111100010010100
1111110010001000
1111100010100000
1111101101011100
1111101001100111
1111110000010100
1111101111000101
1111111110100101
1111111010110011
1111111010110110
1111111100011010
1111111110001100
110110
1111110110110000
1111110110110111
1111111101011110
1111111010101010
100000
1111111111110010
10
1111111111101111
1010111000
1111100101
10000100
1111110100110000
1111101000001111
1111110101000101
1111101011111110
1111101100010100
1111110011011010
1000010110
1111111110001100
1000010100
1111111101010000
1001001
1111111101010010
100100
11100001
1111101101001100
1111100110101011
1111111001011011
1111110010011100
1111101111111001
1111111110100101
1111111001111110
1111111111101100
101100
1001
1111111101011101
1111111011101010
1111111101101111
1111110011111111
1111101001111000
1111100011110100
1001001000
11001111
110100001
1111001111
1111101100000010
1111110010011000
1111101110110010
1111111101010001
1111111101110000
11010110
1111101110101000
1111101000101101
1111110001101010
1111110000000110
1110
1111101101011011
1111100111100001
1111110101111111
1111110011111000
1111111111101111
1010
11111
1111111100101000
1111110100101101
1111101101000100
1111101010111011
100101011
1010100001
1001111001
111
1001100001
1110111010
1111111000111111
1111100110101011
1111101011110100
1111101010100001
1111111110010111
1001101
1111111010111011
1111111001010111
1101111100
1111111101010110
1111101110011001
110101
1111111110010110
1111111000010000
1111111011001001
1111111111011011
1010010
1011
1111111110011010
1111110010010100
1111110010000100
1111110011001011
110000111
1000101101
1000010
1111110111100000
1010110
10100000011
1111111111101100
1000111
1111110101001101
11100100
1111111100010111
1111111110111001
1111111101100001
1111111100011110
1110000011
111010100
1111110010001110
1111111000110100
1111111101010110
1111111000110110
1111111110010110
1111111111011010
100010
1111111111001001
1100101
1111110101100011
1111111110000011
1111110101011000
1111111111100010
1010011
10111011
1111111111100001
1111110101110111
110110011
1111101011
1111110110010001
1111111101001010
100011111
1111111010000010
1111111010100100
1111111100101100
10111101
100001001
1111110100101100
1111110000011000
1111111100000011
100101011
1111111100100110
1111111111011011
1111111111010101
1100
11
101001
1111101101010111
1111110111101100
1111111011100110
1111110111001100
1111111010001011
111101111
1111111010001001
1111110110101111
1111111010111100
111000000
1101011000
1111110001111100
1111000101
1111110010000111
1111011101
100100011
10111000
110011110
100111101
100011011
10010001
1001011101
1111111101111110
1111111111000110
11
10
1111111111111010
1111111101001100
1111101111110100
1111110010101111
110000
1111111110010011
1111111001111110
1111101101100101
1001001100
1111111011100001
11010100
1111101101010010
1001001001
1101101000
1111110110111010
110101000
100001100
1111111011011010
1111111010111010
1111001000
111111
110101001
1111111101000011
101001
1111111001000000
1111111111010110
1111111111011100
1111111111010101
1
1111111100111111
1111111110100110
1111110100101011
1111100101000100
1001111001
1000111
1111111110110000
111010001
110000101
1111110110111111
111
1111111011110000
1111110011110000
10001
1111110010001101
1111111101110011
1111111101111011
1111110011010110
1111111111001011
1111111110001010
1111111111000101
1111111011011110
1111111000010100
1111111001110110
11110
1011
11000
111
1111111111010101
1100000
1111111011101010
1111101100111110
1111101001111000
1111110000011111
1111110111010001
1111101110100100
10000001100
11111111
1000101111
1111101100001111
1111000
1111110010011111
1111111110101110
1010100011
1111110011111010
1111110110100011
101011
1111111001101010
1111111101101110
1111111101010100
1111111001000110
1111111011101010
1111111111111011
110
1111111111111010
1111111111110010
101100
1111111101001101
1111110111000000
1111111001111100
1111110110101100
1111110010110111
1111111110000001
1111111010100110
110111100
1100101
10110100
10000110111
11010001000
1111111101001000
1100100001
1111111101000101
110001110
100001000
10101001
110100001
110100100
111101100
1111111101111110
1111111110110101
101
1100
100
1111111111101111
1011
1111111111101011
1111111101001001
1111111100011101
1111111000101100
1111111011101111
1111110101011011
1111110100011101
1001101
101101010
1111110111010000
1011000010
1011000100
1111111010110001
111011
1100101100
1111110111
1110101
110010010
10010010001
110100010
111101
1111111111101000
1111111111101000
1111111111011101
1111111111100011
110
1111111111011011
1111111111000001
10111
100100
1001111110
1000100101
1111111111101101
10100000
111110011
111101
1111111100101011
1111110110111110
1111111110000110
110110001
11000010
11110111
1000111100
1001001011
110010010
101101110
111100101
11111110
11001
1111111111110000
110010
100110
1111111111111001
1
0
1111111111100110
1001
1111111111100011
1
1111111111000111
1111111111011010
1000
1111111111101110
1110
10111
1101
101000
10101
1111111111011000
1111111111011010
1111111111101111
10001001
101011
10000111
100010
101011011
1111111111111011
1111111111000001
100100
110
1111111111100110
