100111
1011
1111111111111111
1111111111110101
1111111111011111
11011
1111111110110011
1111111111110111
111111
1111111111100111
11101
1111111111100100
1111111111100010
1111111111111100
1111111111111101
10010
100000
11100
1111111111111010
101110
10100
110100
1111111111011010
1111111111101110
11111
111011
1111111111100000
1000
1111111111000100
1100
10
1111111111011010
10110
1111111111110010
1111111111111100
1111111111000000
1111111111001111
1111111111001001
0
10101
1111111110010000
1111111110111100
1111111110101000
1111111101101000
1111111110010111
1111111111110000
11000
1111111110100110
100
1111111111001101
1111111111011100
0
1011001
100011
1111111111100100
1110
1111111111110010
1111111111101110
1111111111101100
1
110010
1111111111010101
111
1111111110110000
1111111110111110
1111111111000000
1111111111010110
1111111111100010
1111111101110011
1111111101110001
1111111110011010
1111111101011100
1111111100101110
110100
1111111111011001
1000110
1100010
1111100
101010
1111111111011010
10100
1111111111110001
1111111111110001
110000
100110
101101
1111111111100001
110
1111111111010001
1111111111111101
1111111111101010
1111111111010100
1111111101011110
1111111110011001
1111111101010110
1111111111001010
1111111010100000
1111110101111101
1111111101110010
11101010
1101111011
10011100100
111100100
1000110011
1100111111
10110001
110000
1111111111111010
1111
1111111111110100
1111111111111000
1111
1110
1010
1111111111010000
1111111111100100
100
1111111111001100
1111111111001100
1111111111010001
1111111101000011
1111111000101100
1111111011011001
1111111100100000
1111111111011110
11001011
1111101001111111
1111101011110011
11001010
1010101110
101001011
1111000111
1111111110010110
1111110100000001
1111111000011101
100001
1111111101101111
1111111011101011
1111111100011000
1111111111101101
1
1000011
1111111110111111
1111111111010101
1111111111111000
1111111111101101
1111110110101001
1111110011001010
1111111100110001
1111110110011110
1111110000100111
1111110111110100
10001100
1111111000110111
1111110100101110
1011011110
1111101110100101
1111100100101111
1111111000000100
1111110110100100
1111111000100001
1111100101000011
1111110100100000
110001010
1110001
1111111011100111
1111111101000101
0
101
100111
1111111111010110
1111111110100000
1111111111010000
1111111110011011
1111111010101000
1111111100101110
111100110
1111110001110000
1111101111001000
1111111000001010
1000110000
1111111110010110
1111111001110101
1111111100110111
1111111100001110
1111110111110110
1001001100
1111110010001111
1111100111010010
1111111110011110
1110011001
10011110
1111111100010001
1111110101101110
1111111111100110
1111111111111001
110111
1111111110111010
1111111110110011
1111111111101101
1111111110111010
1111111000101111
1000110001
1111111010010110
1111111001001110
111110110
1111110001110001
1111111100010101
110101000
10010011100
11100110110
1111110111100111
1110010011
10111110101
1111111011011001
1111110110011011
1111110010000010
1111110100100010
111100000
1010001011
1111111111101111
1111111010010001
1000111101
1111111111011000
110011
1111111111011101
1111111110111010
1111111111100110
10011100
1100010100
10110110000
1001011001
10110000100
11110011
10111001
1111111101111111
1111111111101000
1111111001011111
101000101
1111111011001100
1111100011100011
1111100
11101001
1111101001111111
1111100100000101
1111101100100000
1111111011101100
1111111010000010
1111111110111001
1111111011100110
1000111
1111111110011000
0
110
1111111111000011
1111111100110001
1101101
1110110110
110000101
1111111001100011
11101110
1111110011000111
1111111111111110
1111110111101110
101000110
100011100
1001101000
1100011101
1010100000
1111101010001001
1111101110100111
1111100100001010
1111110000101010
1111111100000110
1111110111101000
1111110011110011
1111110010011111
1111111110001100
100101111
1000001000
1111111111101000
11110
1111111111010001
1111111001000110
1111111110010010
1000001000
1111110100100101
1111110110110100
1111110110001011
1111110010111000
1111110100110100
1111111111010010
111
1000000001
100000010011
11010000000
1001100010
1111100110010111
1111100010010010
1111101101010111
1111101010101000
1111111100101000
1111110000011100
1111101111101000
1111111011101110
1001011011
1111111110011111
10011100
1111111111111000
1101
1111111111011101
111110
1001010
11110110
1111101111000000
11111
1111111110100000
1111111011100011
1111000111
1111111101100100
11101100
11001
10111101000
11000001011
11100100011
10101001010
1111110110101000
1111110100100001
1111101110111111
1111111011101000
1111110100001101
1111101110111110
1111110100100110
1111110100111000
1111110011001100
110000
1111111111111011
1111111111110000
100001
10010110
1111111100111000
1111110000011000
1111100110110111
111011000
111111011
1111111100111001
1111111110000111
1100010010
11100101011
11111010001
1100001
100000001101
10110001110
10000110100
10010000111
1111101111101011
1111110101100010
1111110010100001
1111101100110010
1111101111111000
1111111001010001
1111111011111111
1111111111101100
1011011
10001
1000
1000011
10100101
1110
1111111001101110
10110101
11110100010
1111011100
10111001
1001011110
1000110001
100101111000
1010001001
1111001110
11000101110
11110001011
10101110110
10101100110
1111111011001000
1111111101010100
1111111101100101
1111101110111111
1111110001110011
1111111010001000
100010110
1111111101011100
1111111110100010
1100
1111111111101111
10011
1111111111011111
1001011
1111111110111110
1111111000001101
110000110
111101000
1000011100
11010100010
11001100101
10110001000
1000010001
1111111101110101
1011111111
10100011000
11001110101
11100010100
1010001100
1111111000110101
100110001
100110011
1111011
1111111010010110
10000100
1111111101011011
1111111111101001
1111111111110110
1111111111101101
1001100
1111111100011001
10001110
1111110110110010
1111110001101101
1111111011000001
1111111011000101
1111111111001000
10101010100
1110001110
1111111111011011
1111111110011011
1111110101110100
1111010101
11010111001
101111110000
10111001100
1111101101000111
1111101110011000
11101000
111100000
1000101101
1111111101001110
1111111001000110
1111111101000100
10010
101110
1000
1111111111110100
1111111011011100
11100110
1111110010111001
1111101101110010
1111110111111111
1011110010
1111111000100001
1100111110
10010011111
1111101101101000
1001011011
1111101111101101
1111110110000010
11110101011
1111111001
10011100
1111110010010111
10000100
1111111101100011
1111110000001100
1111111100110000
1111110000011101
1111110001101101
1111111001001110
11110
110101
11001
1111111111001110
1111111100101000
11111
1111110010000111
1111110001000111
1111101011100011
1111111111100000
1011001
100101001000
101001111
1111110000001001
10011001000
1000110001
1000000011
11010110111
1111111110011010
1111111001100000
1111110010110111
1111111000100010
1111100111111111
1111101001111001
1111110111101101
1111110100100100
1111110111001110
1111111111001100
1111111111111100
1111111111100001
1111111111010010
1111111111111111
1111111101010100
10011100
1111110110000001
1111110001000100
1111100011011110
1111100110010010
1111100011110101
1111111001101000
1111111110011100
1111101001110111
1110011011
10001010010
100111101
1111101000000010
1111110110100110
1111010110000000
1111100000100011
1111011011100000
1111011100100111
1111011110111100
1111101010111001
1111110101010101
1111111100111000
11001011
1101101
0
11110
1111111111010011
1111111111010110
10111110
1111111100011100
1111101110010001
1111100000011000
1111011011010100
1111011010100001
1111010111111111
1111101101100001
11010000
100110100
1100010010
1111110001011011
1111010110001001
1111010011010000
1111010000001011
1111100111101010
1111011011110110
1111011100101100
1111011010011101
1111100100001000
1111110011110110
1111111111100101
1000000
100100
10010
100010
1111111111001101
1111111100100100
1111111011111110
1111110110011000
1111101000011011
1111100000110111
1111100010000111
1111011001010010
1111011010000101
1111110101011110
10100001
1111101111000010
1000110111
1111101101010010
1111110010000110
1111100000101101
1111101101000101
1111011010000111
1111011101101110
1111100011010111
1111101101010011
1111110000011110
1111111001001111
111001
10111
1010
1111111111111000
1111111111111001
1111111111001110
1111111010101101
1111111011001100
1111100111010011
1111100010011110
1111011111010110
1111101111010101
1111110111101110
1111111101011101
1111111110011110
1100111101
1111101010010110
1111101011001111
1111011110111110
1111101111010000
1111101101010010
1111111001001110
1111101110011001
1111110001011001
1111101111101100
1111110100100110
1111110110110110
1111111001010000
111001
1111111111100010
1111111111011001
1010
1111111111010110
10000
1111111101001110
1111110101001100
1111011011101001
1111011100011000
1111100111111111
1111111111110101
1111111101111111
10101111001
1111100100111100
1111110011010111
1111111000011010
111101
1100111111
101011000
100101100
1010011
1111111101111101
1111111000100011
1111111001101110
1111110100111111
1111110111000010
1111111010100000
1110010
101011
1100
1111111111110000
1111111111011011
1111111100110110
1111111101110111
1111110000101000
1111011001011110
1111011001010101
1111100111101100
1000100
111110000
100000100010
11101100
1001001111
1111111100100111
1111111001111111
1111110001101010
1111101100010100
100000100
1
1111111000100101
1111110110000100
11100001
1111110001100010
1111110101111011
1111111101000100
101011
10010
11010
11010
10110
1111111111100011
1111111110111010
1111110101111000
1111101100000011
1111100011111110
1111101000100111
11001100
100100
1100101
1111110001011000
1111011100011000
1111111011100010
1111111001011010
111110011
1111101111101111
1111111101010100
1111110101001110
1111110110101010
11000101
1111111011001001
1111101110101101
1111111000001100
1111111100110101
1111111111111100
1111111111110010
101100
1111111111111100
1111111111110100
1111111111000000
1111111110111011
1111111110011011
1111111100011100
1111111000001111
1111110100101011
1111111110101111
1111111100010000
1111110011001111
1111111010001011
1111110010111111
1111111010101111
110000110
1111110101011101
1111110001001110
100101101
1111110010000011
1111101000100111
1111110111100011
1111101111100001
1111110100010001
1111111000101110
1111111100010011
1111111111011011
101111
1111111110111011
1111111111100010
1111111111110011
1111111111101001
101001
111101
1100000
10101100
101111
11000000
101101010
1011100
1100000
110110001
100011100
1101000110
10100110
1111111010111001
1111110111001110
1111110101111010
1111111000000000
1111110110110110
1111110101011100
1111111100011101
1111111111011111
1111111111111001
101010
1111111111111111
1001
101011
1111111111001100
10101
1011
101011
1111111111011000
1111111111111011
10101
1
101010
110001
11011
101001
1111111111111011
10101
11
1111111111111011
11001
10101
10111
1111111111110111
1011010
1000101
1111111111110001
11101
1111111111000010
1111111111100011
101
