1010111
1111111111010010
10010
110101
100111
1111111111011110
1111111111111001
1111111111111010
101110
10110
1111111111010100
1111
11101
1111111111111001
1111111111011111
1111111111110000
1111111111111011
1011010
11111
100010
1110
1111111111111101
1111111111111110
1111111111101010
10101
100010
1111111111100100
1001010
10000
10
1111111111010101
11100
1111111111101000
1111111111000011
1111111111110000
1111111111110110
1111111111110010
10100
1011
1010
1000
1111111111100010
1101
1110101
111010
100011
1111111111000111
1111111111101010
1111111111010001
101010
1111111111101111
0
111110
1111111111101111
1111111111111010
1111111111111010
11
1111111111011011
1001
11010
1111111111110001
10
1111111110111111
1111111110010001
1111111101011110
1111111010111100
1111111010011100
1111110111110011
1111111000011100
10001111
1111111000101110
1111111110111001
1001111
1111111101111001
1111111110110110
1111111111001111
1111111100111110
1111111101001001
1111111111010111
10011
10110
11111
110011
1
1
100100
1111111111101011
1111111111101010
1111111111100011
110011
1110011
110011101
1010111111
1111111101001110
101011
1111110100101101
1111111111110101
1110001011
110100110
1000010111
110000000
1111111001100000
1111111100000100
11011000
1110011111
111001010
1111111111000101
1111111111000110
1011000
10100010
100110
1001
11
111011
1111111111000001
10011
1111111111111111
10110111
1111001
1000100101
10010111111
1100110110
1000110111
1111111100011010
1111111011000011
1111110111011000
1111111111100111
1011011111
10110010
1111110111111000
1010011110
10
1110010100
11011010110
1010110110
100010011
10000010011
111100111
100101
1111111111101101
111
1111111111110110
1111111111011001
11011000
1100111
1001110100
110001000
1101100100
11100110
1111111011100111
101101101
100010011
1111110101101001
1101010000
1010010101
1110011000
1010000010
110110100
1011110111
10010000
11001010
1111101
110010010
1010010101
10000000101
111010001
1100000
101100
100000
1111111111111000
1
101000011
111011000
10001000111
10011000000
101101100
100010000
1000111110
1111110001000000
1111110001000110
10100110
101101111
1111111110000001
1111110111010100
1111101111110010
101100
111110000
1111110000110100
1111111011110010
1111111101101101
100110011
1101100000
10010000000
110100010
1101010
1111111111111010
1111111111011001
101
1001010
101110100
1010001101
1010110110
1010100110
1111101000
1000100111
100101100
111111111
1111101001110101
1111101111011110
1111110010000110
111000100
10110000011
1111110111000111
110010101
1111110100110001
101000111
1111111100111001
1111101100010100
10001000
100110110
100100010
1111111111111000
11000101
1111
100010
1011
1111111110101000
11000111
110100110
1100111101
110100100
11111011
101000001
1111111001100101
1010001011
110111000
1111111011100111
1111111111110111
1010011111
1111111110011000
1111100101001011
1111101000111010
11101101
11000010
1000010000
1010101111
1000101101
100000
1000001011
1000001111
10011011
110100
1111111111010010
1000
1111111101101010
1111111111001101
1111111110000110
1111111010011111
1111111111100001
100100011
1111111110100000
1111110101101100
1111111110101101
100110011
101101000
10001100110
100101110111
1011111000
1111111000000001
1111110010101110
1111110010110110
1111101111110110
1111111000000010
1111110100111111
1111001011
1111110100100111
1111111110110110
1001011010
10011111
11001
1111111111111011
11100
1111111110011011
1111111111011100
1111110100110101
1111110000111100
1111101101100000
1111110011011010
1100001010
1111111111100110
101111
1111111001000100
1111111111001011
100100010100
101100010011
10011001110
10111001011
1010000101
1111100010010100
1111110111011011
110100001
1111110001001000
100010100
1111111110010010
1111111110100111
1000000101
10100101
11100
0
1111111110101110
1000101
10001110
110
1111111000111101
1111101111010000
1111100010100001
101100
1111101000111001
1111111000000010
1111111110000101
1111101010111000
1111111011011110
10001101110
10110111011
100100110111
110101011110
1011111
1111111111100001
111111001
1111110001000010
1111111010010001
1111110111111100
1111111111000010
1110000
10010111
1111111111110110
1111111111011101
100000
1111111110110000
1111111111110100
1111111111000100
1111110010010011
1111100111111011
1111101011000111
1111110100010010
1111111000101101
1110011
1001000101
10110111
1111110000011100
10010010001
10011100000
11101000010
11011010010
10100010100
1111110110001010
1011011111
1111110000000100
1111111001100100
1111110011011010
1111100111110101
1111111000111001
1111111111101111
1111111111011011
1111111111110011
1111111111010001
1111111111110101
10101000
1111111110001111
1111100110100100
1111100001110011
1111100110000001
1111111101011101
1111110111110011
1111111100010110
101011
10110000
1111110110101000
10001111000
1010111010
100011101100
100000101111
111111
10100010011
11000010
11100010
1111110010110111
1111101100101011
1111101111111110
1111111000101011
1111111101000110
1111111100111110
1111111111011000
1100110
1111111111111010
100001
1111111010010001
1111011111010101
1111010011000111
1111010011111100
1111100111000001
1111111101101001
1111111001100011
1111110000010010
1111111
1000111110
100010001010
1001010100
1111010111
1100111110
1111111001101001
1111111011010001
1111111001011001
1001010
1111111110111101
1111111001101111
1111111001010100
1111111011100111
1111111110101100
100101
1111111111101110
111111
1100100
1111111111001010
1111111100011010
1111100000101010
1111010100010111
1111010001110011
1111001110000000
1111010110011001
1111010101000010
1111100000000110
111110010
11000000
10001011010
11101010101
10100101101
1111111110111110
1111111100
1000101
101101010
1101111110
1000010000
10100011110
101110000
1111111100001010
1111111110010101
1101
1111111111000001
1011
1011111
11000011
1000010000
1111110011010000
1111110100110101
1111110000001010
1111100111000100
1111100000110110
1111001011111010
1111000011101001
1111100001101010
1111100110000011
1111111101111010
1010001100
1111101110001011
1000001
10011100000
1011111110
1010010000
1000100111
1111110111
10010101001
1111111100110010
1111110100000000
1111111100100101
1111111111111000
111
1111111111101000
1010010
1011010000
11011001
101011010
111100110
1100100001
1111100111101111
1111011100110010
1111010100111111
1111001001000001
1111001100100011
1111101000000111
1111101110011110
1111110101001100
1111110010011100
1111111101100110
1110000
1100000110
1111111000010001
101101001
1011101
10001001000
1111101110100110
1111101111110010
1111111110011101
10001
111000
10101
1101011
10100000101
101011100
11100011
1110101011
101011101
111111100
10011111011
1111101001111010
1111011011101110
1111001100110001
1111101000100101
101001011
11110100000
1111111110101101
110101
1111101110100101
1111111110111000
1000111010
1111110101110010
1111111110101011
1111111110011010
1111101110110000
1111110111101100
101110
1101
1111111111110100
11011
11001
1010100101
1111101
1001110110
1100000100
10000100
11011010
1111111111111001
1111110100010110
1111100111101010
1111100110000001
1111110001100011
10011010010
10101010100
1101100100
10100011000
1111000
100100011
1100011000
10111111
111101101
1111110110100011
1111111101100101
1111111100110011
1111111111011010
1111111111010010
1111111111110110
111
1111111011110011
1111111011101100
10110101
1100110010
1000111000
1111111111111111
1111111010100110
10011101
1111111010111101
1111110001101010
1111011001010101
1111110001101010
10111110111
10100000
1111111111100110
1101101100
1000100011
100001001
1010001111
1111110100010000
1111111111010110
1111111010100000
1111111010001000
1111111100101000
10001
1111111110011100
1111111111100100
1111111111001001
1111111000011001
1111110011011000
1111111011001011
1111111100110011
1111111100111111
1110101111
1011100101
0
100110
1111110001011011
1111100011010001
11000000
11000100111
111010010
1111110110001110
1111111010001100
1011111011
1111111000100010
111110101
1111110100010100
1111101110100101
1111101000011011
1111110110111011
1111111100110101
1111111111000100
101010
1010
1111111111110110
1111111001000110
1111111000111111
1111111000110110
1111110000010001
1111110001000001
1111110010100000
1111111010101100
1111110011101000
1111110101111000
1111101110101110
1111100100010011
101010000
10001111101
111111010
1111111010001100
1010111011
1100110100
110110011
1111110001101101
1111110001010010
1111110000110101
1111101110101110
1111110111111110
1111111100010111
110011
1000100
10110
1111111111111010
1111011
110011111
1010100001
1001111
1111110001110011
1111110001110110
1111100011100110
1111100111000010
1111101000010001
1111110010110100
1111011101111011
1111111010000100
1010110011
1001101011
1111110111001000
1011111001
1111011101
1111111001101011
1111110101100000
1111110001101101
1111101111010101
1111110010011101
1111111010001100
1111111011011111
1111111111110010
1111111111111010
100111
1111111111110100
1101010
100110000
111101110
110001010
111101101
1100101101
1111110111011000
1111101101010101
1111101001101101
1111111010010010
1111111111011000
1011110111
1111111111110000
1111110101101011
111110011
11011000110
111100
1111101111011101
1111111000000101
1111110100011011
1111110101011100
1111111011110011
1111111010011110
1111111101101111
1111111111011110
101
10101
11010
10001
1111111111100110
11100
10110011
100101000
1100000001
1111001000
1011001010
1001011011
1000111111
10001001001
1110001110
111110
1111111010111110
1000011110
1010011010
1011001111
1110100001
1000101011
101001111
101110
1111111110111001
10110
101
1100
110010
1111111111110011
1111111111110100
10001
1111111110101001
1111111111001010
1111111111010111
101100
10011110
11000
10111011
110011010
101111100
1100011
100001001
110010010
111001110
10010001101
1111000111
110111010
10110110
11011100
10001100
101110
1111111111111110
1111111111011011
10100
10010
0
100011
11100
1111111111101111
1111111111100100
1111111111101011
1111111110100010
100
11011
1111111111011000
1111111111111000
11100
11101
1111111110110100
1111111110101010
1111111110111011
1111111111111011
1111111111000001
1111111111111000
1111111111110011
1111111111011100
1111111111001010
100101
110010
1111111111101001
1111111111101001
0
1111111111111101
101101
