100110
111010
1111111111100011
10001
11110
1000
1111111111000001
1010111
1111111111110011
1111111111101110
1111111111011010
1111111111110010
110000
1010010
1111111111111111
1011
1111111111101110
1111111111110111
1111111111110101
100
101
110000
10
1111111111100111
1111111111110011
100110
1111111111100101
1111111111101110
1100
1111111111010100
111
110
1111111111110000
1111111111010110
1111111111101110
11001
1111111111000100
1111111111101001
110000
1111111111110010
1111111110000100
1111111111100010
1111111111101110
1111111101010001
1111111110001000
1111111111110110
101011
1111111111100001
1111111111100000
1111111111001101
1111111111010001
1111111111111110
1111111111110001
1111111111101010
1111111111101010
111011
111101
1001
1111111111110110
1111111110111000
1111111111010100
1111111111001001
1111111111011101
1111111111101100
0
1111111111100100
1111111110100000
1111111111000110
10100000
10110101
1111111110001111
1111111111010101
1100110
1111111100001000
1111111011110010
1111111011011011
1111111100110011
1111111100011110
1111111110000110
1111111110101110
1100101
111011
11001
101000
1111111111110010
1111111111110101
1111111111101110
1111111111011100
100111
111000
1111111111111101
1111110
1000011100
101111110
111010100
10000
1000100110
101100001
1111110001011000
1111110101111001
1111110111111000
1111110111010010
1111110110011100
1111110100111001
1111110010011011
1111110111000100
1111111000100101
1111111011000010
1000000
100000011
111001
1111111111011010
1111111111101011
1111111110110010
0
1111111111110110
1001100
111000
1100101
1000001011
10010010001
10010111000
10000011010
1110101101
10100101100
1000111
1111101111110011
1111101010111111
1111110110111010
1111111010101111
1011011011
1111111010100001
1111110000000011
1111110100100100
1111110110000010
110000
1110010001
1011111000
100011000
11111
11101
100100
1111111111111011
1000010
1110
1111111110110110
1111111110011001
111001101
1010001100
1010011111
10011000001
10001101001
10001011000
10101110
1111110011111010
1111111010001100
1111111011000011
1111111101110110
1111110011010000
1111101011001000
10000
1111111100100000
110101010
1000000001
1000101001
1000101001
1111001
101011
1111111111101011
11100
1
110100
1111111100111101
1111111010010100
1111111110100010
111010001
10001010000
11101101100
1111110101
10011000100
100001000110
1000001100
1111101110010010
1111111001011100
110101001
10101011110
1011000011
110000101
1110100001
1011101100
1111001000
1110010011
111000000
111011100
11111011
1101111
101101
11100
1111111111011011
1111111100100111
1111111001110101
1111110111101111
1111110101010000
11100100
10100101110
1110000000
11010000011
101110101
1111001101
1111101100100100
1111101001111001
1111110011011011
11101001
1111110101011001
1111110011011011
1001000001
1011100100
110100110
1111111110011100
1111111111111110
11011010
111111100
100011111
1100100
1111111111010111
11010
1111111101101001
1111111100100100
1111111010000011
1111111101011111
10000111
10100010001
1011011000
1111010
1100110011
10101101011
111100101
1111110110011110
1111101011110100
1111111010001010
1111110100111110
1111110111000101
1111111100000101
11011010110
10011101100
10000000
101100101
11101000
111000110
10011000111
1000110110
1000001
1011
1101
1111111101101110
1111111101111011
1111111100100011
1111111100100000
11011001
111010101
10000010011
111101100
10100111111
100010001001
110100000
1111100110110111
1111111010100100
10001110011
1111111101100001
1111111110001100
1111111100110100
1111111110010111
1101001
1111111001000110
100101111
1111111000000111
1001000000
10001010100
110110010
111001
11000
101
1111111100110011
1111111010010110
10001000
100010
1011110000
1010100111
1011100001
11001010111
11100110010
10001101000
100100100
1111111010100111
11100010
10010101000
1111110100001001
1111101010111100
1111111001011101
1111111110010111
1111111011001010
1111110010000000
1000000101
1110011001
10000000110
101000101
101100110
1010
1111111111101100
1111111111110000
111010
1111111010111101
1011100001
1001110100
1101111
1111111010101011
1011001011
1000010111
10101
11101011011
10101011000
1111101101111101
1111100010
10110011011
100011101
1111111010111111
1010011
1010011111
1111111011011000
1111110100011100
111110101
1010010101
1010101010
111010110
111010011
1111111111101000
100
1111111111110000
1111111110100010
1111111100100000
100000010
1111110111011011
1111110011110110
110010100
110100100
100000100
1110110010
1110111000
1111111001111001
1111111110100110
111111000
100001011011
100011101
1110001011
10
11101001111
110000110
1111111011010101
1111111110100100
1111111010011001
1111110101101011
101010
11101001
10
11010
1111111111100100
1111111111011111
10000100
1111110110111100
1111111001001001
1111110010100101
1111110110010010
110100101
11010000
1111111111001000
11001010101
1001010000
100111110
1001010
110001010010
11011110000
10110101
11100
10011001001
11101011011
111100111
1111111100101001
1111111110011101
1111110101100010
1111111001001011
1000110
101101
1
1111111111110110
1111111110101100
1101110
1011001
1111101011100001
1111110001000111
1111101111000110
1111110011110110
1111111011101111
10111000
1001001001
1111101101110000
11101001
11010010110
101101000010
11111011001
1010001010
1101001001
100111011
11110101
1111111011000100
1111101110001111
1111111100101111
1111111101111100
1111111010101001
100110100
101
1111111111111000
1011
1111111110010001
111001
10100010
1111111100000001
1111101101000100
1111011011101111
1111101101000010
1111111001001100
1111110111011011
11011001
1111100111001101
1100000
111010000011
101111010111
1001010101
1111111000111001
1010000101
1111111101010110
1111101001010000
1111101010010100
1111011101011110
1111110110001001
1111111101000100
1110001
111111101
1111111111011111
1111111111100111
1111111111011110
1111111110100101
100110000
11010000
1111110001100111
1111101111101100
1111011111001110
1111101110000010
1111101000100111
1111111010110111
1111101110000100
1111100101000111
1111101111101001
101000001010
101010100001
1010001001
1111110010000100
1111110010000110
1111100001001110
1111011011001000
1111111011100010
1111110101110010
1111110111000110
1111110101101000
10100
11100011
11100
1111111111110111
1111111111101100
1111111101111000
1001110101
1111111011110111
1111111110000011
101001001
1111110111001101
1111101110001111
1111101110011100
1111110001111000
1111110101100001
1111110010001110
1001000010
100000010100
11001001010
1111111010111101
1111101010100111
1111100001110110
1111100110101100
1111110001101011
1100110011
1111101110110010
1111110001010111
1111111010111100
11000001
11101
1111111110101110
1111111111111000
110
1101
1001101110
1111111011110101
10101
111111100
1100110101
1000000110
1111111001111101
111000111
1010111100
1111110111111100
110001110
11011110111
1111110111101100
1111101110101100
1111011111011010
1111110101110110
1111110011000010
1111111100001000
1111110100001001
1111110001111100
1111111000010100
1000101
110110100
11101
1111111111010100
100110
10000
11010
101000100
1111110111001011
1111111011001000
11000110
1100001000
110111110
1111111010101001
1111101111000111
1111110110110001
110100
1011011000
1111111011001100
1111111110001010
10111010
1111111110110011
101001111
1111111110010101
1111101110111010
1111101110110110
1111111101100000
10111001
1000000100
1000110101
101011
1111111111101110
1111111111100011
1111111111011110
10010
10110000
1111111001000100
1111111100100010
1011111011
1111110100101011
1111111011111100
1111111111101100
1111101001010011
1100110
1111110100000101
1111110011011011
1111101010001001
1111110101011011
1111111101010001
111001
1111111111001110
1111110110101001
1111111000000000
1111111111100001
1111110100
10001111000
1001110100
1000010101
11110
1111111111111101
110
1111111111100101
101111
1111111101110001
1111111100110000
1111111011100010
1000011000
110010010
1001110
100101110
1110110101
11011100000
1111101010010101
1111100101010001
1111010111000101
1111101111100001
1000011001
1100101000
1111110111001110
1111111110001010
1111111011101011
110110010
1111111110101101
1001000001
1010101001
101100100
111
11001
101
10000
1111111111111111
1111111111111110
1111111100111010
1111110001011100
1111111010110101
10001101001
1100001010
101001111
1000011010
1000010111
1111100011010110
1111101010110111
1111101110110011
1111101010101000
1111111101000111
1111101100011111
1111111101011110
1111111111101011
1011101
1111111111110000
110011
110110001
1001101000
101000000
1111111111100110
1111111111001110
11000
1111111111101110
1111111111101000
1001010
10100010
1111110110100101
1111110100001100
10010101
1100001011
10011100011
1100100001
110010011
1111111110000110
1100110
1111110101010010
1111101001000000
1111110001100100
1111110001110011
11001010
1000011111
1111111011101110
1111111101010110
100100110
1000010110
1001011100
11111001
1000
1111111111100011
1
1111111111100100
1111111111100010
1011101
101100
1111111111000101
110100000
1100101110
1101000000
1000100011
1000110000
11010111
1111111101011001
10100
1111111010011101
1111100001111111
1111101000010101
1111111001110010
1111111110101110
111000101
110110010
110101100
110011111
101101011
100001010
11100
1110
1111111111111011
1111111111110111
1001
1010
11111
1011
100101011
100111000
11110011
10100
1111111111011100
10110000
1111111110101110
1111111110100100
10011101100
100100101
11001011
111011011
10101011
101011000
1101011111
111011000
10101011
101000000
110011011
11110000
101011
1111111111100111
1111111111101111
1001100
1111111111110001
10100
1111111111110110
110010
1001101
10
1111111101011100
1111111001111011
1111110111000011
1111111010010001
110000
1111111101010100
100101110
110101000
10000111
1000010001
10110100
101101101
110100101
100011100
1111111111010110
1111111110110010
1111111111110010
1111111111110011
1001
1001010
0
1111111111110011
110
10100
100
101010
10011
11110
10010111
1110011
1111111111101010
1000
1111111111000001
1111111111100011
10100
1100101
1100110
1111111111010001
1111111110110010
1111111110001000
1111111111110101
1111111111000001
1111111111111000
1101
110
1111111111100110
1111111111110111
11
1111111111100010
