100001
1111111111111000
1111111111000101
1100
1111111111100011
11
100000
1001
1111111111100100
1111111110101111
1011001
1111111111010010
1111111111011100
1111111111110000
1111111111110100
1111111111110101
1111111111111101
1111111111110011
101010
1111111111110101
1111111111100111
1111111111100010
1111111111111100
111
1111111111101001
0
1111111111100010
1111111111011011
1011
11110
11000
1111111111110111
1111111111111110
101001
100101
1111111111111111
100110
1111111111111110
111110
101001
111010
1010011
1111111111110001
1111111111010100
10000
100110
1001
111001
101010
100110
110111
1101110
1111111111111111
1111111111111001
11000
1110
1111111111101000
1011111
1111111111110001
1111
1111111111101010
11
101001
11001101
11110001
100010110
110101100
1000101010
1011111001
1110101110
1110010110
1000001100
1000001111
100100111
0
1111111111101000
1000
11110
10101100
100010
11101
1111111111101111
100101
11101
1111111111110110
1111111111110000
10110
1111111111011100
1111111111111011
11100
111011101
1011001000
1010111101
1101000101
1110011111
1100110110
11110000000
100111111110
101000001011
10000010000
1110101000
10010010100
111010111
110100100
110110011
10000001
110011100
100100001
100100001
10001100
1100001
1111111111101010
1111111111010100
1111111111010101
1111111111001100
1111111111101100
1111111111001011
1111111111100110
1000000100
1010101110
110000010
10010100101
10001011100
1110110
1000011011
111111
1110011000
10001111011
1111110110000100
1001100
1111111001001100
1111111110100100
1111110111010110
1111111110101100
10000100001
111110101
111000110
11111001
1111111111000011
10000101
1111111111010111
101001
1111111111110110
1111111111110011
0
1111111010001110
1111111111000001
1111111011011000
1111111010001000
110000000
1101001011
1111111010100001
1111101111000101
1111110101010100
111
111010111
1111110001000010
1111100110111001
10011010000
111101001
1111111011100111
10011100
11000
10010101001
1100000001
11100000
11011011
1110001
1111111111110010
101100
111011
1111111101011111
1111111101100101
1111111000001101
1111111001111001
1111110010001111
1111101111010000
1111111100011011
1111111101111101
1111101011110000
1111111010110000
1111101110110011
1010000111
1001010110
10011101110
111010101
11001010111
1100
1010000010
111110011
1111111111101001
1111110100111000
1001
1111111111101110
1111111111011001
111001
1111111111100100
1111111111101111
1111111110010111
1111111011010011
1111111100101000
1100100110
10001000
10010111
1111111101010100
1111111010000111
110
1001011010
1111110000101100
1111110001010010
100100000100
1111001100
1111111010001011
110011111
10100101101
11111001
1111110110111001
1011100110
10001000111
1111111001000111
1111110101001010
10010011
1111111101001001
1001111
1111111111111101
1111111111110010
1111111111000100
1111111010001110
10111011
1100100
1111110011001110
1111111011110101
1111111110011100
11010110
110010011
10010110
1111111011110001
1111110100100110
111011110
1111111001100001
1111110001100000
1111111011110000
1111110010001111
1111110011011100
1111101100100101
1111110101101000
1111111011111101
1111110110000111
1111100001011101
1111110010010001
1111111101001001
1111111111010111
1111111111100110
1111111111110000
1001
1111111001110010
1000111
11110
1111100001111010
1111101001000101
1111110011010010
1111111001100010
10100010111
1111110000101011
1111111001010001
1111101111101001
1111110100010001
11110000
1111111110111110
1111011001001111
1111111010101110
1111101110001110
1111110100111010
1111100110100010
1111100011110011
1111101100101001
1111100011000101
1111101111001101
1111111011001100
1011
10001
1111111111111100
111010
1111111001101101
1111110110011000
1111110111100111
1111101100001010
1111110111011101
1111111100101010
10110000
1111111101100000
1111111110011010
1111110101111101
1111111001101011
100111001
111010010
1111101011110101
1111101110110010
1111111011011011
1111110010011011
1111101001010110
101001111
1111110000111111
1111101001010001
1111110101010011
1111110011111111
1111111011011111
11000
0
100
111
1111111010001110
1111101111010110
1111111100101011
1111110100111001
1111110010010011
1111100101100010
1111101001101011
1111110110010000
1111111010111010
1111110101001010
1111101100001001
1111111110000101
111111101
101110110
1111111110111110
1111111101110100
1111111001000000
1111110000111010
1011010010
1111111100110001
1111110001001111
101001100
1111111100001010
1111111000100001
111001
1111111111100011
1111111111100010
1111111111011001
1111111101100010
1111101111100010
1111110110010000
1111101111100111
1111101110011001
1111101010110000
1111111011100010
1111101010100011
1111110001100110
1111110001011011
1111101010000010
1111110010010111
111010010
101110010
1111111000001110
1111110011010101
1111111011101011
10000110
10111101
1111110000100110
1111110110000110
1010100110
1111111101101110
1111111010011110
1111111111110111
1111111111110101
1111111111111000
1000
1111111011110001
1111110000100100
1111110001001011
1111101011110101
1111101111011011
1111100100101101
1111101010101110
1111110111011000
1111101001110000
1111110001100101
1111101000111010
1111110000111110
1111100101110100
1010001001
1111111111110111
101110100
10001010100
1111101110011001
1111111000111011
10110000
10101100001
1001000001
1111111100001010
1111111101011111
101101
1111111111011010
1111111110000101
1111111101111110
1111111101010010
10100000
1111101110110010
1111110000100011
1111101111101000
1111100110111000
1111100011011000
1111101101000100
1111110110011100
1111110100010010
1111101010011100
1111101100111001
1111101101110111
11011111
1111110000000000
10101010101
10110010
1111111010011011
1111111101010110
1
1100100000
101101110
10001
111010
1111111111010011
1111111111111010
1111111100101010
1111111101010011
1111111101100111
1101111100
100010100
1111110101100101
1111110101101000
1111110000101000
1111010100011000
1111011111111010
1111100010000110
1111011111011100
1111101011001001
1111100001001100
1111110000011011
1111110110110010
1111110010110010
1111110111011101
1111111010011101
111010100
1111111100000001
1111110100100000
1110110111
1100110000
1001000101
110001110
101011
1101
1111111110111110
1111111011011110
1110010
1111101001
10110101101
10000011010
10111110111
1010001
1111111010111101
1111110011111011
1111110101110110
1111011001101101
1111011100000011
1111100110100101
1111110000011010
1111110101011110
1111110001001010
110011010
11110101100
10110010010
1010010
10101101
11010111001
10000000110
1111100010
11111111
1111111111110010
1111111111100111
1111111111010110
1111111100001001
1111111111101000
10100100110
100101111000
11111011001
100100100111
11101000001
10001
11010101001
110100101
1111110110101010
1111100010111010
1111101101110011
1111111100111000
101010110
1110100011
10001101100
100001101010
1101011110
1111110100110010
110100000
10000010000
1001000011
1011101100
10110
1011111
10001
1000
1111111110000100
10010010
11110100001
100001001101
11110101010
101100001000
110001111001
101111000101
110001111000
1011110000
10100101111
1111110100101001
1111110010000110
1001111010
10101110010
110001000000
11011101011
10101000011
101011101
111110101
10010000111
10010101010
10000000011
101100000
1111111110111100
110100
11011
1111111111111000
1111111111000010
1011010101
11001111000
10110010111
11100101001
11011110111
100110101011
100011010010
11010010111
110111111001
111011100101
11110101011
11001101110
1111110111001000
1100111001
10000001000
110000100
101101111
10100001010
10110011101
10001110000
10111001000
1101001010
1111111111100010
100100
1010
1111111111011111
110101
1111111110011110
101110111
1110010101
10011110000
10011011011
100011
1110110110
1010100110
10101100000
1111110011
101101001001
10111010000
1010011101
101111110
10011010011
1001010010
110111100
1010111110
10111000101
1111111001110100
1111111011111000
1111000011
111111011
1111111101011101
111011
1110
1111111111011011
1011
1111111110101100
101011
1000101011
1010010110
1111111000000110
1111111101101001
1000010110
11011000
1111110010001111
1111110101111101
10101101000
10111110011
11111101010
1011010101
100010
10010000111
10000001011
10100110101
1110011010
1111111101001110
110010100
10011110011
10011001
1111111110111111
1010111
101001
1111111111101000
1111111111011001
101
1111111110010100
1111111000100101
10111
1111011111011001
1111110001101100
1111110100100110
100011100
1111111100010110
1111101110100100
1111110111000011
1111111000100000
10011000000
1001001011
11100111111
100111000
1111111011011111
1111110101000010
1101011101
1100000111
100101111
1101010111
1011111
110
0
1111111111110010
101010
0
100001
1111111110001001
1111110010101001
1111110010000010
1111110101100001
1111101110110101
1111110011111100
1111111111101110
10100010
1111110111110101
10011100
1111111111011010
1111111110001001
101110101
11110110
111111010
100001111
1010001010
10000110011
1101111011
111001010
1000111100
11000000
1100010
101010
1000
1111111111111001
10111
1111111110011110
1111111101110100
1111111000111010
1111110101100000
1111110110111110
1111110001000001
1111111110011101
1111111100010101
1111101100001010
1111110101011100
10100001111
1100101010
1010010011
10000110010
11011011110
10111101100
1100110111
1110001100
10000111001
1000110110
100111010
110000000
111111011
110110111
1000010
1111111111101001
100100
10011
1111111111111011
110
1111111110100111
1111111011001111
1111111011000100
1111111001000111
1111101111110101
1111100110000110
1111101101101111
1111110101101100
1111110110100001
1111110100110011
1111111111111101
100100001
1111111110100010
1110100
1111111100101110
1111110110010110
1111110101000110
1111110111110011
1111111010100011
1111111110000011
1111111111111001
11010
1000100
11001
1111111111001100
1111111111100100
1111
1
1111111111100001
1111111110010110
1111111110110001
1111111101101100
1111111011101000
1111110110111110
1111111101011111
1111111100111111
1111111101100011
1111111001101101
1111110101010100
1111110110101011
1111111000100001
1111111000101100
1111111010100001
1111111101001000
1111111100100010
1111111000111101
1111111011000110
10010
1111111110111110
10001
11001
1111111111010101
1100
1110
101100
1111111111011001
1111111111100101
11011
1111111111101110
1101
1111111111111001
1111111111111011
11001
1111111110101100
1111111111001110
110
1111111111110110
1111111111011011
1111111111001111
1111111110111100
1111111110111110
1111111110111110
1111111110110000
1111111110100001
1111111010011111
1111111111001111
11111
1111111111110101
10100
0
