1111111111110011
110
1111111111110001
11011
1111111111110110
1111111111111001
1111111111001111
1111111111011000
1111111111101011
1111111111001010
1111111111100010
1
1111111111101000
11011
1111111111100010
1001
1111111111010111
1111111111111001
11
100000
1111111111101000
110
1111111111111101
101
1000
111100
1111111111010000
1111111111111001
100
1110
111101
1111111111110010
111
1101
1001
1111111111110100
1111111110100000
1111111111011001
1111111110111101
1111111111010101
1111111110100000
1111111111101101
1111111111101111
1111111111000001
1111111101111110
1111111110111000
1111111110111111
11111
100101
1111111111110001
100001
1111111111010111
111000
1001
1111111111110001
10011
1111111111101110
110010
1111111111101001
1111111111100001
100100
1111111111110000
1111111111001011
1111111100100011
1111111011000100
1111111101000001
1111111010111010
1111111001100100
1111111001111100
1111111100000000
1111111101100000
1111111011001100
1111110011001111
1111110011100100
1111110110011110
1111111010101110
1111111011110110
1111111110010001
1111111110111011
1111111110111011
1111111110101100
1111111110111100
1111111111100100
101001
1101
1011100
110
1111111111100100
1111111111100110
100
1111111100001100
1111111010010011
1111110010001100
1111110011110101
1111110011001111
1111110001110100
1111101110000000
1111101110100001
1111110010000010
1111100111100101
1111011010101111
1111100110101010
1111101011011000
1111111010111111
11000100
1111111100110000
1111111011010111
1111111011110100
1111111101001101
1111111111010010
1111111111010000
1111111111100100
1111111111111100
1111111111001010
10001
1111111111000111
1111111110011111
1111111111011101
1111111101011011
1111110101111110
1111110110110101
1111101110110010
1111101101001110
1111100111100111
1111101101100000
1111110110001101
1111110100010000
1111011000100001
1111011000000011
1111100011100110
1111101101001011
1000000
111110001
101101101
1011001101
100111000
1111111101011100
1111111000111110
1111111110001100
1111111111100011
100101
101101
100010
1111111110111100
1111111111001000
111010101
1010110101
10111001
10000110011
101101010
10001100
1111101011101001
1111110010111000
1111101101111001
1111110001101111
1111101001101111
1111100110100101
1111100110101100
1111110100000011
1111100010000101
1111101110110010
1111101110101001
11101
1111111101000010
1111111100100000
1111111010001100
1111111101011110
1011
1111111111110011
1010
1111111101011000
1111111100111001
1111110111110111
1110000001
100001010100
10011011000
10111110000
10011010
111101100
110010
1000111000
1111110011000111
110010011
1011101101
1101100100
10000010100
1111110000010011
1111101111011010
1111110000101000
1111111110001010
1111110111100101
1111101010001110
1111110110011111
1111110011001100
1111111111001101
1111111111011110
1111111111000110
1111111101011100
1111111111011010
11110001
1111110100010001
1111110100110100
10101010110
110100011
1111111001000111
1000101110
10001110110
1000001110
1011101000
1111110110011100
1111110010110101
1111111011110101
100100011
10010010011
1111101101110011
111011110
1111000111
1111111000111100
1111110011110001
1100010
1111111100010011
1111111100001101
100100100
1111111111101001
1111111111001001
1101111
100110110
1111111111000011
1111101101010011
1111111001100111
1100011010
100001010
10100101011
1110011010
11010010
1011000010
1111110100000111
1111110001010110
1111111000000101
110010001
1111101100010110
1111111010000011
1110110100
100001000
101111101
1111111000011000
1111111110011001
1111111000110010
1111111101100101
1111111111011101
1111111101000111
1111111111111111
1111111111101000
101
1111111100000011
1111111100101101
1111110010001011
1010111110
1011010111
100110
1111001
1000000
10101111111
11000010100
1111111011100000
1111000
1111110110000101
1111110100111101
1111110010010010
1011111010
10111010010
111010101
1011110
1111111101001001
1111001001
1111110001100000
1111101111001101
1111101110110111
1111111001100111
101000
1111111111011010
1000111
1111111111111111
1111111010101011
1111110000101011
1111010
1010001
1111111111101110
1111110111000110
1110010111
1111100100110011
11101100
10111110110
1111111110
1111111000111101
1001111010
1111110011111010
1111110001111111
1111111100100100
11001100010
1111110110010011
1111110011011001
1111110111000000
1111100001001101
1111101000110010
1111111011110010
1111111001010001
10001
1111111111101101
11001
10101001
10010001
1111101001010101
1111100111101101
1111110101110101
1000010100
1111111001000100
1111110110000010
1101010
11000110011
11101011101
1111111100010110
10000001000
100001010000
10111110011
11010111000
10100000101
10010101001
1010100100
1111111011101110
1111110010111000
1111101010001101
1111100100101010
1111111000000001
1111111000111011
1111111111110111
0
1111111111110000
10000110
1111111110010010
1111110100001001
1111101111000101
1111111010100011
10110010001
10100111011
10010110
111000101
11101010000
1111110110101011
1111101010100010
1111101100001001
100101101110
100100010110
1111111110011010
11010100101
100010001001
111000101
1111111110110010
11100010
1111100100001001
1111101010111001
1111111011001001
10001100
1010000
0
11010
10000101
1111111000011111
110100001
111010110
1001011101
10010001101
1111111111111000
1111111111000101
100110011010
10
1111101110101001
1111101011101111
1101011101
11001001111
10110101101
1110110011
110010100
10110010
1000111010
10101110011
1111101111110110
1111100000111101
1111111011010001
1111111110011100
1111111101010000
1111111111110010
1000
1111111111100111
1101110
1111111010001101
111101
1010100001
1111111101001111
1100100011
1101100001
1111111001001011
1110001100
11010110
1111110101101000
1111110011010101
111001010
1100011101
10001101001
10011110101
10001100101
100000010010
11011001110
111110010
1101000101
101001010
1111111010101011
1111111101001110
1111111111011101
1111111111100011
100110
1111111111011100
1111111111110110
101001011
10001110
1000001111
1001000110
1111111101111001
1001100011
1001000101
1011111010
1111101100001111
1111100111100101
1111110010010010
111111110
11011000111
111010110
10100010110
1011011010
10110100100
1110001011
10101000
111111001
1111111110001110
1111111011100000
1111111100110011
1000001
1111111111010010
1111111111111011
11101
1111111111101101
101100001
1110000100
1000101110
1100000101
10001100011
1110101110
1111110101110101
1100011101
1111111010110100
1111111100111010
1111110010001001
10010000111
11001101011
1110111101
11011100011
100101110110
100011101
111001111
1111101000101000
1111101100000010
1111110111000111
1111110011100110
1111111100101011
0
1111111111101011
110100
111
1111111111001101
1111111111110110
111011000
11111011
1100101101
1100000011
1111111111011111
1111101110101110
1111101111000110
1111111101110001
1010101001
1111110101001000
1001111111
11011001101
10111010101
101000000111
100000100000
1111100111010101
1111110001100111
11011110
11010010
1101101111
10111100
11010010
11111100
10010
1111111111100000
11
1111111111101011
1111111100000100
1001001000
11001010
10000111001
10001111001
1110111001
101010
1111111001010011
1111110110001010
1111110000101101
1100011010
100110011010
11110010111
11001101110
11000001010
1111110110010101
1111101111000100
1001111010
11111111010
1001101
1111110111101001
1111111111100010
1000001
10101000
1111111111011111
1111111111101100
1111111111110111
1111111110011110
1111111010110000
1111111111000110
1111111010111111
1111111101001001
1110100010
1000000110
101100010
10010101101
1100000010
1010111011
101101101
1111110001
1110100010
1111111010111100
1111101100110001
1111110010011000
1111111011000111
1111111110100100
1111111100000110
1111011110010111
1111100111110111
1111111010111101
1111111111111101
1000
1111111111101001
1011
11011
1111111101000010
1111110101011101
1111111001101111
1111110101001101
1111110010110000
1111101100101101
1111100101001111
1111110001010101
1111110101110101
1111111000110111
1111110100110011
1111011111000011
1111011100101111
1111010010010101
1111100111010000
1111010101111111
1111100001000000
1111011111110110
1111010100011101
1111001011110001
1111010001111011
1111101011001011
10101001
1111111111001110
1111111111101111
1111111110101010
1000011
1111111111110001
1111111011101001
1111110000100101
1111111010111100
1111110100101011
1111101010010010
1111011111001001
1111001100101010
1111011101011001
1111010111001111
1111001011010100
1111010000101101
1111001101000110
1111001001000010
1111000100010001
1111110001001101
1111011000001000
1111001100111101
1111101110000111
1111100111011011
1111100000110101
1111100101100100
1111101100010100
1000
110010
1111111111100100
1111111111001111
1111111111110101
11110
1111111100010000
1111110101001110
1111110101111001
1111110000000001
1111110011001001
1111110110001010
1111110111100001
1111100001011110
1111100101011001
1111011101001011
1111011101011111
1111100010100110
1111111011110001
1111100110011011
1111100001100111
1111100110101001
1111100111111110
1111101111010000
1111110100000010
1111101010110100
1111110101101101
1111110010001000
1111111011100001
1111111101101100
101110
1111111111110010
1111111111110100
10
1111111100101000
1111110011011011
1111101111111010
1111110011101101
1110110
1111010100
1010010000
1111110001000110
1111110101001111
1111110101110101
1111101011100110
1111100010010010
1111110100000110
1111100110010011
1111100110111011
1111100010010001
1111011111001010
1111110110110100
1111101111101010
1111110010101011
1111110010010111
1111110000110110
1111111010000101
1111111101100101
1111111111001001
100100
1001
1
1111111111111101
1111111011111111
10
10001100100
1100001
1111111101111100
1111111001100101
1111101010011001
1111011001111001
1111110100010000
1111100011010010
1111100010101010
1111011111101010
1111101010101100
1111011100000111
1111110010100111
1111100101011010
1111100110010100
1111110111010000
1111111010101011
1111111110011000
1111111101111101
1111110110011010
1111111110000100
1111111111111011
101010
10111
0
1111111111100011
101011
1000000101
10011110
1111110101110000
1111111000110111
1111101011111001
1111100111001110
1111011110011011
1001000101
1111101001100100
1111110000010010
101001011
1111110010100110
1111110111101001
1111110010010111
1111101000111110
1111100001011111
1111111001000101
1111111101000100
1111111101010111
1111111110010111
1111111011111111
1111111111100101
1111111111111010
10000
1111111111011101
11000
1111111111011011
1111111111111011
1
1011011
11100111
11011000
111001010
1011101000
101000110
11101100
1111111010101100
1111111000100011
10000001010
1111111111001010
1111111000011010
1111110101001010
1111111110000110
1110110
10010
1111111111011001
10111101
11000
1111111111110001
10
1111111111010101
1111111110111110
1110
1111111111100111
111001
1111111111101110
100000
111
101001
1111111111111100
101001
1010011
1111100
11001
110111
1000100
10011010
10100101
11011010
10011111
100010001
1010001
1000000
10000101
10010010
100110
1111111111011100
100
1111111111110111
1111111111110110
