110
11110
11001
1111111111111011
1111111111100010
1111111111011001
1111
10111
1110
1111111111110110
1111111111100111
1111111111101101
1111111111101011
100000
1011
1011
1111111111001111
1011
10000
1111111111100110
111011
110
1111111111010111
11000
101011
1100
1111111111110010
1111111111111011
1111111111101100
1111111111101111
1111111111101101
1111111111111011
101111
110111
110001
11001
1111111111101101
10001
10101
110110
1001010
10000
10100110
100110101
100101011
10110110
1111111111110101
101010
101110
1111111111101111
10000
11
11
1111111111110111
1010
11111
111
1111111111100111
1111111111110011
1111111111111100
100
0
1111111111011111
101011
10110
100110
10011
1111111010101010
1111111001001011
1111110101110111
1111111101010000
110010
0
110101110
100000
1111000
1111111111011110
11100
111001
1001000
10
11
1111111111010000
100000
1111111111011011
1111111111110000
1000011
100010
1111111111110010
1000111
1100010
111
100011011
101010111
1010010000
1111111010100001
1111110110101001
1111110110001101
1111101100101100
1111101010101101
1111110010100000
1111111010001111
1111110111100011
1111111100101000
1111111110010000
101100011
111110000
101100101
11010001
1010111
110100
100110
1111111110100100
111100
0
11001
10000
1111111111010001
1000101
101011
111000000
10000000000
1111000010
10011010100
110000101
110000101
11110100
1111100100010000
1111100101111110
1111110111100110
111101010
1111110111100001
1111100110001010
101111010
1010100100
10010100011
1101100010
101101011
10001
1000000
1010
1
101110
10110
1000010
100111100
111110010
1111111010
1000011100
1001010000
10010110100
10011111110
1011110011
1111001110
100111001
1111110101011001
1111100001000111
1110111100
1111101000011110
11001101
1111110000110001
1111111001010100
1111111
100111100
1001001010
100101110
10100001
1010101
1111111111111100
1111111111010101
1110010
110110
1110011
1111111110001111
1111111010111000
101110101
10110
10010100
1111111101101100
11010111000
1110100101
10111110010
101111000
1110000
1111110011001001
1111110101110000
1111110011010111
1010110010
1111111110111001
1111111110001011
11011010
10001010000
1011011010
11100111
1111111111010010
1111111111100100
11111
1111111110111000
110001
1111111011010000
1111111010011100
1111111000011111
1111111010101001
10011111
11011100
1101
111110011
10111101000
1100010100
110100110
1110101011
100010111
1111110001100111
1111111101001101
1111110110000000
1111101001110111
1111101000110100
1111100111011011
1111110001111100
1110001011
11000000011
1110110010
1111111111000111
1111111111101001
1111111111110000
1110
1111111111110010
1111111011110101
1111110010111100
1111101110010001
11000010
1111110011010000
1111111111100001
111101011
1111111001010110
110110111
111011100
100011001011
110011011
1111101010101001
1111111111010100
1111110110001110
1111110001011111
1111101111010110
1111111110100011
1111111110000100
1111101110011001
1101100010
100100001100
1101111101
110
110100
100101
111101
100011
11000000
1111101111010011
1111100110101101
1111110100001011
1111111011011000
11011111
1111111001000010
1111110001000001
11011111010
1111111110110100
11101010101
10101000011
1111011011100000
1111001011000101
1111101100101100
100010100
1111111110110111
10101100
1111111100111111
1111111100001000
1101000000
100000000000
1001011101
1111111111001010
11000
1001
1111111111110011
101100
10111111
1111110111010111
1111110100000011
1111101001010111
1111110011111000
1111101010110001
1111101100100010
1111101000101011
10011001111
1111111000010011
10111100110
1110110100
1111010110010110
1111110001001001
1111110100001111
100100010
1111101011000100
1111111000110101
101111110
1011001010
10100001101
10011111010
100111100
1111111111011001
101001
1111111111000100
11000
1100001
101000100
100101000
1111111001011100
1111101111011011
1111101001111000
10000000
1111110100110011
1111101101110011
1111111101101110
11000000111
111101111010
100110011001
1111101000011110
1111110101100100
1111110001111111
1111110000001010
1111100111101101
1111110000000011
110011100
10001110111
1100101001
1010001011
1111111100001111
1111111110110110
1000
1
1111111111111011
1000011
1000001111
10000001100
1000110100
1111111010010111
1111110000100010
1111110101101000
1011111111
11011011000
111011101101
101100110110
1001011001011
100001101001
1111110101111110
1111110001111001
1111111001100000
1111111100111110
10010010100
1111111101100100
1111111001000010
11110101010
10110110001
1111111010100100
1111110101110010
1111111110100101
1111111111110101
110010
0
1111111110011010
1101111000
11001111100
10100111001
10011000101
100110111101
11011100111
101110000000
1000010001101
110010001100
111100001111
100000011000
1111110111001010
10001010100
1101100110
1110111
1100011001
11110101101
10001011011
10001101
10110101101
1010000100
1111111000011110
1111111001010101
1111111110001010
1111111101100000
1111111111111010
110001
1111111110110100
1111111110
10110000001
11110001101
100111011111
11101110101
1010000000010
1001000011100
101000111011
1010100101
111100000
10101000000
1111101011000110
1001010010
11001011
10100
1111111101001010
1111111110011100
100011010
1111111011000111
101111110
1111110101101011
1111110010000100
1111111101001011
1111111101000001
100010
1111111111010010
101100
1111111110011001
110010010
11001100010
100100111111
110101010010
101111000101
101010101101
10101110100
10000100
1111101111100111
10001100
1111111100111100
110000111
1111101110011000
1111110110011101
1111111011010011
1111110101011100
110111011
111
1111110111010011
100001100
100001
1111110001111001
1111111011011101
1111111101101011
1111111111011110
1111111111010101
1111111111001001
1111111101001101
1111111110101111
11100110100
100111111001
110011111011
11001010001
1100110111
1010111000
1111111110101001
1111110101011000
1111100101111110
1011011111
1010100000
1111111010101110
1111110011111011
1111101110011000
1111101001011001
1111101101110011
1111111001011101
1111101000101001
111100110
111100011
1111110010001001
1111111001101110
1111111110000001
1111111111111011
10011
1111111111101110
1111111110111110
1111111100111011
111100000
10010110011
10000111101
11111101
1111111001111011
1011100000
1111111101101010
1111101011111110
1011100
110100010
110100001
1111111101101001
1111111011010111
1111110010011010
101110111
1111101111110110
1001101110
1000001011
1111010100
10000111000
1111111010011001
1111110111110101
1111111110100100
1111111111110001
1111111111110001
1111111111111011
1111111111101000
1111110000011011
1111101001001011
1111101100110110
101101001
1111101100100000
1111111100011000
10010101110
10000110
101000101
1111101000100100
1111110010011000
111111
1111101100000011
1111110101000111
1111110000101100
1111111100000100
1111101110011010
10001001001
1101000010
111110110
100110010
1111111110011111
1111111011100000
1111111110101000
1111111111000011
1111111111000100
111101
110000011
1111110111111001
1111101101110111
1111101010001000
1111110011110010
1111100101110111
1111101000101001
1111101111110010
1111111001001010
1111110110100101
1111111011010111
1111101000010111
100100110
1111111000010000
1111111010011000
1111111101101100
110001111
1111111011010111
1011000110
1001101101
1111111110100101
1111110111110111
1111111010000110
1111111011100001
1111111110010111
1111111101110010
1000
101011
110010101
1111111011110010
1111110110011101
11000111
1111110101000110
1111100101110011
1111100100011110
1111111010000001
1111111111100001
1111110100111011
1111111100110101
1111110111010101
1111110011100010
1111111010111111
111101000
1111111100010010
1011010010
1000001110
1111110010010101
1111111110111000
1
1111110101110111
1111110110101010
1111111011001100
1111111111011101
101010
1111111111101011
1111111111011110
1111111110010110
1111110101001101
10111010
10010000111
1111111111110001
1111110100010111
1111110010101011
1111111010111010
1111110010000111
1101100101
1111110110100011
1111101101100010
1111101011110010
1010000110
1110011000
1111110110111011
1111111100001010
1111100101100001
1111101010011001
1111111001100100
1111111000110100
1111110011010000
1111111010001000
1111111011101110
1101101
1111111111100111
100001
1111111111011111
1111111111011100
1111111111111011
1111110111000000
1111110010010100
1111110000000010
1111100101100000
1111111010001010
1111111010100001
1111110000100010
1111111111100100
1111111000101100
1111111110110000
111101111
1010000
1111111011101000
1111111110111011
10001011100
10111111
1111111101010000
1111101001101110
1111101001011010
1111101111110001
1111110010110010
1111110110111100
1111111111110011
1111111111010011
1111111111110101
101000
1111100
11001101
111000
1111111010011011
1111110011110011
1011011
10100101100
1111111101010101
1111111110101000
1111110011100001
1111110110101100
101101
101100000
1111111001100000
10111110
10010011010
1111110111100000
10101000
1110000000
1111110010110001
1111110001001110
1111101101111111
1111110111000001
1111110111000110
1111111110101001
1111111111100101
11100
10111
1111111111100000
1111111111001111
1111110111000011
1111110111001001
1111110011100000
1001011010
1111110111001010
1111110100010000
1111111010
1101101111
10001111010
11111
1111110011111011
1111101101100101
110001001
1111110011101000
111001101
10000010111
1110000101
1111
110010001
1111111111001001
1111111000011100
1111111011101010
10101
1111111111101100
1111111111111100
1111111111011011
1101
1111111111011110
1111110111100100
1111110111111010
1111111011111100
10111101
1111110101111001
1111111010110001
10011001111
10100001111
1111101111110101
11011
1111110101101011
1111101110000110
1111111011111100
101000000
10000100000
1101001010
1101000000
10000101010
1000101110
11011000
1010001
1111111111111010
100
1111111111101111
1111111111111011
101110
1111111111110101
10010
1111000
1000110010
111010001
1111111110111000
1111111100111101
1010000110
10010000010
1101001011
10000111011
10010011000
1001100011
1001011001
1100000001
1011000101
111100100
100001011
1011000100
1001010110
11000000
1000111
1111111110111100
1111111111111000
110000
100110
1111111111110110
1111111111111000
11000
10010
1111111111111011
1111111111011110
11011
1111111111111101
1111111111010011
1111111111000010
1111111100110011
10011
1100111
10100
1111111111011000
1111111111001100
1111111110000010
1111111111110100
10010111
1111111111111101
11000110
10010101
11111111
1111111110111111
10101
1101
1111111111011011
101100
