1111111111110001
1111111111011000
10000
1111111110101011
101011
0
11110
1111111111110110
1111111111001101
1111111111010001
1010001
1111111111111100
1111
1111111111111110
10100
110101
11
111000
1111111111010001
1101
1111111111111101
10010
1111111111111100
1111111111110010
1111111111110100
0
101010
1111111111101010
1111111111100101
1010
1111111111111100
1111111111010101
100110
1111111111101101
1111111111011111
1111111111100111
1111111111110010
1111111111111100
1111111111101010
101001
1111111111011010
1000
1111111111100110
10001100
10
0
10000
1111111111101011
1111111111101101
1111111111110001
1111111111111100
1111111111111111
1111111111110110
11
1111111111111111
10101
1111111111011010
1000011
1111111111110110
1111111111101111
1111111111110011
1111111111011111
1000
11001
1111111110011111
1111111101101110
1111111111010010
1111111110010110
1111111110111000
1011010
10100100
1100101011
1001110110
101010
1111111111000001
1111111110111011
1111111111000010
1111111110111100
1111111111101001
1111111110110000
1111111111101111
11101
1111111111001110
11011
1111111111100010
1111111111110001
1111111111001000
1111111111000110
1001011
1111111101101000
1111111111000111
100
1111111111000100
1111111011100010
1111111001010010
1111110011100001
1111111110111111
1111111101001101
1111101100101110
1111111101101111
111011100
1110110
1111111011101011
1111111011000011
1111111100001011
1111111010000001
1111111111101000
1001001
11110101
111100011
10001
1111
101100
1111111111101110
1111111111110101
10011
10111
1111111110001101
1111111101001010
1111111001101011
1111110111001000
1111110011010100
1111101101111111
1111110100100100
1111110110101100
1111111011100101
1111101100110010
1111111010001001
1111110111010101
1111110110101000
1111110010001110
1111110010000111
1100
101110101
101001
1100001011
1111000100
10111000
1111111100101100
1111111110101011
1111111111100100
11100
1111111111100000
10
1111111111111011
1111111111100101
1111111001111110
1111110010110110
1111101101011011
1111101011000011
1111100101001100
1111110000010010
1111110011111110
1111111110000010
1111101110101001
10011100
1111111011111010
1111101101111000
1111101010000010
1111111000000001
1110110010
1111110010101111
1111111111100101
10001001001
1110010100
1111111011010010
1111111110101111
1111111111010001
111111
1111111111100111
11110
11110
1111111110111111
1111111101101000
1111110101011010
1111100100000000
1111010111010100
1111100001100100
1111110111001001
1111110111010110
11101111
11101011
100101001
1111101100111111
1111101110110010
1111110110010010
1111111001111001
1101011000
10100100000
100110110
100111001
10100110111
10010101100
1111111101110000
101001011
1101100
101
11000
1111111111101110
1100100
10101
1111111011010111
1111110011111100
1111101101110000
1111101000110010
1111110100110001
100111100
1111101111010110
10100101101
1111101010110001
1111110100111010
1111110001000100
1111110111001010
1111111001100101
1111110011100111
1111110010101110
10010010111
111011000
1000110100
1011100011
1010001111
100110
1101100000
111100
1001000
11
1111111111010001
1000010
1111111110000111
1111110111110001
1111110111011101
1111110111111100
1111110110001100
1111111101110011
1111101100011111
1111110001001110
111001010
100100111
101100101
110110110
10100111
1111111011100100
1111111101110000
1111111101100001
1011001000
10101110001
10010000011
1111111110100111
11001101010
11001100000
111110001
11100
110101
10110
1111111111001001
10001
1111111110101000
1111111001010101
10111000
1111111110101111
1111110000110001
1111110000110101
11100110
10010001
1111110111100011
1110101000
10110101001
1011011110
100010
1011111011
1110010110
101000010
101010111
10100100000
1110011001
1111111001100001
100010000001
11000011100
1111111111110010
111101
1111111111101101
1111111111100000
11111
100100
1111111110011000
1111111011101010
1111111011101011
11000110
1111101110100111
1111110110001011
100100101
1111110010011001
1111110010110000
1010010011
1000000101
10010100100
1111110011000100
1111110000101000
1111001
1011000010
100000000
1001111100
1101100111
10000110010
100111100110
100010001111
110011001
111
10110
10110
10000
110111
11000
1111111101001001
1111110011010000
1111110100111111
1111101101001000
1111101101001100
1111110001001110
1111110100010101
1111110010000010
1111101010101011
1111111110010101
1111101100110001
1111101000001011
1111011111110110
1111100100110001
1111101101010110
1111111011110000
10100111
1111111101101000
101110001
1001101110
10111111111
110111110
1111111111000011
1111111111110101
1111111111001110
1111111111111000
1110
1111111010111011
1111110110011010
1111110010110110
1111110101111110
1111111000101101
111111010
11101111
1111111001111010
11101
1111111110110010
1111110100100100
1111011101001000
1111010100101101
1111000000111110
1110101110011000
1110111010001000
1111011100001111
1111011100010111
1111100111001010
1111100100110100
1111101001111110
1010001
1111111
110000
1001
101
1111111111110100
1111111111010111
1111111001011010
1111111000000110
1111110100101101
1111111101101111
1001101010
100101010
101111001
1111111111000000
100011110
1111111111000101
10000001011
1111100101111100
1111111000001100
1111100010111110
1111001000101011
1111000100100010
1111010101100010
1111010100110100
1111010111101101
1111011110110111
1111100110100000
1111111001110101
10
1111111111010101
1111111111100011
100101
1001100
1010011
1111111111101111
1111111101101110
1111110101010111
1111111001101100
1111110101011010
111000001
1111110111110011
1111100101110111
1111110010000000
1111101001110110
1111110011001110
111001
1111111010011000
1111111110011110
1111110101001100
1111010100000001
1111011110100100
1111100101001111
1111100010101000
1111100010101100
1111101000110010
1111111010001110
0
1111111111001010
1111111111011010
1111111111111110
100000
1111111111001111
1011011
1001110110
10001101110
110101101
1111111110011100
10000001001
1111111110001000
1111101100110100
10011100110
1111111010000000
1111111111100101
1111111111001000
1111110111101100
1111110000000100
1111111111000100
1111100110001000
1111100110010101
1111101010111110
1111100010110111
1111101010101100
1111101110001010
1111111100111111
1011
1111111111011100
1000
10010
100111
1000
1111111100110100
1011100101
1000111000
1111111010111100
10011110
1111101101000100
1111101111100100
1111111101011011
100010000
100101
1111110111100111
1111110110010100
1111101101100011
1111111100100001
1111110110111111
1111110011010001
1111110001100101
1111101110101101
1111101011000001
1111101100000010
1111110010001010
1111111101100111
1111111111101111
1111111111010111
1111111111101000
1111111111111000
1111111111001010
1100111
1011001
110000010
1111111111010001
10011111
1111111111011101
1010101
1111110011101110
1111101101111111
1111110100110011
1111111110000111
10011110010
1101111001
1111111011111110
111001100
1111111110001110
1111111000000110
1111111011101100
1111101100110011
1111110001010000
1111110101111111
1111110110100111
1111111100101010
1111111111000001
1111111111001111
11111
1111111111011010
1111111111001111
1111111101100000
11111111
1111110101011101
1111111111011101
1111111011100011
110110
1111110100011100
1111111010001101
1111111100001100
1111111000010001
1111111101000100
1100111010
10001001
1111111010101101
111000000
1111111001011100
1110001011
1000100101
1111101110011101
1111101101010100
1111101110000110
1111110110101001
101
1111111111011101
1111111111010101
100100
1111111111101111
1111111111111011
1111111011001101
1111111100101011
111000000
1100101001
1111111111001010
101100101
1111111010011110
1111111010010111
100001010
1110000
10101001111
10100110111
10000100111
10101110001
11110101
1111110000001100
10001111010
101110011
1111101011101010
1111110100111011
1111111101011110
101001
10111110
1111111111010101
11110
1111111111100101
10000
1111111111110011
1111111000001110
1111101111110000
1110001
1100101110
1011111
1101110010
1111111101000101
1111111110101010
100111111
1000000111
10101001
1111111010000100
1111111101010010
1010100100
1110101100
101111001
11111100001
10101110
1111100111111001
1111111010101011
1111111110011111
11101111
1010010
10000
110001
10111
1110
1111111111100011
1111110101101101
1111110011100000
1111111101010101
1111111000001101
1111111101010111
1011101111
1111111100001000
1111111111111101
111100000
1111111101000000
10000
100001000
11011011001
1111110010011010
100100101
1000000000
10011010101
1111101010
1111110101010100
1111111010000101
1111111000111100
1111111101001011
1111111110110110
10101
1111111111011000
1111111111101010
1111111111100101
1111111111110111
1111111100101000
1111111000011110
1111110111110110
1111111101010001
1111101111001011
1111111100101001
1000001101
11000000
1010010111
1001001110
1111111101110110
110100100
11101001
1001
10100001000
1000111010
110110110
1010100110
100010110
1111111100101100
1111111101011001
1111111111011100
1111111111101111
1111111111110011
11101
100110
110010
1111111111011101
1000001
10111100
1111111100001011
1111110101010000
1111110000110000
1111111100110110
1111111110100100
1111111111010001
100111010
1111111110000011
1111101011101101
1010110111
110110011
101110011
1111111111011011
10101100
1010010
110001011
111110
1111111011011110
1111111100110110
1111111111111100
1111111111010100
1111111111010001
1111111111111110
100101
1111111111100001
10110
100100
1111111110001101
1111111001000000
1111111001100110
1111111111010011
10100100
1001011001
10010100
1111111100010000
1111111011101100
100011100
11101011
1111110110011110
1111111000111100
1101001000
1010100111
1111111111011111
1111111111010100
1111111011101010
1111111110111010
10010
1111111111111011
1111111101111100
1111111111110010
1111111111110101
1111111111101010
1111111110101010
110000
1111111111110011
1111111100111101
1111111100010000
1111111000010010
1111111000010010
1111110111111010
1111111110111111
1111111110000111
101010100
10000001011
1101011011
1111110110010000
1111110011010011
100010110
10000100111
110111110
111101011
10001111
1101110
1000100
1000100
1111111111100010
1111111111010011
1111111111111001
11110
110
11000
100011
110101
1111111110111111
11
111110
1010
1111111011000111
1111111001011011
1111111110101111
101000000
1101100010
110101111
1111111010100011
1111111101110000
110011101
1111111101011110
1111111101000101
1100100
1110101
10000110
10100
1111111111110000
1111111111110000
100011
1
1
1111111111101011
1001
101000
1110
0
1111111111000110
1010
1000111
1111111111011110
0
1111111111100100
1111111111001110
1000
1111111111110011
11010
1111111111100000
11000
1111111111011110
1111111101111110
1111111111100001
1011
1111111111110101
1000010
100
1111111111110111
11100
1000010
1111111110111001
