1111111111111101
101010
1111111111011111
101101
1111111111101110
1111111111110101
110011
1011
1100
1111111111100101
100000
1111111111101111
1101
100001
10
1111111111010100
1
1110
1111111111000101
101
1111111111001000
100110
1111111111100001
1111111111010100
1111111111110111
1111111111111110
0
1111111111100000
11100
1111111110111100
1111111111011000
1111111111100110
1111111111101001
1111111111011010
10000
1111
110011
11010
0
1000110
1111111111010010
1111111110100100
1111111111001010
1111111111101100
11111111
1010001
1111111111110011
1111111111000111
1111111111010111
1111111110110001
1111111111001101
1111111110101001
1111111111101000
10000
1111111111011000
1111111111011001
1111111111100101
101111
1111111111111100
1111111111110111
1111111111111011
1
10001
1111111110101100
110100
10010010
1110110
111100
1110000
0
1111111010010111
1111110011000110
1111111011001011
1111110000111001
1111110001000100
1111110100010110
1111111010100011
1111110111100111
1111111011110000
1111111111000000
10100000
10001100
1111111111110100
11001
1111111111001001
1111111111011110
111
11001
1111111111101010
1111111111110101
1101
110100
100110101
101010110
1110010011
1111000010
10010100111
1111000011
1111111110010100
1111110101011101
1011101111
101100000
1111110100001101
1111110000110011
1111110111000001
1111110011110101
1111110101000011
1111110100011001
1111111010110100
10000011
1111111111100011
1101
1111111111110001
1111111111011100
1111111111101001
100101
100111
10111
11110000
1001011101
11000010001
10101000001
11011011000
100010100001
11100000010
10010110101
11000001010
100011101000
100010101
1111110111000100
1111111101110010
1111111001010000
1111111000101100
1111110011111011
1111110100001011
1111100000101101
1111110010000110
1111111111011000
1101110
1111111111010010
11001
1100
110110
10101
10001
10010010
111000111
1100111101
11011101111
11111001110
101111101101
10110111101
1111111110011101
11010
1111110100000101
1111101100000011
110100011
111011
11110001110
110001010
1111110100101000
1111110110010111
1111111000001001
1111100101001111
1111101011101010
1111111101110001
1111111101101001
1111111110001010
1110
1111111111111110
1011
1111111111111110
110000
1111111101100100
1001001011
11101001101
101001111110
111110001000
110010101000
11111011
1111101110011100
101000111
1111100101011010
1111011100011000
1000111101
1101110101
10000101100
10011110
1111110110001101
101001100
1111111110100000
1111100011111110
1111101011110010
1111111111001100
1111111111011111
1111111111001100
1000
10000100
1001110
10111001
1111111110011010
1111111100000111
1001000100
10111010011
100111011000
110111001011
11001010001
1111111111011000
1111111010101101
110100101
1111110011101010
1111111010101110
10110000001
1110000000
10101001001
1001010110
1111110110001110
10000011001
101100111
1111110100011110
1111110010001101
1111111100010101
1111111101101110
110101
10010
10010
1101110
10010000
1111111111101011
1111111100111110
1111111111110010
1001010010
11101001100
111111001111
101111011010
1111100010101111
1111100101011010
1111101001111100
1111111111001101
1000001001
11011100010
10001110111
1010110001
100101100
1111110111100011
1001001001
1111110111001011
1111101111110111
1111100100111010
1111110011011111
1011
100
1111111111100111
1011
11110
1000001111
100101100
10011110
11100011
11101000
11100111111
101110110011
10110011011
1111101011110000
1111110010001100
1111110010001100
1111101110011010
1111110101000010
10110111001
100000010001
10011110011
10100010100
1101000101
110010111
10001110
1111110100100001
1111110010111011
1111111110010010
11110101
110001101
1111111111110110
111001
1101010
110011101
1010011011
1101001100
1100000110
1011000010
10011010010
100100100001
10000010110
1100001011
1111110011100110
1111101001000000
1111011001111001
1111110111111100
10000111100
100101111010
100001110101
1010000100
11100110110
1110010100
1010110111
1111111101010101
1011
100111010
111010110
1010001
1010000
1010000
1111111111001011
1000100010
1010111101
1110100011
1100001000
10010001001
11011010100
11001101001
1111111011010001
110110010
1111100000011100
111010110
11010111
1111110010111100
1111101001111101
10101101010
10001100100
1111011011
1101010
110011100
11100100111
1110101101
1000101100
111110000
100101001
1111111111000001
1
1111111111101000
1111111111110001
110100000
111110001
10000000010
1100001001
1100111111
10000010000
10100000001
110101100
1111001111101010
1111001000111011
1111101100011100
1111100111111100
1111110001000101
1111111011111011
1111111000011101
11110110100
10010011111
1111110100011010
11100111
10111111001
1100110110
10100001011
10111110001
1000010101
100000
1111111111011111
10
10111101
100010100
1011000000
10000101000
10001001000
11010
1111110011011101
1111111100011111
1110111111
10000
1111101000001100
1111101111111001
111
1111100011110011
1111110001010000
1111111111111101
10111100100
10110111010
1111101101001110
1110101001
11110111101
11110010111
100101011111
10111000001
100111001
1111111111110111
1111111111110000
1111
1000110
1110001
1000101100
1011101101
11010100110
1000001010
1111110010010110
1111111111010011
1111111010011011
1111111100101001
101010001
1111101110001001
111100001
1111111011010011
1111111000010110
111011111
10100110111
10101001110
1111101000011000
100000
10111101001
11100111111
10101000100
111101100
1000010010
1111111111110100
1111111111111011
11000
100001
1111101
101011011
1011110001
1001001111
1111110010001010
1111111011101000
1011111101
1111110110
1101101111
1111110110000000
11010010
1111101010011011
1111110000110111
1111101101011010
1111111111101010
1000110
1111111100010100
1111111101111100
1111110111010101
1110011100
1101110010
10111001000
10011111011
1111110010
1111111111011000
100000
1011
10001001
100010101
111000011
1111111100111011
111001010
111100101
1111111101001111
11000011000
100011100001
1111110111101100
101000000
111
1111101110000001
1111110001000001
1111111001001100
10001000010
1100110100
1111111011111101
111101110
1111110100000010
101001111
1011011011
10101010101
10000000011
110010000
1111111111111010
1111111111010001
1111111111101110
10101111
10000101
1011010
1111111010000011
1000001011
1111111010001000
1111111001010110
1111110101011110
1111101101101000
1111110100100111
1100110100
1011010100
110011111
1000100100
1111111011111010
1100000001
1111111001111101
101001111
1011000
110000101
1100110111
101101100
1110010110
1011010001
10101110
10010000
1111111111111100
1111111111011100
1101000
10100111
1111111011001101
100111100
10110101
1111110011010000
1111111110001010
1111101110101101
1111111010111100
1111111100100101
1101110111
11010110
1111101111011100
1000010100
1111110010100011
1111111010001010
11000101
10101100
1111111110001100
111101011
10000100101
10010001111
10001110101
111001011
1110010
1111111111100011
1111111110101101
1111111110111000
1010001
111110010
1111111001011001
101010000
110100010
1111111110010110
1111110111001010
1111101000110111
1111101111111001
1111101000110111
1100010100
11000110
1111111010001011
1111111000100001
1111101111010101
1000110101
1111000000
11000000
11110001
1011011100
10001100010
1101001001
111100000
100100011
1111111111010111
1111111111101101
1111111111110100
1010000
1111111111110011
1101000101
1101100
1111111100011000
1000001
1010000101
1111110100100000
1111110011011011
1111111011010111
1111111101011000
10011000
10000101000
1111110110110000
1111011011
1001100111
1111111101001011
1111111010000100
1111111100001100
1101010110
1010101000
10000100000
1100011011
111010111
11110101
1111111111111100
100101
1111111111010000
110100
1100101
111010010
100001011
110001
11110100
1111111110011101
1010111
1111111110000011
101110011
1111101111111110
110
1111110111011001
1110100100
1111010011
111011001
1111111011000101
1110000
1100101011
1111110000
1111011011
1010101100
101101001
10001110
1100010
1111111111011001
1111111111010100
1111111110111011
1111111110111110
110
1000100
100011100
110100001
111010011
101010100
101100111
1010001010
101110101
110011010
1001100000
1111100111000010
1111110111010101
1001010
1111111001001011
1111101100010111
1111111111011100
1111111011111011
10100101
110001110
110001000
10011111
1111111111100101
1111111111001011
100011
1111111111110001
11
1010
110110
1111111111111110
110110100
10100100
1111110101001111
1111111010110100
1111110100100101
1111111010011010
1111110000101100
1111101011
110100010
1111111111000100
1111110011110111
1111101111110111
1111110111010001
1101011001
11100000
1111110011100110
1111111000010100
1111111111110001
1101110
1010001
1111
11
1111111111111111
10011
1111111111111101
1111111111100100
101000
1110011
1000000110
1110000111
1011000110
1110
1111111000100100
1111011100100000
1111101001100000
10111111100
110000100
10111101
10101000100
1111111111101111
1101001111
11101010011
1001101
1111101101010010
1111101110101110
1111111000010101
1111111100100101
1111111110111010
100001
1111111111111111
110
100011
1101
1111111111100010
110010
100010
100100110
1001101011
1111011100
10000010111
101111011
1010111
100000001
110101
1111111001101011
1111111001000101
10010010
1100000
101000011
111001100
111101000
1111111111000000
1111110110010111
1111110111110100
1111110111100111
1111111100110111
1111111111101011
1111111111100101
1111111111111011
1111111110110100
1111111111011101
10010
1111111111110110
101011
1111111110110101
1000101
1101001
1110110
101010001
100011011
1011000101
1010000010
101000
1000000111
1111111100000010
1111110110010010
1111111100110100
10010010
101011010
10100101
110100
1111111111100011
11001
1111111111011101
111011
111
11010
1111111111100001
1111111111111011
10110
1111111111111111
1111
11101
1111111111111010
1111111111110010
1111111110110101
1111111110001001
1111111111111011
1110010
11111
1111111111110100
1111111111010000
100111
1111111011111001
1111111011111001
1111111111111001
10111
1111111111110100
1111111111011110
1111111111110111
1111111111110001
11010
1111111111101001
1111111111110010
1111111110110001
1111111111100110
