1111111111101000
1110
1111111111010011
100111
1111111111101010
1111111111011001
10110
1001
0
1111111111111101
10011
1111111111110000
1111111111110010
1111111111001011
1111111111100000
111
1011
11100
0
0
1111
1111111111100010
11111
1111111111101100
1111111111100000
10
1111111111000011
10000
1111111111111000
11001
1111111111001110
1111111110111101
1111111111110010
1111111111100001
101110
1010001
1011111
100101
11010
10101011
100000001
11000101
1111111111001111
100101
11111011
10111010
11111
10110
11001
10
110111
1111111111110101
1111111111101100
1111111111010110
1111111111011100
1111111111010011
1110
110110
1010
11000
1111111111111111
11101
1110010
1001111
10010011
1010011
1111001
110100010
101010111
10100011
101101001
101010001
1010000000
1101010011
1001111001
110100000
11011010
1010010
11101
1111111111110001
1111111110011110
1111111110110111
1111
1111111111001101
11111
110100
10000
1000
10000
1111111110011000
1111111111111101
1101010
1111111111010101
111100101
1000110000
101010111
1111111000010011
1111111100001011
10100000010
1100101100
10111110100
11111001100
11111000010
10000100111
101100110
101110110
10111101
1101100
1111111111101001
1111111111111110
10000
101011
10
1111111111110111
1101
1111111111110000
1000
1111111100010000
100000011
11010110
1111100110000110
1111111100010110
1111110101001110
1111111011110011
1111101111001010
1111111000000100
1100000011
1111111100111010
10101110101
100110111101
11001101011
100110111000
11111111000
1110001000
1011101001
100000001
110101
0
1111111111101010
101000
1111111111110111
1111111111100010
1111111111110111
1111111100100010
1111110010001011
1111110000001101
1111111000111111
1111100101010010
1111110100110011
1111110110011010
1111111100100010
1111101101100100
1111101100010100
11000
1111111010010010
1111111100000000
1111111110011110
1110101011
10101000111
100011110110
110101100111
11100101111
10001100001
1001100111
101
1111111111011100
1111111111010011
11011
111010
1110
1010100
1111111001101100
1111101110001100
1111110001110001
1111011001011110
1111110101100000
1000001100
1111111000110011
10011010
100100011
1010111010
1001101
1111110011100001
1000110011
1111111010001101
10101011111
1110111110
100010011001
11001011101
10111100100
10010111011
1010100101
100110101
11101
1111111111100101
1111111111110101
101110
1111111111001100
1111111111001111
1111110101000110
1111100100100001
1111111001000010
1111100001011111
1111101000011100
10110001100
11000001010
11000111111
10010111111
1111101001
1111110110101000
11100100
101000001
10010011
1110101100
10000110110
100001111111
100011111100
100000101010
11000101010
10001111001
1011011111
100010110
1111111111111110
101
1011
1111111101111111
1111111101110110
1111111010011111
1111101101011100
101111
1111111000110111
100001000
1110000011
1111111101101110
1111101101111101
10011000011
111101
1111110010000001
11000011
1111110011000000
1111110011110011
1111111101110100
10111011000
10110110001
101101011000
100001011010
100011110010
11000111001
1111001010
111000010
1111111111010100
10010
11101
1111111100111110
1111111101001000
1111111010010010
1111101010001010
1111101001010010
1111111100111001
11111011
1010100101
1000001100
10100101110
1001010101
1111110100001010
1111101000011000
1111000011011010
1111001001100110
1111100010101010
1111110111110010
10001101100
10110111011
100110000000
11001001110
100000010101
100001000001
1101100001
1111010
1111111001110100
1111111000101011
1111111111101111
1111111101011101
1111111110101011
1111111011010001
1111110000111010
1111100111010111
1000011001
10111010100
101101110101
10010100110
110011000
1111101000010101
1111110111110100
1111011100000111
1111010001110110
1111010111110001
1111011100000010
1010100111
100100001000
10010011100
1110010110
1111110110
1111111010
111011101
1101011111
1111111100100111
1111111011001011
1111111101110011
1111111111010010
1111111110101011
1111111100011100
1111111001011000
1111100111000011
1111101001000101
101011100
1101001101
1111111110000010
1111110000000100
1111110110011100
1111100001011110
1111100111111111
1111101010011001
1111100000110010
1111100010101011
101000000110
111111110001
110001101000
1101110010
100111011
1001000111
1111110111100111
1111111111101000
10111111100
1001101100
1011111
1111111111100010
1111111111101101
1111111111001101
1111111011101100
1111110111110001
1111101110110001
1111110110001001
110100000
1001111110
1111110111100101
1111101111011010
1011000110
1111111101001100
1111111110010101
1111110011111101
1111010010100001
1111101000110011
1101110000
10010100101
1111000101
1111111001110100
1001101010
111101001
1111110110101010
10111000
1110000
1111111100110011
101001
1111111110001110
1
10110
1111111101011101
1111111011101011
1111101001101110
1111111011110000
1111111110010011
1011001110
10001000111
10001011111
1000101010
1111101111101101
1111111111110011
1111101101010101
1111100001000000
1111111010111111
1111111010100111
10011100110
1111110001011101
1000011100
1111111000000111
1111110110011000
10000110
1111111000100001
1111110001001100
1111111000100010
1111111111001010
1111111110100101
1111111111010110
1111111111010111
1111111111000010
1111111111010011
1111111110111001
1111111111000101
1100111001
100011000110
1010101010
10101101010
10101110110
110110000
100100
11001000
1111101000110011
1111101110110010
10001101
10011001110
1111111111110011
1111010101100010
100
1111011101010110
1111111000010100
1111101010010001
110
1111111101111001
1111111010111010
111
1111111111100111
1111111111010111
1111111110100011
0
1101010100
1101000111
110101010
11011100000
1001101
1111111100000110
101111100
1111110001110101
1111111000100111
1111110110000011
1111110001011001
1111111110001001
1000111100
1111110111011111
1111111101101100
1111101111101001
1111111100101110
1111110111001001
1111110000101000
1010100010
10101
10001000
1111111110010110
1111111111100000
10001
110110
1111111111000000
10101011
1011110101
11010000110
11101101
1111101101100101
1111110011000010
1111111010110011
1111111010010101
1111001110
1100101000
1111110100000101
1111110011111001
100100111
1111111001100010
1111101000
1111111011110110
1111111110011001
1111110000100100
1111101010111010
1111110101101111
10110011
1111111010001010
100001011
1111111110000010
1111111111111111
1111111111111001
111
10000
11111010
101010000
1010000100
1111111101111110
1111111001101000
1110010000
100101000
111011010
1011101001
1111111111011111
1111110001110110
1111110011110010
1000101
110001100
1111111000111111
1011010110
1111110011110001
1111110110111100
1111011110000000
1111101010110101
1111111011010000
1111110100001101
1111111100101110
1111111100100101
10001110
11000
1111111111011001
1111111111101001
101010
1111111101100110
1111111111001101
1111111011010101
101011000
1111110110110010
1111111001100010
1010111111
1111111110010000
1010101001
1010
10010101001
10001111001
1010110011
1111110110110101
110001011
1111111000000001
1111110101101001
1111101101010010
1111110011010000
1111111010100000
1111110111010001
1111111011001110
1111111101110011
1111111111001001
1111111111010110
1111111111111000
100101111
111111110
1111111101011111
1111111100101111
1111111101001011
110101010
1010001100
110011000
1100111101
101101100
110000
1111000000
1010000
10100010
1111111011111100
11011110
1111111000101110
1111111011001110
10110111
10101100000
11011000
1111111010001010
1111101110100001
1111111011100101
1111111111010111
1111111111100011
1111111111100110
10001
100100100
1001000111
110000101
110001101
1111111110001101
1111110001110110
1101101110
1111110011110010
1111111100011011
101001001
110110001
1000101001
1000011010
1111110011110111
1111111010101110
1111110101001001
1111110110000100
11110011
1111110000110001
111111110
11101111
1111101110001100
1111101110101010
1111111101100010
11001
1111111110011001
10001
1111111111100101
11
10000101
101111111
11010111010
10000010110
10001110011
1001101001
1111111101011100
111100101
1111111001
1111111110011111
11111100101
1011100110
1111111011011110
1111111010000001
10011001000
1000001000
1111111111001101
101000001
10011000111
10010111
1111111000111010
1111111111000110
1111111111100011
10110
100011
101
10101
101011
1111111111000110
1111111001100000
1000000101
1011001100
100010100
101010000
1111111110010011
1011000100
1111111101000000
1111110001100110
10000000110
11001001101
10011110
101000100
10010010010
1111111010111101
1111101110101100
1111111001110111
10001000000
1011110
1001010111
100000001
100110
10100
1111111111011101
1111111111110010
1111111111111011
1111111111100100
1111111111101000
1111111010010000
1111111010101100
1111111100110010
1111111101100111
10110
1111101111010010
1111111101001010
1111110001101100
1111111010100111
1111111000101011
1111111110100011
1111111000010101
10010110000
1111111000001100
1111111110010111
1111111101011010
1101000100
1110011011
1000100101
10001001111
111010110
1001011
1111
101100
1010
0
1000010
1000
1111111100100001
1111110101010100
1111110001100000
1111111101010100
101100101
1111111010010111
11001011
1010100000
10111101001
1111110011000111
1111110000010101
1010111101
1000110011
1111111011100010
1011001011
110100000
1111011111
1100000010
101101000
1100001110
1000100011
1001
100110
1111111111010001
1000000
101000
100001
100100
1111111100101010
1111111000100111
1111110110101100
1111111000110000
1111110110001001
1111110010010001
1111101110111100
1000000001
1001110111
110010
1011001
1111110110101011
1111111000100101
111111011
1111110001101010
1111110011101101
10110000
111110001
1100
11110110
10111011
101000
10001
1111111111110000
11111
1111111111100110
1111111111100101
1101
1001001
1111111111101110
110011
1111111111110101
1111111100100111
1111111100001010
1111110110100101
1111111001011111
1001000001
1000111001
101001111
1111111100000100
1111111111001101
1000000100
1111111111111010
1111111001111001
1001110
100001100
11101
1111111111110111
1111111111000110
101001
101110
1111111111101100
10111
1111111111101100
111001
10
100
1111111111101101
1111000
100000110
10110111
1001
1111111111110101
10010
10100000
1111111111011111
1111111111101010
1111111110111101
1011001
1111111110110001
11
1111111111011001
1111111111001100
11010
110001
100
111011
1111111111101011
1111111111111100
1111111111110011
