1111111111110110
1111111111011101
1111111111011011
1
1111111111101000
1111111111110101
1111111111101000
1111111111110110
1111111111010101
1111111111010011
111
10101
0
100000
1111111111011101
10011
1111111111111010
1111111111101101
1111111111001111
10111
1111111111100111
1011
11010
1111111111110010
11111
1111111111101001
1111111111011101
1010
1111111111110011
1111111111010110
1111111111101001
1111111111101111
1111111111100111
1111111111101011
11111
1111111111100100
1111111111101111
1111111111111000
1111111111111011
11
10
101
1111111111111101
1111111111111001
1111111101011110
1111111111011101
1111111111100001
1100
1111111111111011
1111111111101000
110
11111
1111111110111111
1111
1111111111110010
1010000
111
1111111111111110
1111111111111000
1111111111011111
11100
11011
10111
1011011
1001
100101
1111111111100010
10011
101111
1101110
1011111
1111111110001110
1111111010100001
1111111101011001
1111111010110001
1111111111111000
1111111110011000
1111111111111010
110110
101111
1001
10010
101
1111111111011101
1111111111100100
1111111111110001
10100
1111111110101000
100010
1010
1010100
10011110
1111111011100011
1111111010011001
1111110110010110
10000000
1111111100000010
1111111011011101
101101001
100
1110111
1111111001100111
1111101011110011
1111110000010111
1111111000000111
1111111111000001
1010001
10110011
100011110
111110
100000
10001
1111111111100011
1100
1111111111110111
1111111111111010
100000
10100100
11010111
1111
1111111100101000
1111111010001011
1111111101011011
1111110001110111
1111111011001101
111011101
101100001
1111111111011000
100001100
1111111000110100
1111100011101000
1111110010100001
1111111011011101
1111111110011101
110110101
1100111110
1011011010
1111111
1111111111011110
1111111111111010
1111111111101111
1111111111110011
1111111111101001
1111111111010011
1111111111100101
1111111111010111
10010110
11001010
11101010
1111110110101001
1111111100101010
1111101000011000
1111110100111100
1111110011010010
1111110011111100
1111110101001001
1111110010101000
1111110001111111
1111100000111100
1111100010100010
1111100111110111
1111111000110001
11010100
10011001001
1110000100
111000000
1111111111110001
100110
1111111111010000
1111111110111110
1111111110010000
1111111110010111
1111101
1111111111111011
11110011
1011101101
1011011011
1101110
1000111100
1111110011100001
1100011010
0
1111111001100000
1111101001010101
1111100111100000
1111110001000100
1111101010101001
11
1111111101100001
101110101
1111111101110110
1111010001
110111100
1111111101001010
1111111101010111
0
11001
1111111111111010
1001000
10101001
1001010
1111111010100110
1111111001111110
1111111110110000
100000
1001000010
1111111000010010
101011101
1011100100
1111101000
111001
1111111001111110
1111011010111100
1111011110110010
1111100001000001
1111110110011110
110010000
1111111010000000
1111111011111010
10001001101
1101011111
11110111
1111111100000000
1111111111100111
1111111111100110
101
1001101
1111111110010110
1111111001101001
1111111011110010
1111111010110011
1110000
110010100
101000
1111111100011111
1001010011
10010010111
1111110101010000
10011001
10100001000
1111101001010011
1111001010111001
1111011000100000
1111101001100110
11000101
1111111100010011
1111111011111010
101110
1111111111000100
1111110011010011
1111111011111101
1111111110111111
1111111111010110
1111111111111101
1111111111111001
1110
10101101
1100111111
100001
100110011
1111111101111100
100101110
1111111101100001
1111110100010110
1111101001000111
1111101011110100
110110100
1111101001000010
1111111011001111
1111111110010110
1111101010110101
1111100001001111
1111111001100111
110000111
1111111010000010
1111111101110100
1111110001001000
1111110011100110
1111110111011001
1111111101110100
11111
1100110
101110
1111111111101000
1010011
110101111
1000100110
1001011010
101000001
1111111101110010
1111111011000111
1111110001101101
1111100111000110
1111101100110100
1111011110010100
1111100111000010
1010011
11010100110
1011111111
1111101111101000
1111100001100011
1111111101001001
1111110111001101
1111100110110001
1111100100110001
1111110100000000
1111111000100010
1111111111110011
1111111111101001
1000111
1111111101111111
11101111
1111111010110011
111000001
10010101110
1111010101
1111101111110100
10000100000
10001000111
1111110001111001
1111111110111001
1111111000111000
1111111000010101
1111111000111011
1100101011
11010100000
10001100001
1111111011001000
1111101001101001
1111111010010101
1111111000000001
1111100010011000
1111011000001011
1111110000000111
1111111011010111
1111111111001001
1111111111111001
1111111111110100
1010101
1000110101
1111111110010110
110010011
1001101
10010000
111000000
101000
11100001
100101101
10001011100
1111110101001100
1111011100100011
110001110
100011000100
10111000111
11001000000
1111111011001100
1111110011111100
111110010
101011010
1111110000111111
1111111000111011
1111111000101111
1111111101010100
1111111111111101
111000
1111111111011101
1001010
1000010110
1000001010
1111111101011110
100000011
1000000100
1111111001001010
10100100
10111000001
10010001010
1111101111000111
1111011100011111
1011010011
1011011011
1000111110
11011001011
11000010110
1010111111
1111111100111010
11010001
10010110011
1111111101011010
1111111110100110
10011111
11011
10010
1100
1111111110000110
11000
1000100001
1100101100
1010110111
11110011
1000100011
111001011
1111111101111101
10000010111
1111111001111010
1111100010100010
1111101111100111
10101011101
1010111001
1101001101
10010001000
1000110100
10100101110
1111111001110111
1101
10000000001
100111101
1111111001011010
1001010001
1111111111001111
1111111111111100
1111111110111011
1111111101000001
10000000
1101111101
1100011000
1111110111000100
1111101110011111
11111101
11
100110110
1000010011
1111101000100011
1111001110101001
10000010
100010001001
101110110100
100000101
1001100
1000110110
1111111100000010
1010000111
10110000
1001001101
1111110111011001
11010000
111101101
1111111111110100
1001
11110
1111111111100010
1111111100110101
11001101
111110011
1111111011001011
1111111011000000
111010111
110011101
1010011
1111100111000011
1111010011000111
1111111000000110
101011000011
111111010100
10111110101
1111111011010001
1000110000
1000010011
1111001
10011111110
1100110
1111101001010011
1001101011
1101001000
110101011
1111111111001001
0
1110
1111111111000101
1111111100110000
1111111010001100
110110000
1111111011100101
1111110111001100
1111111110010000
11011010
1111110100011001
1111101001001111
1111100110001001
11101000100
101011010111
11111110010
1111111100011100
1010110
10001010011
1000000000
1111110101000110
1111100
10001010
11100110
1011100
1100011111
1000000010
10100111
1111111111101101
1011
1111111111110000
1111111101110110
1111111101110000
1100101010
1111111010010001
1111110011000010
1111111001111101
1111110011101110
1111010110011000
1111011010001110
1000011010
11111111010
10001101110
11100001
1111111000100100
1010001101
111011000
1100000000
1111110101101111
1111101111111101
1111110110011100
1111110100110110
1111101100101001
10000111
11111101
10000011
1101101
1111111111100110
1111111111100110
1111111111101101
1111111101000000
1001101101
1111111011101110
1111110100110101
1111111111101001
1111101111011001
1111100111100011
1111101110111111
1111111111111011
1111000001
11001011011
111100110
1111110011
1011110011
110001110
1011001100
1111111010001111
1111111100100000
1111110011000010
1111101001011001
1111101001010011
1111111101110101
1111111110100100
111
1111111111100110
1111111111110110
1111111111001111
10110
1111111100011001
111000000
1100100
1111101110010010
1111110001110101
1111100110001100
1111011010100101
1111110001000001
1111111111000111
10000010110
1110011000
111000101
1111100011
10111110010
11000100010
1110111001
1111111001001011
11000111
1111101101011000
1111011110010111
1111101011111000
10110001
1001001
111100
10100
111
110
1111111110011100
1111111011100111
1111111101011000
1111111001110111
1111101101100010
1111101001101001
1111110011111101
1111110000111101
1111110000010101
1111111001100001
1111111100001111
1111110010100010
1110001010
10110001
101111000
1111111011110110
1111111011001111
1111110101011010
1111110111001111
1111101110100101
1111101101101011
1111111111000100
1111111111010001
110100110
101000
1111111111100100
1111111111110001
1111111111111101
1111111110101000
1111111011101111
1111111000000010
1111110001111001
1111101100111010
1111111000010001
1010010011
1111111000001000
1111110000101010
1111110111100011
1111110100101101
1111101111110100
1100010100
1111111010011100
1111111111100011
110110100
10100100
1111111110101100
1111111001101011
1111111011101101
1111110110111111
1111111010101101
1111111100111011
10011111
100
101011
101
100100
1111111110011100
1111111010010011
1111110100111100
1111110101001111
1111111010000001
1111111101010001
1111110110010000
1111101110011010
1111101001101111
1111101001001001
1111110110001101
1111100110111101
1100010101
1111110110000101
10011010
1000111001
1111001110
100101110
1111111100000010
1111111111111111
1111111010111111
1111111011001000
1111111010000001
1111111111111000
1111111111011100
1111111111011111
1111111111001100
1011010
1111111101111110
1111111010001111
1111111101100000
1000001
111010
1111110000111111
1111110111000000
1111110110000011
1111110000100101
1111110001000011
1111101011111100
1111110100010011
1111111000110101
1111111110110010
1110010010
1111110110110111
1100001
1111011110
1101101
10101001
101101001
11110110
1001111
10101000
101100
1111111111110010
110110
1111111111110101
1111111110110110
100111
10001010
1111111101111110
1111111011111010
1111110111110001
1111110111110111
1111111001101110
1001
10101010
1111111100110010
10010000
1100100
101111111
1111110110001001
1111101101011111
1111110101101110
1111110011000111
1111111001011101
1111111010010010
1111111011100101
1111111110011111
1111111111010100
1111111111110000
1000001
101001
1111111111101000
10010
1111111111010100
1111111111100111
1111111101110101
1111111100101011
1111111011111000
1111110111110101
1111111000101110
1111110011001001
1111101001111001
1111110001101100
1111110001001010
1111100111001101
1111101100000100
1111111001100111
1111111110100000
1111110111100101
1111111011001010
1111111110000011
1111110111100000
1111110101111001
1111111110100111
1111111111101000
1111111111000101
1111111111010111
1110
1111111111011001
101110
1111111111111010
0
1111111111111110
1101
10000
1111111111010100
1111111101100000
1111111101010110
1111111111000001
1111111101100010
1111111101111010
1111111101001000
1111111111100110
1111111101111001
1111111110011010
1011010
1111111111110100
1111111100011110
1111111111111010
1011100
10010
1111111111100101
1111111111011111
1111111111110010
1111111111110001
1111111111100010
1111111110111110
