1110
11
1111111111011011
100000
101010
1111111111100001
1111111111111111
1111111110011011
1111111111111010
1111111111101000
1111111111101101
1111111111111001
1111111111011001
11
101010
100010
1111111111010001
1111111110111010
1111111111100001
1111111111101000
1111111111110011
1111111111100111
1111111111110000
101000
1111111111111100
11110
110
1111111111100100
10000
11000
110
1111111111101110
1111111111101110
101110
10101
1111111111110010
1011
1111111111011111
1111111111001111
10100
1111111111111100
1111111111100001
10011
1111111110011110
10111
1111111111101110
1111111111111010
1111111111011111
1111111111101111
110100
1111111110110101
1
1111111111110010
1111111111111100
101100
1111111111101010
11110
110110
0
1111111111100000
1111111111100110
101010
1111111111000101
1111111111010111
1111111110101011
1111111110001110
1111111101010100
1111111010010100
1111111000101101
1111111001011100
1111111010001001
1111111001110100
1111111011001011
1111111100011010
1111111101000011
1111111111001000
1111111111110101
110000
1111111111111010
1111111111101101
1111111111100101
1010
1111111111110011
100001
1111
1111111111100100
1111111111111111
1111111111101101
1111111111100101
1111111111100001
1111111110011010
1111111101000111
1111111000100001
1111111010010111
1111111101010010
1111110101100010
1111101101010101
1111101100000101
1111110100100010
1111111000100010
1111110111000100
1111110011100000
1111101101110110
1111110110001000
1111111101111000
1111111101110110
1111111100110100
1111111111110100
110001
1111111111100101
1111111111101010
1111111111001000
1111111111110100
1111111111110110
1111111111100100
1111111111011001
1111111110110011
1111111110011110
11
1111111011110110
1111110011011101
1111111011111001
100000101
1111111010011110
1111101001011000
1111101110101011
1111100101110001
1111101011111001
1111110000110000
1111111111111101
1111111110001011
1111110001010010
1111110010001010
1111110111010101
1111111110100111
10000001
0
1111111111010000
1111111111010001
101
100
11
11111
1111111111101101
11000
1111111111001101
1000010
1111111010100000
10010010
111000000
1111111110110101
1111110010010001
1111111011010111
1111111001100111
1111111000000010
1111101110100010
1111110100110001
1111111010111010
1001101100
1111110110111001
1111101010000011
1111110100000100
1111111111011101
1111111110011101
1111111000101011
1111111101100010
1111111110111010
1111111111101111
11011
1111111111010001
100010
10011
1001111
1001101010
11101110
1111111111010101
10110011101
10011011011
10100110101
1111111110000101
10010101010
1111111101000101
1111111100111101
1111011100001100
1111101010000100
1111111110001111
1001010110
1111111110110011
1111100011010101
11101
1111111111010010
1111110110010010
1111110000111000
1111110101100011
1111111101111101
1111111111011101
1111111111010101
100010
10001
101011101
11001010
1111111110111001
10110000001
11000101010
101011010
100110011010
1110100110
10001110
10111011
1111111011101110
1111110110010101
1111011011101010
1111101110100010
1111111011100100
10001101011
1111111010101010
1111110001011010
1111101001101100
1111111110000100
1111110101111011
1111111001000010
1111111001110011
1111111111001000
1111111111100110
100101
11101
1001101
1000101
1100110
1111111110110110
110010111
11010110011
101011110001
101100011101
11101111100
101100001
100001011101
1111111010111110
1111110000100011
1111111101011110
1111011101010100
1111000101
110000010
1111111100100101
101010101
1111111011000101
1100101110
1010100001
11000010
1111111110001100
1100
1111111111011111
10011
110101
111100
1111111100101010
101111001
10100001101
10110001001
10111011101
100110011
11101100110
10100011110
1011011001
11010100111
10010011001
1111101011001010
1111110110000110
1111110001110100
100000
1111111011101010
11101011
1111111110011010
11001001001
10110011011
10001100100
1111111111110111
1111111001010001
1111110111110011
1
1111111111100101
11000
1111100
1110
110010000
110111110
10011111101
101001
1111111011001011
11011101110
100110010011
110000100101
110101110000
110011101010
1111110011111111
1111111110100000
1001100100
100100011111
1000101001
10111000
1001110001
1101010010
10111101
11111110
1111101100000011
1111110010111000
1111111010111010
0
1111111111010001
101010
1111111110101001
110000
1111111110100010
1111111000111110
1111111101010001
1111110001000010
1111101111111000
11001001010
111010111
110100000010
10101010000
1111100001110001
1110111011010000
1111111011111101
101101101
11001001000
10011000010
1101010110
11111111
1100001001
1111111100101010
1111110101111100
1111110110000101
1111111100011010
1111111111111111
1111111111110010
100001
10110000
1111111111010111
1111111110111101
1111110110011000
1111110101100111
1111111110011110
10001111110
10011111010
10101
1100010100
10101110111
1111111110101011
1111000100011011
1110101000110000
1111110001001100
1011011010
1101110
1111110000
1111110111001010
1111111101010111
1111111011100011
1111111111110010
1111110010111111
111111
1111111111111001
1111111111101111
1111111111101110
111
1100011
11100001
101001010
1111100101011111
1111111000011110
1100011111
1111110111100101
1100100010
10001100
1111101111111000
1010111101
1111001011011111
1110110010010010
1111000110001100
1111000111010001
1111110100000011
1011001110
110111000
1111101110011110
10010000000
1111111111100111
1111110100010010
1111110010101101
110001010
1010
1111111110111110
1111111111111101
1111111111100010
0
101111011
101110100
1111101000111101
10001001110
101010011
111100110
1101000110
1000001010
101010110111
110010000
1111000010111101
1110110110110111
1111100110010010
1111100111111001
1111110100110010
1111101011011101
1111111101110000
1111111010110011
1111111010101000
1111111001001110
1111110111000110
1001
1010010101
1111111110000110
1111111111000101
1111111110110010
1
1111111111011110
101100110
110100101
1111110110001111
100001111
1001110000
10011001110
1111111011101000
1111110110001001
1000100100
1111010011010000
1110011110101011
1111000100000110
1111101010001110
1111101111110110
1111011100101000
1111100101000110
1111110101101001
1111110011101010
1111101011001101
1111110010010011
1111111101101100
110111101
1110001010
1111111111000000
1110000
10110
1111111111111110
10
11100001
1111111111111010
1111111010101011
1111110001011101
1111110111110011
1000001001
1111111001110000
1111011100101011
1111101010101111
1110101010000001
1110111101100011
1111100110000111
1111110001001100
11111001
1111111001100101
1111100110101010
1111100110101100
1111111101010011
1111110101110011
1000101000
1011000
101110101
100011001
1111111010100101
10010001
1101
1111111111101010
11000
1111111111000011
1111111000111010
1111111001100100
1111110100101001
1111101110011000
1111101000110000
1111101001100010
1111011010001100
1111011101100111
1111010110010010
1111100110000110
1110001
100100
1111111100100010
1111101110000110
110111001
1111111100010010
1111111110010101
100011111
1010111111
1010010110
10000000010
1011111010
1010111000
1111111111111111
111000
1111111111101100
1111111111001001
1001100
1111111000110100
1111110110001101
1111101111010000
1111100011111101
1111100101011001
1111101001111100
1111100010111101
1111100100110000
10010100
1111110010000101
1111111111011110
110100110
1111101111000001
1111100101101000
1111110011010011
10010010001
1111111011011011
1111111100000110
10100110111
1110100001
1010011100
1111111110100000
110001110
100100
1111111111100111
1111111111011110
111011
110101
1111111011010100
1111111011101011
1111111110110101
1111101011011101
1111101001000100
1111101100010011
1111100011001111
110000
1111110100101101
1111101101100110
1111101111010101
1110100010
1111101011001100
1111111001011101
10000101
1111111000000110
1000101110
111011100
100010101
1011010
1111111011101100
1111111100000111
1111111111110100
1111111111100010
1111111111001010
1111111111111110
1111111111101001
1010
1111111101101011
1111111101111111
1111111000101101
1111110001010010
1111110010100011
1111111000101101
1111110010011110
1111111011000111
10010011011
111000001
10010100001
1110001111
1110101111
1111111000110100
1111100110001101
1111100111110011
1111101101001011
1111110100011001
1111111011101000
1111011
10100110
1111111011101001
1111111000010111
1111111111111000
1111111111110111
11110
1111111111011011
1111111111101001
1111111011000111
1111111001101000
1111110110001001
1111111000100001
1111101111001101
1111111000011110
1110110
10010010101
10110111100
1111111100110001
100111110
1111110111111010
1011110110
1011000001
11101000
1111111101101101
1111110110001100
101001
10111
1111111111001111
1001110100
1001
1111111111011100
1111111111110100
1111111111011010
110
100011
1111111111011011
1111111011010101
1111111001110010
1111111110001000
111100001
100000101
10000101011
10100000111
1111100100
1111101101011011
1111101111110001
111100101
1000110101
11001100000
10011000101
11011111111
10011000011
1111110110100111
1111111000111011
1000111100
10000111
10111010
11110
1111111111101010
1111111111100101
11001
10
1111111111111010
1111111111111001
1111111011001110
1111111101010100
100000101
1101110111
1001111101
111011000
10100111001
10001001
111110011
1000101
1000101001
1011110
10000011110
100011
10110011
1001111
1111111110100001
1111110011111100
110010110
1111111001001110
1111111010110111
1111111010101011
100101
10110
1111111110111000
1111111111101000
1111111111100110
1111111110011010
1111111110001101
10100100
1010001101
1011001001
1111111111010010
1011001100
1010111
1111110010000010
11011011
1011110001
1111111001001001
1111101111101011
101010
1111111111000001
1101011000
101000011
100101110
1111111101101110
111110110
1111111110000011
1111111000010110
1111111101110001
11011
1111111111011001
1111111111100100
10110
10111
100100
1
11010
1111111110001011
1111111101010111
0
1001111
10000000011
11110001
101110000
100011011001
1111111110011101
1011000011
1101111011
1001010001
11100101
11110110111
11001111110
1111111110001011
1111111001000111
1111111101010110
1111111101010101
1000
1111111110101100
1111111111100011
1111111111001000
1111111111110000
11001
1111111111111111
1111111111100011
1111110111010011
1111110110110100
1111111001000011
1111111011011111
110010100
101110111
11111001
1110000101
110000001
1111110100000110
1111111110000111
111
100100011
1111111100100010
10101101110
10111110100
1000000110
11010100
110110
1111111111101100
11010
1111111111010010
1111111111010011
101010
111111
1111111111111111
1111111111001000
100
110000
1111111111110010
1000001
101101
10
1
1111
1111111101011111
1111111011111001
1110000
1110010
1111110101110110
1111110110010100
1111111111010101
1111111110000000
10010110
10101
1111111110010100
1101001
100011
1111111111111001
111
1111111111100100
111000
