1111111111101000
101
1111111111101010
1111111111111000
1111111111001110
1110
1111111111101000
1111111111010011
11011
100001
10
1111111111101001
1111111111110011
1111111111111011
101011
110100
111000
1111111111100001
101100
1111111111110111
1111111111111100
1111
1111111111111110
1111111111101110
1111111111011000
111
1111111111000101
1111111111110111
1111111111111111
111101
10100
1111111111110000
110110
0
1111111111011101
1111111101100000
1111111110000001
1111111111000111
1111111101110011
1111111101100111
1111111010110011
1111111100001100
1111111100011001
1111111010001011
1111111010011100
1111111100000001
1111111110000110
1111111101000011
1111111101101010
1111111111001010
1111111110101110
1111111110011100
1111111111111111
101
1111111111110000
1111111111001111
10011
100001
101111
11111
1111111111000101
1111111111110101
1111111101001100
1111111011011100
1111111010110111
1111111010101000
1111111000011011
1111110100011001
1111110011111111
1111111110101111
1111110001111001
1111110111000110
1111110101100100
1111101110100001
1111110100100001
1111111000001001
1111111010110110
1111111000011100
1111111101001110
1111111110000110
1111111111100001
1110
1011001
1111111111011111
1000100
1111111111111010
1011
1000
1111111111000100
1111111110101010
1111111100011001
1111111000010101
1111110001001100
1111101100111111
1111110110001101
1111110100011111
1111111010000100
1111111001010010
1111111101111010
10000010
1111111111010010
111010100
1110000001
1000001001
1111111101100100
1111110110010010
1111111111011001
1010011
1011000
11101111
1000110
1111111111011011
1111111111100010
1111111111001011
1111111111100010
1111111111100111
1111111110000000
1111111101010110
1111111011110000
1111110100101001
1111101001001100
1111011101010100
1111101110000111
1111110110010010
1111111100010100
1111110111100001
1111110110000101
1111111001010110
1111111000110011
1111110100010110
11101010
1111101110011011
1111111011011010
1101001
1000011110
1001101001
10101101
1111111110000100
1111111100110101
1111111101111100
1111111111101000
1111111111001010
1100
1111111111011001
1111111101111111
11010101
1111111111011100
1111111010111001
1111110011101001
1111110000001111
1111101010001110
1111101011000101
1111101100001010
1111101100011010
1111100100001010
1111101100100000
1111110010001101
1111110100100111
1000011101
1111101101100011
1111101
1011000001
1010010001
101010110
1111111100001011
1111110000001001
1111111001000101
1111111101011101
100101
1110
101010
1111111111011111
1111111111010000
1100101001
10000111100
1111111111001010
1111111001100001
100001100
1111111011110000
1111011110110101
1111110000000101
1111111100001100
1111111011100110
1111110011010011
1111110111101010
1111110100010011
111100100
1100101
1001011100
111000111
110001001
1111111110111001
1011111000
1111111111010010
11111010
111
0
1010011
10000011
1000010001
1001010001
110010100
1101100100
11001011
1111111010000100
1111111100000010
10111110
1111100111010000
1111111010000101
1111110100011101
1110010
1111101101101100
110110001
1111111011101001
1111111001100101
11011000
101000100
1111110100111010
1111110100111001
1111111101001101
1010101011
1111111100001101
100110101
110001
1111111110100110
10111001
11111010
10010110
1001010
1111111110011001
1111110111100100
1111111000111110
1000111011
101101
1111110010101100
10110101
10000111000
1111111011111011
1111110010010101
1111111000011000
1110101
1001000011
1000101100
1111111010111010
1111111100
1111111110000100
1110110
1111111110000010
1111111111010011
1111111000010110
11101011
110001
1111111111111001
100010010
10011111
1111111101101101
1111111001110110
1111111000011000
1110111
1111111000000000
1011000111
111001000
1001111
1101101011
11000001
100111001
110001
1111110111010110
11100000
1110111010
101011010
1111110100010111
10001011001
10000011111
100011001
1111101011000001
1111111000011010
1011001
10000011
1010110110
10001
11011110
1010
110110010
1111111111101110
101010001
1110100100
1111111000011101
1111110111010111
10011101111
10011000100
1111111000
1111111011011000
11111111110
1111101111111100
110000001
10010010001
1110000100
1111101010
100010100
1101001100
10101110010
101100
110111
11001111
10000001010
101010101
10111000
1111111111100000
1110010
100010100
1100101010
1110010010
11001010001
10010101010
1111111101111101
10100111
1110010000
111110100
10101100001
1111101011001001
1111111111010111
110011110
1101101010
1111110010010111
11001011011
1010001
1111010
1000100010
1111111101101000
100111111
1000110111
10100
110100111
10000
100
110001
1111111111101110
10011011
111101100
101011010
1000000110
11110110
10110000110
100001000010
1011011100
1100001111
1111101110101010
1111011110010010
1111111100111111
1111111100010101
1011011
10010010
1111111011000000
1111111100000110
111010110
1111111101101010
1111110110110100
1000100000
1111110110011110
1111111000000110
1001100100
101010010
1001011
10011
1111111111101100
11001100
100010110
100010111
1111110110110011
1111010
1111111101101001
1111101100110001
1111110000000100
1111100100011111
1111100011011000
1111110010110011
1011101
1011011101
1111110100110000
100011110
111000111
1111111011001110
1111110011110100
100100011
1111110110001111
1111111000101111
1111101101000100
1111111001101000
1001101
10011
1111111111000101
11100
10111
1010000
10111010
1001110010
1111100110110100
1111101011110111
1111101000111110
1111011100111110
1111011011010110
1111101111110011
1111011101011010
1111111001110001
1111101010011000
1111110100110010
1111110000110011
1001010
111010
1111101011101110
1111111100111011
1110110000
1111101111010010
1111110010001110
1111111000111111
1111110110100010
1111111010000101
10000000
1111111111000111
101
1111111111010100
1111111111011011
100011000
1011100011
10001010001
111010111
1111110101010011
1111101100111010
1111110010010000
1111011101011100
1111101001010010
1111110101011010
1111101110000110
1111101111101010
1110000111
1111110000111011
10011010111
1110111100
10010100010
100111110
1111101010010111
1111101111011010
1111111100000111
1111110101100111
1111110101010101
101111001
100000
11010
1111111111111111
1010
100100001
10110101000
10100100111
111011111
100111000000
110110111100
101111100110
11100010
1111100101000010
101010100
1111110101101010
1111101011100011
1111110011101111
1111011111110001
1111111010111110
1101011111
11111001010
1001010010
1111111111110000
1111111001011110
1010101
1111110100100010
1111110110110110
101010110
1111111111011001
1111111111110100
1111111111011100
100000
1011001
1111001111
11110011010
100010001110
100000010001
110000001000
1001001111111
101001110101
100100110010
100000110000
1110000011
1111111000111000
100001110
1111111001100110
1110101001
10010101101
1000001100
111101001
10011011
1111110111010100
1111110000000100
1111101101001110
1111111110100000
100100
100111
11000
1010
1101011
1011000
110101011
1110001001
1000011111
1110001010
1110111110
101011001
101100000010
111110100000
100001010110
11100011110
10011010001
100110011
100010010
1010000011
10010
1000111000
10001110111
1111110100101111
1111101011010101
1111101011000110
1111101101111110
1111111111001101
1111111111000111
110111
100110
1111111111110001
10000101
1111111000111011
1111110110100010
1111111010110110
1111110001110100
10001000001
1111101110101100
1111100011001111
1111101001100011
1111110001010100
1111111011110010
1111101110110001
1111101100111110
1111100101010111
100111100
1111111001100110
1111110101100010
1111101111101001
10111100
1111111000110111
1111101111001110
1111101101011111
1111111010101111
10001001
1111111111010100
1111111111010001
1111111111111010
1111111111100001
1111111110010001
1111110100000101
1111101011000101
1111101111110001
1111101101101011
1111100111000010
1111100101000010
1111110011001011
1111011000100110
1111011110100111
1111011000001110
1111100010000110
1111100011101001
1111101101100111
1111110011100111
1111110101011010
1111101111001000
1111110101011100
1111111011101110
1111111101100100
1111111001110010
1111111001110100
1111111110101101
1010010
1011
1111111111110001
1111111111010100
1111111111000011
1111111101110011
1111110101010001
1111101011011010
1111101011111110
1111100101110101
1111011001111111
1111100101000000
1111101110000000
1111110010011110
1111010100111101
1111100010100010
1111101010010100
100100111
1111111101100110
1111111101010001
111000011
101000101
1111111000001000
1111111010100010
1111111111010111
1111111100101110
1111111001010101
101010000
11010
1111111110011000
1111111111001100
1111111111011110
100101
1111111111000010
1111111010111110
1111110010000011
1111101110011111
1111101010101010
1111111110101111
1111111101000101
1111111011011110
1111111000111000
1111100010110001
1111111111001110
1111111110011110
1111111010000101
1111111010111111
1111110101010101
1000100
1111111111001010
1111100001111010
1111101110010101
1111110110000110
1111111011011111
10110011
100010011
1001010
1111111111100101
1100000
1111111111101110
1111111111100010
1111111111000000
1111111110111010
1111111110111001
1111111100011010
1111111000101011
1111111100000011
1111110011101100
110110111
1111110001001001
1111100011100111
1111100111100111
1111110001000011
1011010000
1111111101000001
1111101110100110
100010000
1111111011011010
1111110011001100
1111110110110000
1111110110001011
1111111110000010
110010011
100001100
1100
11010
1111111111110000
1100
1111111111011110
1111111110111111
1111111111100011
101111011
11001010
1101001
100101111
1101001
1111111011111110
1111111101101010
1111110111000101
1111110011011001
100100001
11010010
1010001110
1111110110101111
1110001001
1111011
10110111
1000100001
1000010101
101011111
111110111
10001110
1010
1111
1100
1111111111111010
1111111111111011
1111
100011
1000010100
1001011010
1000111010
10000101000
1111011100
11000110010
101101111
1111100111
11011110101
1100100110
11001010
101111101
10000101001
10000001
10001011001
100011001
11010
10000110
100001001
110011100
10101100
10100
0
1111111111111011
11110
110111
1111111111000101
0
1111111011000010
1111111111110111
100011101
1010111111
1011101011
1001000111
1111111101110111
11000001
1111111101010001
1111111010101011
111000100
1100000011
10111100001
10101001
111110110
101101011
10011101
110001011
10111010
1111111111010001
1111111111101000
1111111111111100
10000
1111111111110000
1111111111111010
1111111111011101
1111111111110101
1111111111100010
110001
1111111111000011
1111111111101111
1000
10110
1101100
10101010
1111111111110010
1111111110110001
10100
100000
1111111010101011
1111111011100001
101011
1101101
1111111111000010
101010
1111011
1110110
1111111111101010
11
1111111111101110
1111111111110110
1111111111111011
