1111111111010010
1111111111111100
0
1111111111000010
1111111111101111
11100
1
1000001
1111111111111010
111111
10011
10010
1111111111101100
1011
1111111111100010
101
100001
1111111111010011
1111111111110101
1111111111110000
111
110
1111111111101001
101
1111111111111010
111011
1111111111111100
1111111111010111
1111111111101011
11011
1111111111001001
110101
0
1111111111011110
1111111110111111
1111111110100000
1111111101111101
1111111110111011
1111111111110100
1111111110001110
1111111101100110
1111111110011010
1111111111110011
1111111101101100
1111111001010010
1111111011110101
1111111111011011
1111111101001111
1111111101100001
11
1111111111010100
1111111110101110
1111111111111011
1111111111000111
1111111111011010
1111111111101000
1111111111110100
1111111111110011
1111111111101001
1111111111100111
1
10001
1111111111110100
1111111011011010
1111111000110011
1111111000101101
1111111000110000
1111110110001111
1111111000110011
1100011
1111111001001111
1111111110001110
1111111010000101
1111110101011111
1111110110001111
1111111011111110
1111111011011101
1111111101011101
0
1111111101101111
1111111101010110
111111
10011
1111111111110111
1111111111110010
1111
110000
1111111111001100
1111111111010101
1111111111010100
1111110010110110
1111110010101010
1111101101000010
1111101110111110
1111110110110011
1111110011101111
1111100110111001
1111100000111011
1111101010101100
1111111010100011
1111111001000101
1001100101
10011011001
10000000
1111110100100100
1111110100101100
1000101
100011101
1001101
1111111111100010
1111111110100101
1111111111111000
1111111111000110
1111111111111010
1111111111111111
1111111111001001
1111111110010111
1111111110010010
1111110011100111
1111101101011110
1111101110001101
1111110011001000
1111101011100110
100001
10010001001
1010110000
100100
1010100011
1111111101011010
1111110001110111
10001011
1111110111101011
10011101
1101011000
1111100010
10100100100
110010010
100100
1111111110101010
1111111111101001
1101
110101
11001
1111111111100110
11010100
1110011101
1111111110101000
1111110100100000
11011100
1001000110
111
111111011
10000100111
1111110111011001
1011111001
110111011
1111111101111110
110110100
10000010011
1111111101101011
1001000110
10100101101
100001111110
10011100100
1010010011
1101110
1111111111100100
1111111111100010
11000
1011
1111111110001111
1111111101001001
1111111111001111
110100011
1010100
1111111010111100
10011101000
1111100111
10110000101
1111110100001111
11000001101
1111111001101100
1110111000
10100001101
1111110110010000
10110011000
10101000010
1010111010
10010111100
10100010101
100000001111
100101011100
10011111000
101010011
111010
1111111111111110
1111111111101110
1111111111011010
1111111111100100
1111111111101001
1111111101001001
10100001001
1010000100
1111111110001101
1111111111010011
10100
111110111
111100
101010001
1011000111
1001100101
1010111001
110101010
1100100111
10001011010
10000100100
10001011000
1100000100
10100100100
101001011110
1101011111
110101011
101001010
1111111111000001
1111111111100110
1111111111101011
101001
100001010
1001000001
1111000110
1010110110
10101010
1111111111010000
111000000
1111110000100011
110101010
10000111100
100010011
1101000
1111110110000111
10010101
1010101001
100001000000
1111111010110000
1111110110101001
111111110
10000100100
10010111000
10001100100
1001101010
100000010
1111111111101000
1111111111111000
110
11111
10010001
1000010
110011
10101110000
1010101101
1110111100
1110000010
1001001100
11000000010
1111111100111110
1101010000
1111100111001011
1111111000110010
1011000000
11011011
1101000010
1111111011111111
1111101111001000
1000110001
1111111100010101
10001011111
101111110
10001110001
1100111000
1011110011
1111111111011101
10010
1111111111001010
1111111110000000
1111110111010100
1111111000101001
1101001000
1111111001100111
1111111011010101
1111111110101001
1111110101100011
1111111001011001
1001101110
101010010
1111101101010101
11011110
10011011111
1111111100110110
1110010110
100000100111
100100011
1111110001101111
11000010
100001000
1010101000
100001111011
101000001
10110110
101001
1111111111110101
1000100
1111111111101101
10010100
110000000
10110110
1111101111010110
1111101110110110
1111111110100010
111110001
1111111010111010
1011110011
1100100101
10010001101
10110111101
1001110
1111111000101111
111100110
1000110111
1111110001010000
10100011
1111111111101011
1111110001111001
1111110100001110
1111110111110111
1111111111001111
1110011
1111111111111000
1000
10100101
10110001
1100000110
10101000
100100110
1111111101010100
1010100100
10100010000
1001110101
1111111100010011
1011111011
1011011110
1111111110110110
1010001010
1111110100101000
1111101100011100
1111111111011010
1111111000110100
1111110001010111
1111110011101101
1111110001001111
1111101110000101
1111101110000100
1111111010001100
111011100
11001010
10010
1111111111100010
1010010
10110111
10011001000
110111011
1010000110
1111010011
10001001110
11100111111
1111110011110110
10011011
110001000
1111101010101100
1111111100101110
1111110010011100
1111100111011110
10001000101
1111110111011100
1111101100111011
1111111000010000
1111101110001000
1111110000110110
1111101100001101
1111110111110110
10000101110
1111111101001000
1111111100001001
1111111111010100
1111111111110001
10110
100010001
1000001110
1111111100111001
1111110000110111
10110
1111111111111010
1111110101001110
1111110100000000
101101
110001101
1111101000100110
1111111000101101
1111110101100000
1111100000011001
11010001111
1111011100110001
110110111
1111110010101101
1111110101001011
1111100110001001
1111101010010010
1111110011100000
100100110
1111111010010010
1111111111101111
1111111111011010
1111111111101011
1111111111101101
1111111111111010
1111110011010010
1111111101101100
1010111010
10110100010
1010000010
10111001
1111111000111001
10010110111
1111111010111000
1111011011000111
101010
10010000111
1111110100011111
1001011110
1111110001011100
1111110010000001
1111101000011111
1110011
1111111110001110
1111111110010000
1111111101010010
1111110010001100
10111101
1111111101100010
1111111111111001
1111111111110011
1111111110111010
1111110110001001
1111111000111101
1111111100011000
1111110111111101
100000010
11001111101
1111111110001110
1111110000010011
1111111010000111
10010001000
11010010
1111101001101001
1111111001011000
1111100101111100
1111100010111001
1110111
1111110011100111
1010110011
1111110110101010
11101100
11100111
1111110001110111
1111100111110000
1111111110110010
100
1111111111010011
11011
1111111111011001
1111110101001000
1111110100011101
1000010111
111111
110110111
110001110
1111111101001111
1111101111010101
1111111101110101
10000010
1111111100111010
1111111100000000
1111101101110001
1111110110010101
1111111011011110
1111111000101010
1111111011101110
1111111011000000
1111110100111000
10111111001
11011001010
10001010000
1111101111110111
11010001
1111111111001110
101
1111111111010100
1100110
1111110011000101
1111111001101000
1111111011001010
10110111
1111111100010001
1001011000
1111111000110110
1111110101110100
1111111011101100
1111110101110100
10000010110
1111100101011011
1111110011000100
1111101001010011
1111101110001011
1111110100111110
1111110100101101
10101000001
1111110011110001
10101111
10001
1111110011001100
1111101100101011
10000010
1111111111000011
1010011
11110
10000110
1111111001111001
1111101101010001
1111110101110111
1111111111000111
111101110
100011101
10010001
1111110010100101
1111100010111010
1111101110000010
10000000110
1111100101110000
1111101001100011
1111110111100000
1111101100100000
1111111101101001
1111111110100000
101010101
1111111101000011
1111110001111110
1111110110101011
1111111001011000
1111110011001110
1111111100101000
11111
1111111111110111
11100
1111111110011000
1111110101111010
1111101111101001
1111101011100111
1111111100001000
1011001
10101101
101001100
1111101011111001
1111011111010000
1111111011001101
1111110101100110
1111110110100111
1111111001001011
11001001100
1000110000
1111101011111000
1111101111
1111010111
1111010
1111111101011000
1110000101
10010001010
10011010
1111111111100111
1001
1001000
1111111111111110
1111111001100011
1111111000110010
111111
1111110100101000
1111110111111110
1000001010
1010110001
11011011
1111110010100100
1111111111011110
1111111011001110
1111110011100111
111000011
1001100110
10010001111
1110100000
10100001110
100110001110
100100101101
10101010011
10111110110
10101010100
11010010011
10000111
1111111110001101
1111111111111010
1111111111100100
101001
1111111111010111
11000010
10000110010
101001100
10100101001
10111111010
100101000110
10101000000
10010
100110101111
10101010011
10010001010
11111011100
10100101101
101010010011
100000111011
11111011110
100100011010
10111001011
100001000000
11101100000
11110001000
1110101010
100011
1111111110101010
110100
1111111111111000
1111111111110000
1111111110101011
10011000
10110010001
11000110001
11111010100
100111011000
101100000001
101000011100
100000100000
110000011010
100101110011
101110110101
111001010001
111001111010
110111011010
111001101001
101110101011
11100001100
1110111111
1011100100
1100001000
1101111011
1011010011
1111111111110110
1111111111011110
1
1111111111011010
100110
10010
1111111111111100
1000100101
10001011000
11001000111
100001100100
100100011101
101010101000
100000111000
100011010001
100110011011
110110110011
101010101110
100011000010
10010000000
10000000101
10011010011
101111111
111110001
110000101
1001111111
1011110010
1010001
1111111100111010
1111111111000001
1111111111010010
100111
110
11
1011000
101000000
101011011
111010110
1010000000
10000001010
10111100010
1100100110
1010011001
1011110111
10000000010
1110010100
1101011001
100110001
100010
1111111001111001
1111111000100011
11101110
100111011
10010010
11100001
1111010
1111111111010011
1111111110010010
11001
10100
1111111111000111
1010
10001
100101
10011101
11010011
10101011
11000011
1010001111
11100000
1011101
10001111
10010001
10000010
1011111
1111111101110110
1111110011110010
1111110110011010
1111110011100000
1111111101011011
100110
10100
1
1111111111110011
101101
1111111111100001
1111111111110000
110100
1011
10101
100
101111
1111111111011010
110010
110011
1111111111011000
1111111111010101
101011
101001
1111111111111101
1111111111111011
1111111111111111
110
1000001
111001
10110000
1111111111010001
1111111111000011
1111111111110100
1111111111101101
1111111111011010
1111111111111110
100011
1111111111110101
1111111111011001
