100111
11001
11111
1111111111110001
1111111111110100
1111111111100111
1111111111110001
1111111111111001
1011
1010
100010
1111111111111000
1111111111100100
1111111111011110
100111
1111111110110100
1111111111111010
1111111111111001
1111111111100100
1111111111111000
1101
1111111111001000
1
1111111111101110
111
1111111111100111
1100
1111111111100011
1111111111111010
11000
10000
10110
1111111111111001
101101
10
10
1111111111010111
1111111111010011
1111111111011100
10000111
1001100
110010
1111111111101111
101
10101
111
1111111111101110
1111111111111100
111001
110001
1
1100
1111111111101110
1111111111011010
11011
11000
1101
1111111111011000
11100
1111111111110110
1111111111110111
1111111111111011
1111111110100110
1111111111001010
100
1111111111010111
1111111111010111
1111111110010000
1111111111101001
1111111110100010
1111111110100110
1111111101100101
1111111100000100
1111111110010111
1111111110101111
1111111111101001
1111111101010111
1011
1111111111100100
1011
1111111111111011
1111111111011101
1111111111110101
1111111111101011
1111111111001111
1111111110111001
1111111111001110
1110111
10100
1111111110010011
1111111110110011
10101001
1100010
1111111110000100
1111111101100000
1111111010101011
1111110110100010
1111111011100111
1001111010
110100111
10010100
1111110010101110
1111101010101011
1111110111001011
100101111
1111111011111110
10100
100011001
1000100
1111111100010011
1111111111010101
111
1111111111101001
101
110101
10100
1001
1111111110110001
1111111110110011
11001
101101
1111111010100110
1111110111100110
1111111110011110
1111110000111011
1111111001011000
10111
1111111100100100
10101001
10001001010
110001101
1111110100011010
1111111100010101
1111110101101010
10011011
110101100
1111111011100101
1111111011111011
1111111101100101
11110
1101
1000000
1111111111110000
1111111111011000
10011001
110100
101110
10001000
1011101
1111110100110101
1111110111110011
10101101
10000101
1011101000
1111111010011000
1111111010011000
110011101
10010101010
10010011100
110010111
1111111100111100
1111111110011011
1111111111111000
1111110110110011
1111110111101000
1111111100000011
1111111111100000
1111111111011001
111011
1100
1111111111010000
111
10001101
1111111101101111
1111111110101111
1000011
1111110110111110
1111100011110000
1111111010101101
1111110111100011
1111111000011011
1001100100
111010010
1111111001100001
1111111011101010
1010100100
101011100
1010110110
1010011101
1000100010
101001001
1111110011010101
1111101101100000
1111110110000100
1111111100101111
1111111101110101
1111111111110001
1111111111100100
10
100000
1101011
101110
110010010
110111001
1111100001010000
1111110000010011
110000011
1000110
110001101
1011100010
1111111111011111
1101110
11011001
111000100
11011100100
100010000101
1001010100
101110010
10010000
1000100101
1010010001
110010100
1111111101100111
1111111111101100
1111111111111101
101
100
100
1111111111100110
1111111000101100
1111111110111110
1111110100000101
1111101011011000
1111110100110110
1111110001000101
1111111010100111
10100010
1111110111110010
11001010
111000
11100110100
1111111000011001
10000101100
10101111010
10001111111
1111110101101111
1111111101010001
10100
1111111110100111
1111110110111101
1111111010110011
1111111111100010
1111111111101111
111
1111111111110011
1111111110111010
1111111101000010
1111111000110110
1111111100010011
1111110110010100
1111110101111100
0
1111110101101001
1111100101100110
1111110001001001
1011000
1111101110100000
1111110100000100
11101100
1111110101111011
1001000100
10110100111
101110000011
1111110110001100
1111110110110011
1101000110
1111111110111111
1111110011110110
1111111010001110
1111111111011101
110
1111111111111001
1111111111001010
1111111110011101
1111111010010100
1111111011000011
1111110111000101
101000001
111010
10111010
1111101010110100
1111110100101111
1101011101
1111110101000101
111111001
10010001001
111100100
11011101
1101100
111110000
10011100111
10100111101
11100101110
10011000001
1001110
1111110110011011
1111111010101010
1101
10110
11
10001
1111111101101011
1111111010001010
1111110101010011
1011100000
110011100
1111111011100001
10110110
1111111010111110
1111111111000010
1111110010010101
1111110111010011
1011000110
1111110111010001
1111011100001011
1111010100111000
1111011110010101
1111111010011010
1110100100
1000010111
10111010001
1001101111
1011011011
1111111110010101
1111111101111011
1111111111111011
10100
1111111111111000
10011
1111111111010110
1111111011100111
1111111110110001
1111011110
1111111011011010
1111111110011110
1000000111
1001
1111111110011000
1111111100100001
1110100100
1111001
1111101110100100
1111011110010010
1111011111001000
1111110001111000
1001110111
11010101
1111110111110000
1110111100
10010101001
10011110100
11110110
1111111111110001
1111111111011111
100010
1111111111110101
10000
1111111100110000
101110
1000110
10010101101
101100011
1010011110
110001001
10001000011
1111110100100100
1111111101110010
1101000
1111111110010010
1111101110001110
1111100000101100
1111100100101010
1111110111010101
1111111010011011
1111101111010100
1111111011011101
1010000100
10100100111
1011101011
100010000
111
1111111111100001
10010
101
1111111111001011
1111111010101010
11010011
1111100100
1111011110
10010001010
10000010111
11110110
100
1111111101100001
1111111001010010
11110011
1111111101100000
1111110001010110
1111100010000101
1111100001000101
1111110100001010
1111111101100100
10010010
100110000
101010011
10000000010
1001001000
10110010
1111111111110001
1111111110110101
11010
1111111111100110
1111111111111101
1111110111011100
1111111101001011
10010000110
11100101
1111011011
10110100010
1100110100
1111111011001001
1111100001111010
1111100111110111
1111111000101000
1111110000111101
1111110001011001
1111101011101100
1111100010110000
1111111001111000
1111110110011110
1001011101
1111111101101100
100011011
1111100000
10101101
1111111101011000
1111111111010111
1111111111110101
1111111111101111
1010
1101
1111110110100111
1111111110011001
11011110011
110110110
1110011001
1101100011
1101011000
1111101101100111
1111011011000111
1111011011001011
1111100011010010
1111111000100001
1111101100000001
1111100110001010
1111111010010110
1111110011010000
1111110111110011
1010000001
1111111010101010
1111111110111010
10100
1111111000001010
1111111011000000
1111111110010101
1111111111110010
11001
11001
111110
1111111000100111
1111111100110100
10110001000
110010110
1001110110
1100110001
1110011110
1111111111000001
1111011101010010
1111101001011100
1111111001010011
101000
1111101111111011
1111101001101011
1111110011110010
1111101101001001
1111111101000110
11101101
1111101111010010
101111001
10101
1111111100000011
1111110110010001
1111111111100101
1000100
10011
100101
10101
1111110111111110
111111101
101100110
10110010
1111110101110101
11010000010
100001010110
101000110
1111100001001110
1111101010101011
1111110100011001
111000001
11101000
11101110
1111111011010110
1111111011111100
1111111000111110
1111111000110101
1111111100110110
10100011011
1011111
1111110010101001
1111110110010110
1111111111111000
1111111111011001
1111111111000010
110101
100001
1111111000000001
1111111111010011
1111110100111100
1111111100001011
1011
10110011011
10110111010
1111110101100101
1111011110100010
1111111100101010
1111111000110100
101011001
1111110001010001
1111111010111000
1111111100101110
1111111111100110
1111110101100000
1100111
1101101011
10011010100
1111111000111001
1111110010111011
1111110100100100
1111111111010001
1111111111100111
1001100
111011
1111111111011000
1111111101100011
11000000
1111110010101110
1111110010100000
10000010100
10100010000
1101001010
11111011001
1111111000001110
1111111110101101
101100000
1111101011100111
1111110111000011
1111110110010101
1111111000100000
1111111100101001
1111111100000101
1111111001011100
1111111101100101
1111110110010010
1111101110110010
1111110001101000
1111111000000110
1111
10010
11000
1111111111011111
1111111101100010
100000
10000100
1111111010110010
10110101
1101101111
101011000
1111011110
11010000101
1111111101110001
1111110111100100
1111110101010011
1111101110110101
1111111111110001
1111111001110000
1111101011101010
1111101011110001
1111101110110110
1111111101101111
1111111010001111
10
1111110111100000
1111110101001111
1111111101000010
1
1111111111000101
1111111111110110
1111111111011110
1111111111111000
1111111110011100
1111111100000011
11111101
101100011
1100000
10011001101
10011110011
1110110001
10101101
1111111101110101
1111111010100000
1111110111101000
1111110111000011
1111110110110110
1111111111100000
1111111001111000
101001
1111110110100010
100111
1010000
1111111101100110
1111111101010100
1111111110100100
11
1111111111100011
11110
1111111111110100
1111111111101000
1111111111000101
1111111101100010
100011110
1110110010
1111100101
1110010000
10101101110
11010010111
1001100101
10100110
1111111111110001
1111110011001100
1111111000000010
1111111111101100
1111111110000011
1111100110011000
1111101101110101
1111101111101100
1111110111011010
1111111010001111
1111111011001100
1111111111101110
1111111111010111
1111111111111010
11011
1111
100
1111111111011100
100000
10010111
1001111010
110100010
10111
1111111111001101
111101110
10010111110
110100110
101011110
1111111001010010
1111110001011010
1111111001100111
1111111000111110
1111111100010100
1111111101100011
1111111001100110
1111110101000000
1111110110011010
1111111100011101
1111111101001011
1111111110111111
11001
1111111111000010
11110
1111111111110011
1111111111100110
1010011
101110
101101
1111011
1111111111011111
100000001
101010
1111111111010011
1111110110111001
1111110111100101
1111110100011100
1111111000010110
1111111001000011
1111111000000100
1111111001011100
1111111000001101
1111110111111100
1111111011001000
1111111011100001
1111111010111100
1111111100010010
1111111101111100
1111111110010111
1010
1101
10111
1111111111110100
110111
101000
1111111111110100
110100
1001
110101
10001111
1111010
1100000
100110
1111111111100000
1111111110100110
1111111101111001
1111111101100010
1111111111110000
1111111111111100
1111111101011110
1111111110010001
1111111111101101
1111111110110100
1111111101001101
1111111111001001
111110
1000
1111111111000010
110
110110
1111111111111011
1111111111111010
10011
101
1000
1111111110111111
1001
1111111111101111
1111111111101101
1111111111101110
1111111111101010
100110
1111111111110011
1111111111011010
1111111111111010
1111111111101001
1111111111101101
1111111111110011
1111111111011010
0
110110
1101
1111111110110000
1111111111010100
100100
1110
11110
11
