1111111111111001
1111111111110110
111110
1111111111111110
0
1111111111110001
1111111111111000
110
1111111111010101
101000
10001
100010
1111111111100101
1111111111101111
111010
1111111110100101
1011
1111111111010101
10100
1111111111010001
10011
101010
100110
1111
1111111111010000
1
1111111111110100
1111111111011110
1111111111111001
1111111111001100
1111111111100011
11101
100001
1111111111111011
1001
111111
1111111111101101
1111111111111110
101011
1111111111111101
1101
10011
1111111111111011
1111111111111110
1111111101100000
1111111110000111
1111111111101001
110
101
1111111111101100
1111111111100101
11111
1111111111100110
111001
1111111111101010
11001
1101
1
1111111111110101
1111111111010001
1111111111011110
11110
100100
1101010
1001001
101011
11101
10110111
10011100
1111111111111001
1100011
101111
1011
1101110
10110101
1001111
11110
1011011
1100011
1111111111111011
11011
1111111111011110
1111111111110001
110001
1111111111101101
1111111111010010
10111
1111111111111000
11111
11011
1111100
1111111101110101
1111111110000011
1111111111101011
1111111110000100
10111001
11110010
10110100
111001011
110100011
100011001
1100110
100100101
11100011
11111111
11010001
1011011
100101
1111111111101011
1111111110011010
1111111111110000
1001100
1111111111100101
1111111111110110
10100
101100
1111111111101111
10111
1111111110100100
1111111111100111
1111111111111000
1111111110111101
11011000
111000111
10001111001
10011001011
10100100111
1111101000
1100111010
1001001000
111001100
1010011000
1000110000
100001110
1111111110101001
1111111101010111
1111111110100111
10110
10000
1111111111110101
1111
10101
1
1111111111110001
1111111110111011
1111111100100110
1111111100110110
11100010
111100010
1011011011
110010011
1100111011
1110010001
10010111111
101100100000
100110100011
101111111011
100011000010
11000010010
1000101000
1111111100101101
10100011
1111111110110010
101100
1111111111101111
1111111110100100
1111111111010011
10110
10011
1111111110111010
1111111111001011
1111111101111100
101001
111010001
110100010
1000000000
110011100
110011001
1010101101
1011011000
10111011011
1111111110110100
111101111
1001011
1001100
1111110001101101
1111101011000011
1010110111
1111101010011111
1111111011011010
10100001010
11110101101
1010101000
10011001
1111111111100100
1111111111101100
10100
111101
1111111101001111
1111111100000010
10111100
1001110000
1000010000
10101100111
10010001
1111111010000011
1111110101111001
100011111
1111110110011010
1111101001000110
1111011010010101
1111010010001001
1111101010000111
1111100100010000
1111100101011111
1111110010111001
1111111001001010
1011010010
11100111011
100101000101
10011101011
1000010101
10111100
1111111111110111
1111111111010111
1111111111111001
1111111110110100
1111111100010110
11010111
1100110
1010010011
1010101001
1111110011100010
1111110001110100
1111111111110010
1111110001000100
1111100000000111
1111100000000101
1111010101101010
1111011011000111
1111011000011110
1111100110010101
1111110001100110
111001000
1000011001
100010101
10111001111
100010001100
11000010000
1011011111
100110
100
11001
1111111111111110
100011
1111111000100100
1111111011010010
11010011
1111110001111010
1111110101111010
1111110001100001
1111101001000011
1111110011110000
1111110000111100
1111100111010010
1111100011101010
1111101100111001
1111101010001110
1111110010001110
111110000
10111001101
11100010110
1100000110
1100001100
1100011111
100101000100
10100110110
110100000
10100111
1111111111011011
1111111111100110
1111111111011111
100011
1111111001000011
1011001
1111111011000011
1111101001111110
1111110010001011
1111110000000100
1111011011000001
100111000
1010010
11100011
1111111111111110
1100100110
100001000011
111100001
10011100101
1001110101
0
1111111101001000
1111111101001100
1000111111
10000000111
1011101000
100001011
1111111111111111
1111111111011010
11101
11101
1111111110100010
1111111000010010
1111111000001000
1111110001011000
1111110000101100
1111111010001000
1111111011101101
111101101
11100111001
1111110000010111
1111111111100101
1010111000
1010100
1011011101
1111110011100010
1111101011111111
1111100111110110
1111110001101011
1111100101110001
1111110011111110
1111111011001110
100111
1111111001111110
10100001
1111111101110011
1111111111011110
1111111111101110
1010
1111111110011011
1111111110100100
1111101111101000
1111111101101101
1111111011101011
1100111111
10000110111
11110010
1011111010
1000001
11110100001
100010100111
1010010111
1111110111111100
10101100010
1111101101010100
1111110001111000
1010010011
100011011
111010001
1100110111
1111111011010101
1000101100
100000010
1111111101001010
11111
1111111111110001
1111111111111111
1111111111010011
110001
1111111110001111
1110001010
101100001
111010000
1000010001
1111111101100010
101010001
1111
1101000100
1111110110101101
1111101110111101
1111101110110100
1111111111100101
101011000
1111111110100100
1100111000
110100110
1111111110110001
1101111111
1011000110
1110001101
100010111
10011100
10
10
10
1111111111111111
10100101
110000000
100011001011
1000011011
10011001001
1111111000111000
1110010001
10111110
10100011001
10101111111
110101000
111100010
1111101001100010
1111111100110100
10011100111
1111110111101011
1111111100110001
1111101101110010
10001000
10111100010
10101001110
10000111000
100110000
1011011
1111111111101000
1111111111100011
1010
10011010
1000011000
1001110001
10010010110
1000101010
10101011
1111100010011000
111001110
1101100010
1111110100110101
1111111111000011
111110000
1000001110
10001111
1111111110011111
1111111001010111
1111111010101101
1101000111
1111110101000100
1111111111011110
10100101100
1011001000
1001110001
1000101100
1100001
1111100
1001110
1111111111101011
1111111111111000
101001010
101010000
11001001101
10010010110
101000
110
1111111101000110
1111110100011000
1111101110011100
1111111001110101
1000110101
1111000101
11110101111
10101101111
1001010101
1011110111
10111010011
1010110111
1100111011
1111111111110010
1010000000
1011011011
1101100100
11101011
1111111111101010
10
1111111111101100
1111111111100010
1111111111101011
1010100011
11011100001
11000110010
1111111000100001
1111110001101010
100010
1111111010010100
1111111100110010
1111111010001100
1001100110
1111010011
1111111111110001
101110100
1000110000
101100100
1111111111000011
1111110100000000
1111111010001111
1010011111
1011001010
110111001
1010111011
10011100
1111111111101111
1111111111110111
1111111110110001
100
11110001
1111000110
100000100000
11110101000
101000101
1111111100110111
101010001
1111101111111101
1111110110111100
1010100001
10001
1010101
1011100
10110001010
101011011
110101110
1111111100101001
1111110000000000
1111111110000111
11110000
1010000100
1100000000
100000011
1011
110000
11010
1111111111101010
1111111111000001
1010001011
10110000110
11010001001
11000100111
1101100011
1111111010100001
101010110
100000111
1111111101100010
1111101000011000
110111100
1111110111000111
10000
1001101101
11111101
1110110100
1111111000000100
1111111110100001
1111110111010011
1111111100011011
110010000
10000000
1001101
1000010
1111111111110100
11010
1111111111010010
1111111111111110
110001110
10010110110
1100001100
11011101010
100000011111
11011111010
10110111000
11000011001
10010011101
111010001
110011100
1111100101001111
1111110010100011
1111111001011011
1111111110101111
10010111010
1111111000010111
1111110100100111
1111111001001101
1111110011110111
110011
1111111101010111
1111111010001110
100100
1111111111101001
1111111111101001
1111111111011010
1111111111010001
1100010
11101011
1000101011
10000100000
11010000111
101000111111
101001101001
11000110111
101110100110
10011010100
10101101010
1111101111001011
1111110100111010
1111110111111000
100100111
10010101000
1111111101010111
1111110001110101
110000101
1111111100010111
100011001
1111111001110111
1000101
1011000
1
100011
1111111111111011
1011011
1011110
1111111110011100
1111111101001001
1111111101011101
110001100
10010101000
1110111111
101011
11010010100
1110100011
100000000111
110110
1110010010
110011110
11010000100
11101010001
1110111111
1111111111001110
110100001
1111110001100011
1111110011000010
1111111010101010
1111111101101100
100110
0
11111
1111111111010101
1001011
1001
10001
1111111010110110
1111111000011100
1111111000011010
1111111101101011
111101000
1111111000101100
1110110
110100001
110000100
100001001011
100000000111
11001110111
11000111000
101001000000
1100000000
1111111100101100
1001010101
1111110110100010
1111110011011110
1111110111100101
11111110
11101
1111111111010100
0
1010111
1111111111101011
1111111110101000
1111111100001111
1111111011000001
1111111001111111
1111101101110101
1111101010100010
1111110101100110
1111101101001100
1111111100010010
1111111100101101
110000010
10100001010
10001000
100001010010
11000111001
11111000001
101101000
1111101111101100
100000100
100
1111110111100111
10000011
11111000
1111111111110011
1111111111111111
1111111111111100
10
1111111111011001
1111111111110101
1111111101101101
1111110110101000
1111110100100110
1111101100111010
1111100110001011
1111101000001010
1111111100000100
1111111011011101
1111110110100111
111001001
1111110100101100
1111111010000010
1111101010010001
1111101101111011
1111110000011100
1111100000111110
1111101101101111
1111111000100011
11101
1111111110100111
1111111111001011
1111111111101000
1111111111111110
1111111111101001
1111111111110100
1111111111110010
110100
100110
1111111101000111
1111111010000110
1111111001000010
1111110110100111
1111111001100010
1111110010001000
1111110010101001
1111110111101011
1111101101110011
1111101001110110
1111011000111001
1111101000111011
1111100101001000
1111100110010101
1111100110110100
1111110110100001
1111110011101001
1111110101001011
1111111101011111
1111111111101011
1111111111001110
1111111111110001
10
1111111111111010
1111111111101011
10101
1001
1111111111111101
1111111111001001
1111111111110000
1111111111010110
1111111110000110
1111111101111011
1111111111010110
1111111110001101
1111111101011111
1111111001100000
1111111101110111
1111111011011001
1111111010101110
1111111100010001
1111111101001110
1111110111111011
1111111111001001
1111111111110110
11100
1111111110111101
1111111111100110
1111111111001101
1111111111111101
1111111110100010
1111111111110000
