1111111110100111
1111111110111111
1111111111111010
1111111111110010
1111111111100111
111000
1111111111000100
1111111111111111
1111111111111000
110
1111111111011011
10
1111111111110110
111100
100110
1111111111111001
101001
1111111111110110
100001
1111111111110110
1
0
1111
1111111111100011
101011
10011
1111111111010110
1111
1011
1111111111011100
1111111111111101
10111
1111
1101
1111111111001001
11
1111111111111011
1111111111010100
1000
1111111111111000
1111111111011111
1111111111011111
111010
1100101
1001
1000110
110101
1111111111111001
1111111111001010
10011
10111
11000
1111111111110110
1111111111100000
100001
100100
1111111111111001
111
110011
0
101111
1111111111110010
1111111111110011
11
1001110
110010
1111111110101111
1111111101000110
110100
1011000101
1000100111
1000011000
11011101
1111111111010101
1111111111110010
101000
1111111110011111
1111111111111110
1111111111000110
1111111111011000
1111111111110101
1111111111110010
111011
111001
1111111111011101
110011
111
1111111111110110
1111111111100001
1111111101001110
1111111100111110
1111111011001011
1111110010000100
1111110100101011
1111110001110111
1111101101011110
1111110101110100
1111111110000100
1111110011000110
1111111111100010
101110101
1111111110001111
1111101111010111
1111111000010101
1111110000011110
1111101111111001
1111110110010110
1111111101110110
1111111111100001
110010
1111111111011000
1111111111110100
1111111111100111
110
1
10001
1101
1111111100011111
1111111001111010
1111110101010001
1111111001100100
1111111111000011
100000111
1111101101000100
1111110000100110
10111000
1111111101111110
101101011
1100011
1111111110111001
1111111001101010
1111110010001111
1111110110010110
1111110110010011
1111111111010111
1111111010101100
1111110100001010
1111111011011111
1111111111100010
1111111111100100
1111111111110011
1111111111100101
111110
1111111110001101
1111111101010000
1111111011111001
1111111010000011
1111110011111000
1111110001110110
1111111110110111
1111111110001110
11010000
110000100
101100010
1111101111000010
1001100
1111111011110000
1111101011100101
1111111101101001
1111111011000001
1111101010101101
1001101
1010101001
100011111
1111111010111001
1111111100000110
1111111111011010
110000
1000011
1111111111011100
1111111100001000
1111111001111011
1111110110111000
1111101100110011
1111111000000100
1111111101010001
1111110100000001
110101100
1011010101
1111111101101110
1010000100
11000001
1000011001
1111101110100101
1111111001110011
1111110111101000
10011110
1111111110001010
1111111101100101
1111111010011011
100110001
10001110
1111111100111001
1111111101011010
1010111
10010000
1111111111110101
1111111111100001
1111111110101011
1111111100101000
1111111011110010
1111110011010011
1111110000011010
1111111010000111
1111111110001010
1111111110010100
1111111110000000
1111111101011100
1111111101011011
1111110111111001
111010010
1111111001010101
1111111101011000
1111110101010011
1100101100
1101111000
110000001
10011111111
1000010111
1111111101100010
1111110011011111
1111110110101001
1101000
1001101
1111111111001000
1111111111011010
1111111111010010
1111111101001110
1111111111111001
1111111100110100
1111111110010000
101100110
1011100
10101000
10010101101
10001011101
10010110111
1111111111111111
10001011000
1111111100101111
1111101010001100
10010001111
111010101
1111010100
1111111011111111
10110111
1111111111010001
101110110
1111110001011010
1111111001000101
1111111110101011
1111111111010001
100000
100011
111000
1111111010010100
1111111100111101
1111111001110010
1111111101001000
101101101
1111111100001110
1100101
1111111110101111
1011010011
10011101001
10111100000
1000001001
1100111010
10001000100
1111111000101011
10001111
1111111100101100
1111100111001001
1111111001010110
11
11111001
1111111001101000
1111111101011010
1010100
1111100
1111111111111001
1111111111000101
1011110
1111111100010111
1111111010010011
1111110011000001
1111110101011100
1111111000000000
1111111111000101
1111111010011001
1111101000010010
1101001
10011010011
10100111000
11100110100
101011011000
1000111111
10011110001
1111101111011001
1111110010011101
1111100010011110
1011011010
0
1111111101011110
1111111010101100
1111111101000101
100101
1101011
1111111111100110
1111111111111011
1111111110111100
1111111110101101
1111111010011101
1111110101110111
1111110100110111
1111110010010111
1111101010010111
1111111000111110
1111111111001011
11001110
10001001011
11000100111
11110100101
1000001000
11101010000
1111110011101110
1111101010011100
1111100100010011
1111111111001000
10011011101
1101011
1111110101000101
1111101110111010
1111111011000101
1111111100010011
1111111111110001
1111111111111100
1111111111011100
110101
1111111111011101
1111111101101001
1111111100101110
1111111100101110
1111111100000111
101100
10011010
1111101100001010
1111111010101101
1011111010
111111111
1001010001
1111110100110001
1000010010
1111111011100001
1111100001011010
1111101010010000
1111111001111111
1010111100
1111111010100011
1111110101001101
1111111111111011
10110010
1111111100111110
10100
10001
100
0
1111
1111111100000100
1111111010011000
1111111001111011
1111110100011110
1111111111000000
1111111001101011
1111011100110011
1111100101101010
1111101111111011
1111111111110110
1111110111111110
100001011
10110000111
1010010010
1111110101010111
1111101001110110
1111110101101001
1111111101100010
1111110000101110
1111110011110111
1111111111000100
11100010
10
1111111111101011
11011
10000
110101
100011
1111111100100101
1111111001000100
1111101110111001
1111101011001001
1111110000101000
1111110100110000
1111101111001111
1111011110000011
1111111110110111
1111101010100111
10001001
111111
110010011
1111111111001111
1111111010011000
1111101100110110
1111100110000011
1111100110101011
1111100111111011
1111101111111110
1111111011001100
100010010
100000001
1111111111011001
1111111111111000
1111111111010101
1111111111011100
1111111111111101
1111111011011010
1111101110100111
1111100001101000
1111100011100011
1111101110011101
1111101010010011
1111101110011011
1111110010100011
1111110111101010
1101110101
10010110110
1111111111000001
10000000
1111101010110111
1111000110110100
1110111100010011
1111000100100110
1111010101001011
1111011011111111
1111100011111101
1111110100001011
100100100
101000010
1
1111111111111001
1111111111001111
1111111111111100
1111111111001110
1111111010100001
1111110001001110
1111101001101001
1111100001111010
1111101001010001
1011001001
101100000
1111111011101100
1111110100001011
1001101
11100101010
1111111000000110
1111110010001100
1111000110010010
1110101001010011
1110110110101011
1111000110010011
1111010011000000
1111100001000110
1111101100111001
1111111110110111
111011011
11101011
101001
100
1111111111110110
1001
1111111111101101
1111111100000010
1111110111101001
1111101010100101
1111010101100100
1111101000001010
1111110001100011
1000
10011000110
10100010101
1111111111101100
1011100011
1111101101000000
1111011100001101
1110101010100000
1111000110101001
1111100100001100
1111100110001101
1111100011110001
1111101101111101
1111110011101011
1000110000
1101000010
11010011
1111111111101110
1111111111100100
1111111111011001
11100
1111111110011010
1111111100011010
1111101101111110
1111011011011000
1111101101010001
111101000
1011000011
1000100100
1111110010011010
1111110100100011
1111111000100011
1111110011001001
1111110000011100
1111010111100001
1111101000110111
1000101000
110011001
1000110111
1111111110100110
1110001
101001001
1111000001
1010011010
10010011
11010111
1100
1111111111011101
1111111110101010
1111111110111010
1111111101110101
1111011110010110
1111101011010000
110010100
1001110110
100000001011
1111110010
10011111011
111110000
10101011010
1111110000100101
1111111111111001
1111111111011010
1111111011011100
1111111110110000
1111111100100101
1111000011
1111111100011100
1111111110010100
110010010
100000101
1101011001
1001101
110001
1001101
1111111111100010
1111111111100010
100011111
101110101
1111101010110001
100100001
1111111100011111
10110101001
1111000010
1101111010
11100001010
100010011011
1111111001001110
101010110
1110000
1010000011
10001101001
1001011110
1111111101000100
1000000001
1111111011000111
1111111100011001
1010111101
1101011100
1100000101
1111111111111111
1111111111000010
1111111111111101
1111111111011101
100011
1010011000
11011100
10101111111
1001100110
1111111110010111
101011000
101010101
100001111
1111110110000111
1111111111101111
1111111001111000
111001000
110011100
1111110110011110
1111111010000001
10010100101
1011111001
1101000011
110110100
1111111111100111
1011111000
1011100100
111000010
10011011
1111111111101101
1111111111110000
1111111111101010
1111
1100100
111100101
11110111001
1010101101
110111100
1100001110
10011110110
1111110100111000
1111110100111010
1111100100001101
1111101111000111
1110010111
1001111
10111010
110100001
100011011110
1010011110
10110101110
1111101111
1111111011000110
10011000
100011011
10010011
1111111111110110
100011
100001
11111
10101
1111111000110000
1111110100110000
1000001011
1010111101
110110001
1111110010110011
11110011
1111110000101000
1111111100101010
101100101010
1011010000
1101
111100000
1011111100
10010111000
100101000
111000100
110000
1111111100101010
10111101
1000011
10000100
1101101
100000
1111111111111010
101010
10100
0
1111111100010000
1111111110011000
10101110
10010111
1111110001110000
1111110011001000
1111110000100100
1111101001000001
1111111100110100
1111111111111111
1111110111100100
1111111101110110
1111110010010000
1111100000101101
11000001
1100100010
10001100000
1111111101110010
1001001100
101110010
10011100
1101100
1001010
101010
1111111111011010
1000101
1111111111100110
1111111111111000
1000
10010111
1111111010001110
1111110110010000
1111110101100111
1111111101100100
1111111010010110
1111110000111001
101001
1111111111011011
1111111011110111
1111111100111000
1111101101010011
1111110001010010
111100
1111111010001001
1111101110100001
1111111000101110
1111111111010100
1111111111111010
10101000
10000
1001010
1111111111100111
10000
110
1111111111010111
1111111111101111
1111111111111100
1111111110000100
1111111110001100
1111111100001011
1111111010000010
1111111101100011
1111111101001111
1111111010001000
1111111010010111
1111110000001011
1111101111001111
1111110000001101
1111101101010001
1111101110010110
1111110001000111
1111111000000111
1111111001011000
1111111011011011
1111111100100001
1111111111110110
1111
1111111111110010
1111111111111100
1101
11001
1111111111000011
100101
1100
11011
11
101000
1111111111111110
1111
1111111111110101
1111111111011100
1111111111100110
0
1111111110111110
1111111111100000
1111111111100111
1111111111100111
1111111110110100
1111111110101111
1111111101011010
1100
1111111111001111
100100
1111111111111111
1111111111110100
1111111111101001
1111111111011010
1111111111100010
100100
