1111111111111101
0
1111111111010111
1111111111100100
1001
101
0
1111111111110001
1111111111100011
1111111111100010
1111111111111011
10000
1111111111110111
1111111111101110
111
10
100111
11
10
1111111111111100
101
1111111111101101
1111111111110010
1111111111010101
101001
100
10010
1111111111101010
1
1110
100001
11100
1111111111100011
110011
1111111111011010
0
10001
1111111111100011
1111111111101000
1111111110111111
1111111110101010
1111111110010000
1111111110110101
1111111110100100
1111111111010100
1111111110110111
0
1111111111011011
11000
100110
10010
1101
1111111111111111
110110
1111111111100100
1111111111011111
1111111111100010
1111111111110110
1111111111010010
1111111111010001
1111111111111011
0
1111111111111010
11101
10101
1101000
1111111111001111
1111111110000110
1111111010000011
1111111010010101
1111111011110101
1111111010010011
1111110110010001
1111110101100011
1111111001011010
1101000
11111001
1011010
1111111111101011
101000
1111111111111110
1111111111010011
1111111111000101
1111111111001010
0
100100
11111
1111111111101111
1111111111101010
1111111111110010
1111111111100101
1111111111010000
1111111001100011
1111111000100101
1111110111111011
1111110111011111
1111110010001111
1111101111110110
1111110101010101
1111101100110111
1111101000111001
1111110111100011
1111110010010001
1111111001100011
11011101
1111111101111110
1111111100111100
1111111110110101
1000
101100
11010
100000
1111111111100001
1111111111110000
1010
1010
1011
101001111
1000001101
1001100101
1011101100
1000111000
1111111110010010
11110111
11000101
1001111101
1000110111
1111110110001101
1111110010011100
1111110100110001
1111101011010011
1111111011111011
1111110011010100
1111110011101000
1111110110101000
1111111100111110
10000
1110
10001
1111111111100011
1111111111111001
11010
1111111111100010
10011111
1001110001
1011101001
1111110110
10101010100
110111111
10010000
1111101111110111
1111100110010001
100001101
1111101101111110
1010000
1111110010111010
1000101101
1101010000
1111110011010110
11111100
110000110
1111110101111100
1111110100010001
1111110110101111
1111111101000001
110000
1111111111011111
1011
1111111111111001
101
11110
100001011
1011010110
110100001
11000110100
10111000
110100101
1111111010101010
1111101100010010
1111101101100111
1111111111101100
1111111001000000
1111110100101111
1111111111001011
1111110010000110
1000100110
11100111
1111111101000000
1110111011
10100011100
1001100000
1111111001000000
1111111011000100
1111111111000010
1111111111010111
11101
1111111111101111
101
1111111111001111
1001100010
10011000011
110101010
110000000
1111110111110101
10011110001
1111111010011111
1111101100001100
1111101010101111
1111110101000100
1001101001
1111111010011100
1111111111110011
1101000100
10110110010
10001110000
1010001
1110100101
1110011011
10001111000
1111111110000100
1111110110011100
1110110
1111111110011001
11011
1111111111011110
11
1111111111101100
110110000
1010101001
100011001
100110010
10000111100
1111110110011111
1001010110
100001100
1111110100100001
1111111011001110
100001011101
111011100
1111100101010000
11000000010
11001110000
1111111111110001
1000100010
1010100000
1111110011011001
1000010011
1010101000
1111110100110100
1111111111110100
110011110
10011
1111111111100011
10000
11111
101010010
1101010011
1111111110001010
1111110101101011
101001000
1111101101010100
1111110011000011
1111100011000011
1111010110001100
1111110110010011
100100001000
1011010101
1111100101000010
1100110
1010000001
1111110010
100001110011
100011101
1011111
11011111110
100101100
100100010
100101100
111110
0
11010
1111111111110110
110110
11000010
1000111100
1111110110011000
1111101011100101
1111110101110110
1111110010111100
1111101111010100
1111101001101011
1111101110011100
10110
10011001110
11001100110
1111101000101001
110110101
1111110000100000
1111111011100010
1001100101
1111101110111100
1111110110111000
1100100101
1000010010
1111111010101100
1111111000110100
10001000
1111111111110110
1111111111101110
1111111111110101
0
1111111011111000
11001010
1100010011
1111101011111101
1111110111000011
1111111110001111
1111100110100100
1111100110101111
1000000001
10001111110
100101110111
11100000111
1111100101010010
1111100111110001
1111101010011000
1111101111010100
11001
1111101101010001
1111110001001001
1111111011111111
1111111011110110
1111110000110100
10001010
111011010
1111111111110111
10001
1111111111010111
1111111111000001
1111110011010010
1111101111101100
10100110
1111111101100010
1111110100110000
1111101110000011
1111110011000100
1111100110111111
11100000
101001010011
110010110110
1011100100
1111111101100011
10001111001
1111110011011001
1111111100100110
1001000
1111111010100111
1111110011000011
1111110110101100
1111100111010011
1111111010100011
10110101
11110111
100101
111
1111111111001001
101
1111110110010110
1111100000110110
1111101101000010
1111111100100011
1111011101110111
1111111010010110
1111101110001000
1111101010011100
10001001000
11110000001
101011100010
11101000010
100110001
101100
1111111000101111
1101010001
1111111100101011
1011101001
1111111011010000
1111101100111000
1111111000100011
1111110110100010
1111111011101111
101100001
100011001
110011
1111111101111111
1111111111000101
1111110110011101
1111011110110110
1111110001000010
1111011111010100
1111011010110011
1111101010110110
1111110010010011
1111110100001011
1011001000
100101011110
11100101011
10101101001
10111
1111111000110111
1111110111111000
1111110111010100
1000001010
1111111101001001
1111111111100101
1111101010101010
1111110111000000
1111110110110110
1111111111100000
110000001
1111111111100101
1111111111001100
1111111111101110
1111111111011000
1111111000010110
1111101011100110
1111101111100100
1111100011011010
1111011101011101
1111111100100101
1111111101000010
1111100000011101
10101010
10111100011
11011001110
101111011000
11100100101
1111111101101010
1000101100
11011100
1001101100
1011111
1111101101011110
1111111001011100
1001011
1111100100
1000100010
1010010000
111101
1111111111111101
1111111111000000
1101000
11111
1111111011001000
1111101010011011
1111110101110010
1111110010101101
1111101100010100
101011100
101100101
110010110
11000110001
10110101111
11111111011
11111001001
10010011110
1010011
1001101100
1111101100
1111110100000010
100111000
1111111011001110
1001111100
1010111111
1001011111
100111101
11100
1111111111111011
100001
100011
100000101
110110001
1111111101101100
1111111001101010
1111110101101001
1111111001100111
100000001
11101010
1100011
1001111010
11010000101
101000101001
101101011001
110000110
1111111100000000
1111110111100010
11111011
1111111010101101
10010100110
110
1111111001110011
1111011
101000010
1100011
1111111111100000
1111111111111010
1111111111100111
11110
10000101
1100000001
10011000001
1111111101100010
1111111110100000
10000000110
1111111110111110
1111111000
1111110001111000
1111110101111000
1100101111
101010100011
100110111110
1111110101100011
1111100100001111
1111111101000000
1111110101011110
1111110000011110
11001100
1111111011111000
1101000010
1111111110000111
100111101
10010
1000000
110
100
1111110111101100
1111111001100011
1100110000
10001010000
110000100
1111111111111110
1111111100010111
1010010
1111110111010001
1111011011110101
1111101011001111
10110100100
101100001100
100100100101
1111101010111000
1111110110011011
1111110101110001
1111110011101011
1111111001100010
1111111001000101
1111110111110010
1010000101
1111100
11010110
1000111
11010
1111111111011011
111110
1111111011110100
1111111110011100
111001000
11111000
1111111101010111
100011100101
10100011
1111111110010101
1011011
1111111100100101
10011001000
100011001010
1101010010
1111111101100110
1111001111101101
1111111110001110
1111111100001001
1111111101100111
1110001101
10100000110
1111111110000000
1001100100
10011010
1111111011011010
110111
11100
0
11111
101111100
1010110111
111111111
1111110101010111
1111111111111011
11010110
1111101101010100
1111110101010100
1111111011001000
1110001100
110100111
11010101111
10011010101
1111101011101100
1111100100110001
10101000
1111110000000100
1111111010011110
1111111100010110
1111111001111010
1111111011101110
101001010
1111111010000111
1111111111111010
1101
100001
1111111110110101
1111111111011110
110101100
1000010101
1001010111
1111111001111011
1011111100
1110011111
100011111
10011001101
10100010010
10010110110
11001001010
10010011100
1111101001001110
1111111000110000
1111110010110001
1111111100111111
1111100101100111
1111110111001010
1010101011
1111101101111101
1111111000101110
1111111111100010
101101111
1101011
1111111111100111
1111111111111110
10100
11000
101000
1111111111100011
11000011
1111111010101101
1111110101011010
1111111001111010
10100011
10000110010
11011111000
1111111110
10101110010
10110100111
1111101101001000
1111100111110110
1111100111000001
1111011111100000
10100101
1101010110
100010011
1111111001011001
1111111010101010
11110010
1110010
1110110
100101
10101
111010
110101
1111111111100000
1111111111001011
11110
1111111101101000
1111110111000010
1111110001110000
1111110101111101
1111111010100000
1111110111100101
1111111110111010
1000111111
11011000101
11000011
1111100100010000
1111101010000010
1111100010101000
1111110011011001
1111111110000001
1111101001010011
1111110001011001
1111110111111001
1111111001111001
11101000
10010001
1001000
11011
1110
1111111111110101
100100
1111111111110110
1111111110011011
1111111111001101
1111111111010110
100000000
101000011
10110111
10001100001
1100000110
11011110000
1111100101
1111111000100000
1110
1111111111100111
1111110010101110
1111110001001001
1111110101011111
1111110100000110
1111111000011011
1000011
1011111
1101
110
1111111111110010
10111
101
1011
10
1111111111110110
1111111110110110
1111111111010101
1111111111110100
1111111111110011
1111111111111000
1111111100101001
1111111100101111
111010
111001
1000110
1111101111001111
1111101100100110
1111110001111011
1111110010101001
1111110111110011
1111111000111001
1111110101011001
1111110110001110
1111111101000010
1111111111010011
100000
11000
10010
110111
100
10110
0
1111111111110000
1111111111100000
1111111111000010
1110
110
1111111111111101
111110
1111111111100001
110
1111111111011011
11101
1111111011111110
1111111101101100
1111111110111011
1111111111111110
1111111101111110
11101
1111111110100010
1111111110010100
1111111110001110
100000
110001
1111111111111110
1111111111111101
1111111111111001
