1111111111111001
101
10111
10001
1111111111110110
0
111100
1111
101110
1111111111101001
1111
1111111111110011
1111111111011001
1111111111101010
10001
111110
0
1111111111111000
1110
1111111111100111
1111111111110110
11111
10111
1000011
100011
1001
1111111111110000
1111111111101000
1111111111110011
11001
11100
11111
1111111111011111
1111111111101100
1111111111101101
1111111111001011
100111
11111
11111
1111111111101111
1111111111111001
1111
1111111110000101
1111111110001001
11010101
10100110
1111111111001011
1111111111110111
1111111111000000
1111111110111100
10001
11011
1111111111110001
1111111111000000
101100
10110
10
10101
10100
1111111111101011
1111111111100111
1111111111111111
1111111111100110
1111111110000100
1111111110010010
1111111101000101
10000
1111111111000100
1111111100010101
1111111011000010
1111111001010001
1111110111011001
1111111110011101
1111111011110111
1111111000100010
1111110110100100
1111111010101001
1111111011010010
1111111101111001
1111111111000110
1111111111101011
1010
11010
110111
11011
1111111111110000
1111111111101111
10011
1111111111011011
10011101
1100101
11101
1111111110100000
1111111101110100
10100111
1111111010010110
1111111011110111
1111111110110101
1000111
101000010
100001000
101010011
1100010
1111101110111011
1111111010001100
1111110001011101
1111110100000000
1111111100101010
11001010
11110011
1001
1111111111110000
1111111111111001
10
1111111111011110
101111
100010
1011100
1111111111000100
1111111101010011
1101010
111110100
11000100
1111111110001111
110000001
1000110000
1111111010100110
1111110011100100
1111100111110010
1111101101101000
1101001100
11110101
1111111001011110
1111110011000101
1111110110010000
1111111110001010
1000010101
1001010
0
1111111110101100
1111111111000100
110000
1111111111100110
0
1111111111010101
1101100
1111111101010000
1111111100101111
10001111
1111111011011100
1111110010011111
11101000
100001001
10100001110
1111111011110001
1000010101
111010001
1111111011100111
101000110
1111110101111000
1111110000110011
1111100
1000101110
111011111
110111000
1111111101100010
1111111100111101
1111111111000000
0
1110
1111111111110011
11
1111111110110110
1111111110001001
1111110101101010
1111101011111000
1111110110111011
1111110110010100
1111111001100010
1001010
1111101011
1000110
1111111000011101
1111100000110011
100000000
10101100
1111001110
1010111100
1000111101
10000011100
1110010101
101100101
1011101010
1100111
10000011
1111111101101110
1111111111100010
100011
1111111111001111
110110
1111111111000100
1111110110001010
1111110100111100
1111101010100110
1111101000100111
1111100011100001
1111101110000001
1111110100000010
1111111011100010
1111101110010111
1111111001011001
1111101101101100
1111111000111001
1111110010100100
1111111001010010
1111111100101100
10001111
1111100111000110
10111010
1010100100
1100110100
111101101
1000000010
1111111111011010
1111111111111010
10001101
101100
1011100
1111111101001011
1111110011111111
1111111011110100
1111110010001110
1111101110101010
1111011100100100
1111100100101101
1111011000010011
1111101011001001
1111011110100000
1111100111001111
1111101100000101
1111110110010110
1111110000000100
1100010100
1010001011
10110000101
1001011101
110100100
110010100
1100110111
1111011110
111011001
111101
1111111111001100
100001100
10001101
101010000
1111111101000111
1111111011100000
101000000
1111110110000111
1111101110100110
1111011111011011
1111011000110110
1111101010011001
1111111011100010
1111101001100101
1111110111100000
1111110111011011
1111111100101111
1001011010
1111110111110011
1111110101001000
1111111000101011
10101101
1111111101011010
1111110111110010
10001000010
10110001110
1010101000
10100111
11100
10110111
11100010
1010000101
10010000
101110011
10001100
1111111010001111
1111101101100111
1111111110010111
1011111000
1000110101
100010
11100001111
10001100100
11001111100
11000100101
1111101100111100
1111101110001011
1111110001001011
11111101
1111110110110111
11000
1000101001
10001000101
11011000101
101011011
1111111111101111
1111111111100001
1000000
110111011
1100111011
1110111110
1101010101
1111111001010011
101010000
10001101011
1110100001
11101100
1111101010
10000001100
11011010101
1011110011
11111000111
1111111010110111
111101100
1111111011111010
1010000110
1010101001
100000110
10111001
1011001010
101111110
1100001101
1011011
110000
0
100000
11011001
110101110
110000011
1001010110
1111110000110011
1100100001
10001001110
1011100110
1001011100
1001001000
100000010000
1111111000
1010011000
10001001100
10001010101
1001100100
110000110
1111111011010001
1111111000110100
1111110101010011
1111110101101011
1111110001010101
1111101111011100
111111
10010000
10
1010
1001010
10011100
1000111001
10111101101
11001100101
111111111
1111110111110010
1111111100100111
1111110101101110
1101110
1001011101
11101100100
11
110000001
1111111101111000
1010010100
1111110100111010
1000110011
1111110111100000
1111101000101111
1111101100100000
1111101100111101
1111111001000000
1111111010011100
1001010
1111111110110000
1111111011111110
1111111111110000
11100
1001010
1010001010
1101010111
1110100000
10001000011
1111111100010100
1111110100000100
100110110
1111111001101001
1111111110011100
101101101
1111101110111110
1111100110001111
1111011111010001
1111110110000111
1111111111111010
11100111
1111110111001000
1111101011111001
1111110101001100
1111111000010111
1010
101110000
1111111011011011
1111111111001000
10001
1111111111101100
10100
1010000
11110101
1111111111110101
11011001
1011010000
101010001
1111111010011011
1010101101
1111100010001111
1111101010111011
1111101111111111
1111101101111011
1111100111001111
1111110001111110
1111100001100111
1111110011011001
100011010
11011010101
1000010011
1111111011110000
1111111000111000
10001101
11010
1111111110011111
10100101
1000010
1111111111101100
1111111111001110
1111111111110011
100001100
10011111
1111110000110010
1111110101101011
1111110001001000
1111101101001110
1111001100110001
1111001010001011
1111011001101100
1111100001010010
1111100101011100
1111100101000000
1111110111100100
1111101001111101
1111110111100011
1011010111
1001101101
10001101100
1111111101100000
1111
1111111000101000
1111101101101100
1111110111111101
100
1111111111110100
10010
111011
1111111101111010
1001110101
11111101
1111111101100000
1111111010010101
1111110111110100
1111110100100101
1111100101001111
1111011110001101
1111101011100010
1111100010111111
1111011001101100
1111111010011000
1111111101011001
10000010111
111011010
1010
1111111000011110
1111111100100100
1111111011000010
1111111011000110
1111110100000000
1111110110100011
1111111000001010
1111111111000110
111110
1111111111100110
1111111111010011
1
10011101101
1111000010
10001110010
100110011
1111111001011100
100000101110
11001111100
1100101010
10110000000
1010101111
10001010000
110100110
100000001011
1101111001
1111011110
1101100
1111101101100100
1011010
1111111110000001
1111111011101101
1111110110001100
1111111001100011
1111111100001000
100111
11
1111111111001101
11011
11111
10111101111
11001110001
10100000010
11000101100
10001100101
11000101010
1101110010
1000001011
101010000
10100110001
11101101011
101011001
1101111000
1111110111100110
1111111110001111
1111111100111110
1111110110110001
1111111101110001
1111100111010011
1111110000110111
1111110011110011
1111111011010011
1111111110110011
1111111111010110
111
1111111111101100
110111
10010
1000111111
111111001
100111010
1001011110
1111111110011011
10100110110
10101001011
10001110110
10101101001
10011111011
100101101010
1101001111
1111111110000010
1111101011001100
1111111111010110
101010010
1111111100101000
1111101010101010
1111100010110000
1111101110000011
1111110100100010
1111111001101101
1111111101011000
1111111111001100
0
1111111111111010
1
1111111111010001
1111111101001011
1111110111001001
1111110001001000
1111110010000001
11101001
11010001000
10001001
1111110111010011
1000010010
1111110001010001
1100
1111101001110101
1111110100100000
1111101110000101
10010011
1111111110010100
1111110010111100
1111101100000010
1111101011010100
1111101101010101
1111110101000011
1111111010000101
1111111111100101
10000
1001
110010
1111111111011111
1111111111001010
1111111100011010
1111111110100110
1111101110011111
1111101100100011
1111111101011101
1100010
10101010101
11101001
101010000
10111011101
11011100
1111100
1110001010
1111101110110111
1111101100100110
1111100011110000
1111110001010110
1111110010011111
1111110000001011
1111110111010001
1111111011111101
1111111101100111
1111111111100011
1111111111100110
0
1111111110110100
1111111111111100
0
100111111
110010010
110000100
1111111001011011
1111111001010011
11101111
111010100
1111101011
10001110000
1111111010110000
1111100101100101
1111111101001001
1111111011010000
1111110011010110
1111101111010000
1111101111100101
1111110001011010
1111111000110011
1111110101110111
1111111000111010
1111111101101101
1111111101101101
11
1111111111000111
1111111111110001
110000
11001
1111
101011001
1110111
1000101101
1111111111001011
1111111010101010
1111111001100110
1111101000110111
1111011111101000
1111110101101101
1111101101011111
1111110101011000
1110110101
1111110101001000
1111110100110011
1111111101001101
1111111010000101
1111111001100111
1111111010001010
1111111011101011
1111111100010001
1111111110101101
1111111111111100
11110
1111111111010110
1111111111001000
1111111111100100
1111111111001000
10
11000
101111
101101
1111111110001001
1111111110101000
1111110100101100
1111110111100110
1111110111000010
10010100
1111111101011111
1111111101101100
101111011
1111110011100011
1111111100010110
10101
10010111
1001000
1111111110010111
1111111111000001
100101
1111111100101101
1111111111011110
1111111111110101
1111111111111001
10111
1
1111111111010100
1111111111101110
110100
1111111111001000
1010010
1111111111010111
1111111111101001
1101101
10010110
1111111101110000
1011100001
1101110101
1010101110
1111111010100001
1111110110000010
1111111100010001
100010
111
1101000
1101
1111111111111110
1000111
111
110
1111111111100010
100000
101
1111111111011010
1000101
111001
111
111
1111
100001
1111111111001000
1111111111111111
11010
11000011
1111111111101000
1111111111100110
1010001
110001
1111111011110110
1111111101001001
100
110001
1101
101
1111111111100010
1011101
101010
1111111111011001
101
100000
1111111111001100
