1111111111110010
101101
1111111111101001
1111111111010101
1111111111000100
10011
1
1111111111011111
101
101110
1111111111010100
1111111111010100
1111111111100011
1111111111010111
111
1011
1111111111111000
1111111111000110
10100
101
10010
0
1111111111111111
11111
1111111111001110
1010
1101
1011
101000
100
1110
1111111111101000
11000
11101
1111111111111001
110010
111111
10001
1111111111101010
1111111110111101
10
110011
100
1111111111110111
1001010
1111111111111100
1111111111100110
1111111111001101
10010
11001
1111111111110100
11110
1000
1010000
111001
110111
11
1111111111101111
1010001
11001
1000110
1111111111111011
1111111110001110
1111111110101001
1111111110001001
1111111100101110
1111111011011000
1111111010010100
1111111010111010
1111111010110100
1111111011101000
1111111011000000
1111111100101100
1111111011000101
1111111101001010
1111111011000001
1111111011100111
1111111011010101
1111111101101101
1111111110110110
1101001
1001001
110
1111111111011100
1111111111110010
11111
1111111111100010
1111111111110100
1111111111010001
1111111110110001
1111111010111110
1111111010111000
1111111000011000
1111111001011100
1101000
100110001
1011
1111111111100000
1111111100110000
1111111111001111
1000001
1011011000
1001110101
1111111111001011
1111110100100000
1111101110010101
1111101110111011
1111110011111101
1111111010001001
111001
1111111111010110
1111111111011011
1111111111100101
100010
1111111111111101
10100
1111111110100110
1111111111100011
1111111011001111
1111110101111111
1111110101101011
1111110101011111
1111111100011110
1000000101
1111101110101011
1111101001000011
1111101001010010
11010001
111111000
111000101
100010011
1111111100100001
1111111101011101
1111111011001010
1111110011111010
1111110110110101
1111111111010100
100000000
10111000
1111111111011100
11100
1111111111011001
10011
10001101
1111111111010101
1111110
1111110111100101
1111110100000001
1111110110100000
1111110100100111
1111110010101100
1111111111101000
1111100101101000
10111000100
10101010000
101111101011
100100111001
1100001001
1111111101011001
1111101110111001
1111011110011000
1111101101111001
1111110111101001
1111110101110011
1111111001101111
1101001
1111111101111100
1111111111000100
1111111111110001
1111111111110001
110011
1111111111100111
111110
111111110
1111110111011000
1111110001011010
1111110111101001
1111100110010011
1000001011
10001110
1111110100100011
11101010110
100001110100
1010001000001
1001001000001
100100100110
1111110110001001
1111101010001001
1111110100100101
1111110001000110
1111111100110101
1111110010010010
1111110110110100
1000111
1111111100001100
1111111101111100
1111111111100101
1001000
110001
11000101
100011
10
1111110111111101
1111110101110110
1111101111010110
1111110001100111
1111110000011100
1111100100010101
1111011100000111
1111111100111011
101000010110
1001110001000
110000101111
100101101
1111111001110001
1111100001111110
1111111101110111
1111111010101101
1111110011110111
1111111111001001
1111111111001110
101000110
1111111101000000
1111111111001000
1111111111100110
1110
1010
100011001
100000111
11011011
1111111110101000
1111111111111010
1110011011
1111111001111111
1111111110100000
1111110010001000
1111101010111000
1111111010011010
1000010111110
1010110110010
10010001000
1111110101011100
1111111111011101
101110
1111111111011010
1111111111111111
1111111110101101
10001101
1111010011
1000111110
11111010
100001
100001
101101
1111111111111010
101110001
100111111
1001000000
101010011
100011101010
1001010011
100100001
11001011101
1111110001001000
1111011110100100
1001111001
1010001110011
111110010001
1111111100010010
101000111
110110010
101101001
1111111101001011
1111111111010010
1001110001
10011010100
1011001001
1010111010
111010011
10000
1111111110111011
1111111111111111
11110110
111111100
1010111010
1111111001010111
10110100010
1011101101
1111111011100000
1111111111000010
10011101011
1111110011111111
1111111001100010
110100111000
1011001100000
100111011010
1111111101101100
10101110
1111111101100111
11100001
1111111001100000
11000001
10001000101
10110010101
11100011
1001101000
110010110
1111111110111010
100111
1111111111010111
101010011
101000110
1110010000
1111111100010101
100010010111
11010100000
10001000110
1100010110
10110000110
1010101001
1111111001011001
101000111001
11100011001
10100110101
1111110100011111
1010000101
1111101101001111
1111110111110000
1111111100001101
1111111011
111001111
1110011100
1001010110
1010110
11111001
1111111111111011
1111111111110101
11101
1111101
1100110
10001011010
100000111
1001001011
10000000001
1111110110101110
10010110110
1111101111110010
1111100010011111
1111100111000101
1111110110111110
1111111010100001
1111111101110011
1111110101000100
1000111001
1111111111110001
10000000010
1111111001001010
1011011001
1010010001
10100100
1010011
10010111
101100110
1101010
1111111111111010
101101
1010100
11000011
1011000010
1111110101010011
1111111001011110
100
1111001100011110
1111111001000110
1111100110100010
1111111110000111
100010
1111110100011101
1001010110
1111111000011111
1111111001000011
1111111011110100
1111000100
10010000011
111110000
10011110
1111100
1111101110110010
1111111010010100
100000010
11011000
1111111110111011
1001111
110110
1000110
11000000
1111111010001001
1111011011011111
1111110011000011
1111111111010000
1111111100110011
1111110001101111
1111111001111001
1111110011100100
1111111111011000
1001001000
1111110110101011
1111110100000000
1111110111011100
1111110000110001
1111111011111010
1111110011101010
1111110101000010
1111111110101011
1111101111101101
1111101010011101
1111110111110110
1111111110101000
110001
1111111111101011
1111111111101010
10100
1001011
1111111010111111
1111111110110011
10100010
1111101100110100
1111101000111001
1111111101111010
1111111100001000
1111110000110100
1111111100010101
111101100
100011010
1111101110001010
1111111110001011
1111110100110011
1111101111101110
1111101011101000
1111101101001110
1111111101110101
1111111110000011
1111110000000011
1111110010000101
1100101
1111111001111100
1101110
101100
1111111111101010
1010001
101010
1111111001011101
100110001
10010110111
1111111100011010
1111101110010111
1111101110110111
1111101010110110
11001
1111101011110111
1111111011100010
1001100110
1111110001001001
1111110000000101
100010100
10110111111
1111111100000001
1111110010000011
1111110100100000
1111011111001001
1111111000010110
1111110010001001
1111111011110011
1111111000100001
1111111111111111
1111111111110001
1111111111100100
1111111111101010
1111111111001111
1111111101001101
10111100
1101100101
1111111001010110
1111111101011001
1101111
1111110100010111
1111111010011100
1111110010000010
110100101
1100100011
110111011
1010110001
10101011
110010110
1111111111010010
1011101111
1111110011000010
1111011100101001
1111101000111010
1111110111100101
1111111101010001
1111111011101001
1101
1110111
110001
1
1000001
1111111001011100
1111110111100000
110010011
1010010010
1111101011011110
1111100100011100
1111110101101100
111011110
10010100101
1111111110111101
1111111100001111
1111011111010001
10001010001
1110101
1111110010100110
1111111111101010
111011101
1111111110100001
1111111011001011
1111110111010101
1111111010100010
1111111001010001
1111111100000111
1000000
111111
1000011
11
11011111
1111111100001000
1111111110110101
111000110
1011001110
1111101111011110
1111101011111010
1111101101111111
110110010
1111111111111100
1011001111
1111111101000011
1111111111011100
1111111111000011
1110001101
11101100
1101110001
1101010001
1111111100100001
1100011101
111010101
110010011
10001010
1110101
111111
10111
10010
1111111111011100
101101
1111111101110011
1111111110011101
1010010001
10000110101
1111110110000010
1111110110110110
1100101
11000010
10001111000
1111111110100000
0
1010110011
1111111110110001
1111111001011111
100011101
1010000101
10010010111
101110011
1000110111
10000100110
10000100100
1000111011
1000001000
1011
1111111111111001
1111111111010000
10
111000
1111111111000011
1111111110110100
1001001011
1000100101
1111111001101100
1111101010000010
1111111100110000
111110001
100100001
11010
1111110011011010
1111111000100101
1111111100110100
1111111110011000
1111111101000101
110111111
111111101
1111111100110001
1011110010
1101110111
100001110
1100001111
101011100
1010
11011
10110
0
100111
1111111111001100
1111111110010111
1111111111100001
11110000
100000100
101111011
1111111000100100
1111110010011011
1010110111
1100000111
1101010
111100110
1111111110011000
111110111
10010110000
1100011011
1111110011101000
1111111011111011
1001000010
1100011011
1010100110
110011110
11000
1111111111100101
10100
1001010
10010
1111111111110111
111110
1111111110110110
1111111110101011
100110000
110100111
1111000001
1101000011
1011100
10100011100
10000010101
11110010010
1111100110
10000101110
111111010
1111110001
1111111100000111
110000110
10010100011
1011100010
1100111011
1011011000
1001101110
1111111111111010
1111111111011001
11111
1111111111110000
1100
1000110
1010
10001011
1111111111111101
10011100
1001010
10001000
1110011
11100100
1111110110000010
1111110110011101
1111110011101001
1110111
111001110
1111111000011111
11111010
11011000
1110011011
11010111000
1011100011
110101001
110010010
100100010
111
1111111111000010
1111111111100010
100
1111111111101001
1111111111110101
101010
1011001
1011111
100101100
1100101111
101110011
101001110
1111111111010111
1111111101110001
1111111110010000
11001111
1011000100
1111110111111100
1111110110100000
1011110111
111111100
11110000110
10101110110
100000011
10011001
1111111100001101
1111111111100001
1111111111111111
110011
10011
11011
100001
10101
1111111110111111
101110
11000010
10010101
10101000
1111111111010101
1010010
1011000000
1111100101
1101110101
10000101111
11010001001
10010111000
10101100000
100000100
1100001100
1011001101
110011000
11010
110
1111111111101111
10
10101
1111111111001010
1111111111110000
1111111111101100
10000
1100
1111111111010100
11110
1101
1000111
11110101
11100010
111110
10011
1111111
1100000
111100
1101100
1010001
111011
1111111111011100
10101
1111
10101
1001111
0
1100
1111111111001010
100000
110
1111111111100110
