1111111111011010
1010
1111111111111111
1111111111111100
101101
1111111111011000
10001
1110
1111111111101110
1111111111110101
1111111111011100
100010
1010
1111111111001001
1111111111011011
1111111111010100
0
1
11110
1111111111100011
10010
110010
1111111111011110
10011
1111111111110001
1011
10
0
11011
101000
1111111111111101
1111111111111011
10110
1110
10111
1111111111101110
100000
0
1111111111111111
1111111111100100
1111111111100111
1111111111000111
1111111110111110
110010
1001
0
0
1111111111101010
1111111111100000
1111111111111111
1111111110111101
1
1010
1111111111110101
1111111110100101
111101
1000
1111111111110100
11110
1111111111100011
11011
10
1011
110100
11011
1111111111011011
1111111110010101
1111111011110010
1111111010101010
1111110111010101
1111111011000011
1111111100101100
111
1111111110011010
1000000
100101100
1010000
1011110
1111111111110101
1111111111111000
1111111111010111
10111
101
1111111111010111
1111111111111111
1111111111110100
1111111111111001
1111111110110100
11000
1111111111111011
1111111111110011
1011010
100111010
100001010
1101
1111110001010001
1111111001000011
10011111
1111111010111000
1111111101110011
1111111000101011
1111110011010010
1111111010110101
1010110000
1111111101000001
1111111001010100
1111110011101001
1111111010001101
11011010
100101
1111111111111001
1111111111111110
1111111111101111
1111111111111101
1111111111000101
11001
1010101
10001110
10010101
1111111111100101
1111110000001010
1111101110101000
1111110001101100
1111111001100010
1111111100011001
1111101011100000
1111110010011100
1000111010
110010010
1111101110100100
1111111001010001
1111111111111010
1111111010010100
1100100111
110001111
1111100
101110111
11011111
1111
100011
1111111111001011
1110
11000
1111111110111110
1111111111110110
10001001000
1100101100
1111111101001110
1000011000
10001110101
11001000111
10010001001
1111111010011011
110001101
1111101101100011
1111101111011011
1011011100
1011011001
1110010001
11111001
1100010000
1000110011
1101101000
1100000010
1111111010110101
111100
110111
0
100
0
1100110
10001
111001
11000100000
10011001010
1001111000
110000010
1011011110
1011101000
100011
1111111110010000
1111110100111100
101010010
1111110101100000
1111111111101110
1111111100011111
100011011
1111100000
110100000
1110000111
10010110011
10110100110
10011110111
1101101101
100110110
10011
1001101
1010
100100
1111111111101001
1111111000110100
10011110000
11001011
1110111
111110010
111
1110100001
1101010001
11100110
1111110001000011
1111111100000001
1011101000
11010100111
10010111000
10100010011
10001111011
100111110110
10111100001
1111111100010111
1100000010
10101111101
111111010
101001001
100111
1111111111100001
111101
1111111110111111
1111111110100010
1111110110001110
110000001
1111110011001001
1111111010010101
1111101111110110
1000010110
100110011
111001010
1010101000
1010010101
1111111001001111
11010110000
10010000010
100001111
10100001011
11010011111
111001100
1111110100000101
1111111000101100
110010001
111111100
1111111101101000
11100001
1111111111110011
1111111111001110
101110
110000
1111111010101101
1111111111101011
1111111111100000
1111111000010111
1111010
11110011
1100101
1111111100100110
111010110
10100001
1111010110011101
1111001111111110
1111011001001001
1111011110110100
1111010110010100
1111100100000111
1111011011010001
1111011000110100
1111010010000100
1111011101000111
1111100011011101
1111111001110111
1111111110001011
10001110
11010
1111111110111001
1011
10110
1111111011000101
1010010
100101101
1111111110011100
1111110110011010
1111111100001101
1011101101
1111111100011100
10101011
101010110
1111100010110001
1111000111111101
1111000000111110
1110111100001010
1110101010000011
1110101000000110
1110100011110101
1110111110010000
1111001111100000
1111001100101000
1111001000010100
1111101101111110
1111111101111111
111011
1101110
11
1010011
1111111111110111
1111111010101011
100100111
101100001
10000000
1111101101110000
1111111110000101
100111
1111111110111111
1111110110011111
10011110
1111111100100110
1111111101001110
1111110010110100
1101111
1111110010101001
1111101010101111
1111100011101000
1111010000110110
1111011110100111
1111001111111110
1111011011111100
1111101010001111
1111111011110001
1111111111101111
1111111111011111
1111111111011010
1111111111011001
100011
1111111011101111
1001110000
101000100
1111111111111100
1111111110101101
11001111111
1000010101
1001010010
10000101000
100101
1110011010
11000100
1111111000001010
101001110
1111101000010101
111010
1111111100101110
1111110111100011
1111110011100101
1111101100100111
1111101001111111
1111101011100100
1111111100010100
1111111111001010
1111111111100000
1111111111011110
1111111111110110
1111111111111000
1111111110100110
1111010011
10100101001
101001111
1011001011
1111111011100110
1111110000011000
1111111011011101
1010010100
10111111000
1111000010
1111111111011001
1111111000001001
1111110001101111
1111111101100100
1111101111001011
1111110101111001
1111110010111100
1111110011000100
1111110111111000
100
1111111111011110
1111111100100110
1111111111010111
1111111111111101
10101
1111111111001101
1010101
1111111110011010
1100001001
10011111
111110010
1011010000
1010110100
1111111101000111
100011010
1111111100010000
1111011001
1111110110010010
1111111110111100
1111111010111000
1111101000100101
1111110000101110
110010110
1111111000000010
1001001101
1111101000101010
1111111100111111
1101101000
1011100000
1111111110101001
10000
1111111110010001
1111111111000110
111010
1111111101111100
1111111011101010
1111111100110011
1111111010111110
1111111010001111
1111111001011001
101101000
1010101010
11101001100
1111110011011101
1001100011
1111111100100110
1111101100011011
1111110100001100
1111110111100001
1111111111101011
100010000
100101111
1001100000
1111111011101011
1111101101101011
1010000110
10010010001
100
111101
11101
11011
1111111111101111
1111111110111100
1111111100101011
1111111010100011
1111110011010111
1111100011101111
1111100101011000
1111110001101000
1111101101011101
11001010
1111110110100001
1111110100
1011010001
1101000101
111110011
100001
1111111011100001
1111111011110000
11001001
1101100011
11101010
10011010011
10011101101
1110011101
1111111111011110
1001111
1000001
10110
100011
1111111110011011
11010111
11111100
1111110001001000
1111101101111110
1111100101011101
1111101110000100
1111100110110110
1111111000111101
1111110010001111
1111101111110110
1111111011011101
1111110110000101
1111101110110001
1111011110000110
1111110100101110
1011010011
1111111010011011
1111111100110101
100010010
101010010
1101111101
111110001
1000001
1111111111101011
1111111111101001
11
101100
1111111110011000
111101
10100100101
11010010
1111110001111011
1111111100001100
1111100100010001
1111101111010010
1111101010000011
1111010000100001
1111010101000110
1111010001001110
1111010100101101
1111101101111110
11010101
1111111000100011
1111110111000101
1010000110
100011100
1001101100
1111110100010100
110010111
1010110010
1101011
1111111110110111
101
111
1111111111101100
11100001
100001
10110000101
1110011111
1111110101010001
1111101110110000
1111111000111000
1111100101001010
1111101011100010
101011100
1111111101000100
1111100000111101
1111111101111010
1111101101100111
101101100
100010110
1010110
1111111110111010
10011100100
101111010
1111110111100101
100000
10100101011
100111000
1111111111011110
1111111111110100
0
1111111111101100
1110101
10100000
10100011010
11101000000
1111111010110000
1111011011100100
1111111101110001
1101110010
1111111100010111
100011100
111000010
10000010100
1111111001111101
11101001
101000
1111100011
1111111110111110
1111111011011001
1010010110
111111111
100100110
10111011000
1111110001
100101100
1111111111011100
0
1101
1111111110100110
1111111100100000
1111111101100110
10010011010
100001001010
10101
10001101
110000011
1111111101001010
10001011011
110100101
1010011001
100100111
10011111111
1111011010
10101000
10001110111
1100110110
110101000
11011011001
10000000000
1111111100111011
11010000010
1100000100
100011111
1111111111010111
1111111111110110
1111111111110100
1111111111001011
1111111111011000
1001101
1011111001
1000101010
1111111111100000
1111110110001000
1011011000
1010111001
1111111011111100
1110100
1111111010100000
1111100100111011
1110010111
1111111100111101
1111111110000110
1011111
1000010110
110001001
11100101
100010011
1010111101
10010110011
111000
10111100
101011
1111111110101011
1111111111111000
1111111111011101
1111111111111101
10010110
111010111
100010101
1111111110101110
1111101111100111
1101101
10110101
1111111010111001
1101001110
1100101101
100101100
1001011111
1111111011110110
1111111000011010
1111110011101101
1111101001000111
1111110111001111
101101010
110010
1111111110001001
110111111
100010000
11011100
1011
1111111111111100
1111111111111001
1111111111101010
1111111111101110
1111111111101001
1111111100111100
1111111111010101
1111111011100000
1111111110100011
1111111110110101
1000011011
110001100
110100
1100100101
1010010001
1000001100
10110100
1111111010011110
110000111
10110001011
1000100110
1001000011
1100001
100101101
111001
1111111111001101
1111111111111000
10101
1111111111101000
1111111111110011
1111111111101011
1111111111111000
1111111111100010
1111111100101100
1111111010111100
1111111000000110
1111110001000000
1111110101011001
1111111100000000
1111110111101100
1111111111101000
1000110011
110110100
11001
101100100
10011
1000001101
1110111001
10001011001
1000100010
111110011
1000011101
11000010
10001000
111
11011
1111111111011111
1111111111101101
1111111110101011
1111111111100010
11000
1111111111110111
1111111111010001
1111111110100101
1111111110010100
1111111110010100
1111111010100110
1111111100011001
10000111
100100100
101011011
101101110
1001110110
1001011010
1111111101110111
1111111101111000
1100101
10011011
101011101
10100111
111011
11101
1111111111101000
110110
11001
1011
1111111111101100
11011
100
1111111111111111
1111111111111011
1111111111111110
101001
1111111110111000
1111111111100110
1111111111110001
111001
1111111111001001
1111111111101111
0
111100
101000
11000
1111111111011111
1
1111111111011110
10101001
111111
1111111111011011
1011
1111111111110100
1111111111101111
1111111111110101
