1111111111100000
1111111111110101
110
1111111111011101
1111111111101101
1110
110010
1111111111110111
111101
1111111111110100
1111111111110101
101000
1111111111001001
1100
1101
0
101000
101
1100
1111111111010011
1111111111011110
1101
10110
1111111111111110
1111111110111110
1111111111101001
1111111111110000
1111111111110000
100011
1111111111000101
1110
1111111111010101
1111111111010100
1111111111101110
101010
1111111111111101
1111111111010000
1111111111110101
1111111111100110
1111111111100100
1110
1110
101101
10000001
1111111110110110
10001
100011
1111111111111011
101000
1111111111110001
1000
1111111111000011
1
1111111111100100
10000
100101
10011
11
1111111111111001
1111111111001100
1001
1111111111110110
1111
11111
101
1111111111111110
100
1111111111100000
1111111111001010
11000000
110101000
10001001101
1111010000
110001101
100100011
100100100
100001101
10001100
1101101
101100
1111111111110100
101101
1111111111100001
10010
1111111111111101
110
1111111111000110
100
1111111111110011
1111111111110101
11010
1111111111011011
11111
110001
1111110001001101
1111101101010110
1111110011010010
1111110100101011
1111110011011111
1111111001010110
1010
1111111010101000
11001001000
10010001101
1111111111000111
1111111111001010
100000010
110100101
101010111
101000
1111111111101110
1111111111010111
10001
1111111111100010
101
1000
1111111111101001
1111111100111111
1111111011010110
1111111000110010
1111110111101011
1111101101101011
1111100001110111
1111100010110000
1111110001001001
1111111000111110
1111110010101101
1111101000111010
1010100111
1111111010110011
1111110101111000
111000110
1111111100011111
1111110111011010
1111110111011110
1111111101000111
1111111010111111
1111111011111000
1111111110001111
1011
10001
1111111111110100
1111111111100100
1111111111101011
1111111101000000
1111110011101110
1111110000011000
1111110010110011
1111111001100100
1111101101110110
1111101100011000
1111100111111001
1111101110000011
1111100101101010
1111100101010011
1111111011000011
1111101101110010
1111100111001100
1111100101010111
1111111001101101
1111111000100000
1111111000100010
1111110100010100
1111111010001101
1111111100110010
1111111010110011
100010
1111111111011101
1111111111011101
1111111111010101
110011
1111111111000101
1111111010111011
1111101100010111
1111100111010101
1111101011001111
1111011111110010
1111100000100011
1111100110100101
1111010111001110
1111100100110010
1111011110000011
1111101100000111
1111110100111111
1111101010111110
1111111011001101
1111101111001010
1111111101010110
111100
100011000
1111111000111001
1111111011111101
1011111
11010100
11001
110100
1111111111000110
1111111111010110
1111111111110001
1111111011100100
1111111101011011
1111111010110100
1111101000010011
1111100101101011
1111100000101111
1111101011111011
1111100011110110
1111011100010100
1111011000110110
1111011011000111
1111111101011011
1111101011010000
11101101
11011011
1111111011010001
1111110111011110
11101100
100001011
11001001
100000
1011001
1111111101110101
1111111111000001
1111111111111100
110
1111111111010110
1111111110100111
1111111011001101
1111111010010010
1111111100001011
1111111100111010
1111110010111011
1111101111011100
1111110110000111
1111110001101010
1111010010101011
1111001110001011
1111110010000100
1111011111111110
1111010001000111
10110000
1111111111001100
1111011000111000
1111110011111010
1111100100101001
1111110011100010
1111111011100100
101100000
1010101010
100010111
1111111111110100
1111111111110011
11110
1111111110111101
1111111111001011
1111111001010101
1111111110011101
101101101
1010011011
111101111
101100001
1100011101
1110110111
1111110100101101
1111011110000111
1111101101000011
1111010110100011
1111000111110100
1111110101001111
1111011111001100
1111010011111110
1111101100111010
1111100011111101
1111111110011010
1111110111011000
101000011
111100101
111001
101000
1111111111110101
11001
100000
1111111110101111
1111111101011100
1011001110
10010011100
10111100000
100001001111
11010101101
101000011101
11110011100
110011111
100101101
1001101101
1111101001010011
1111001101010011
1111101001101100
1111101100110110
1111111011101101
100010110
1111111000001101
1111111001000100
1111101111100110
101011011
101101110
1111111100101110
11011
110110
1111111111110110
10110
1111111111110000
10000010
10101011011
100001001001
100001111110
100101011111
100001111001
100011110111
100101000111
11011011001
11110100011
110000001011
100111011111
111101100
1111011010
1111111010100000
1111111011111011
101111000
1111111010101000
101111010
1111110111010101
1000001010
1111111111111000
1111111100000000
1111111110001101
1111111111111101
1000101
1111111111011011
1100
111011010
11000001100
11101010011
11010100111
11101011100
11010101000
100101111110
11110000100
100001001000
100000001
1101100010
111010011111
10011111100
10011001
1101000111
1111110101111011
1111111001110001
1111111001011111
10101011
1111111110001110
11010010101
1111111111000010
1111111011110110
10101
1111111111110001
110101
1111111111011010
1111111110100001
101110011
1111101011
1010101010
11000110000
1100001111
1111111001100100
1001001000
100000111
1000001110
1111110
1000101111
100011000101
1111110001
10000100
1111111101011111
1111111000011010
1111111111000101
11101100
1001
10001111110
11100101111
10100111
1111111100101011
11000
1111111111101110
1111111111110010
110011
1111111110100110
100001100
111110011
1111111110001010
10010111001
1111110011101111
101010000
10101010010
1000101111
1110010100
1001001100
1100111010
11010011110
10101010100
10100111001
10011010
1110101100
110011000
1110111110
100111010
10111101100
1001011010
1111111111110011
1111111111110001
1111111111111000
111000
1111111111011100
11010
1111111110001001
100001101
1111111001111101
1111111010111011
1001001010
101011100
10010100110
101010111
10000010
11011000000
11000111001
11001010000
10001010100
1111111000110001
1111110101000101
1000011
1001000110
10101100101
100111100
1111111000100011
1111111100101010
101100000
1100111
1111111110110111
1111111110001001
11
110111
1111111111011011
1111111111000101
1111111110010101
1111110101100011
11101111
10000011011
101100101
10011000001
1111111111001011
1111110101110100
10010000101
10010011100
11001110011
101001111
100101000
1001010000
1000111101
101010100
101110100
1111110111100010
1111110011010010
1111111100101111
1000010100
11101
1100001
101
100011
100011
1111111111100111
1111111111000111
1111111000110100
1111110010100001
110001111
1100100101
1111111101110100
10101011011
11110101
10100100000
11001001101
10100101011
11110101100
11001000111
10110000110
111011001
1111110011011100
1100110100
10000100100
1110000011
1111111010010101
1011100000
1100001011
1111111100001001
1111111100010001
1111111110100111
11000
1011
1111111111111000
10010
1111111011011101
1111111001001100
111111001
1000100110
1111111010010100
11110101
10011101110
110000
1100101110
10100110101
11101000010
1011111111
1111111000101010
1111101100100000
1111111100100100
1111111111111011
1011111110
11011011111
11101110
100111110
101110100
100100
1111111101100111
1111111101100011
1011100
1100
1111111111100001
1111111111000010
1111111110010111
11101110
1010110
1111111001001011
1111111100010101
110111101
10000110011
1111110011001011
10011100100
1111110001110010
1110100011
1111111100010010
1000111011
1111111000110000
1111110010101110
1111110111001010
11111111
10011001
1101111
1111111101111111
101010111
110110111
110000
1110011
101011
100010
1111111111000001
1111
1111111010011011
101100001
1111111010100111
1111110100011110
1111100111110101
1111110101000100
1111111111110100
1111110110101000
11011001
101011111
1111110000001011
1101110000
1111111111011010
1111100101000110
1111111010101100
1111111000100100
1111110100001100
101011001
1111111011111110
1111111111111111
100001100
100111110
111101
1000110
1111111111110101
111
1100
1111111111100010
1111111101000111
1101000
1110100
1111110011110010
1111100101110100
1111100000110101
1111110010001000
1111110100111011
1111110101000011
1111101100100101
1111111000110000
1000100011
1111110010101110
1111110101101101
1111111000010010
1111111011111110
1111110100000011
1111111011000101
1001101
1001110
100011101
11101101
1010001
1111111111101111
0
10110
111100
1011
1111111110010011
10101110
1111111011101100
1111101010111111
1111100100101001
1111011111110110
1111101110001110
1111111110101001
1010000000
1111111000010101
11011
1111110111100011
1111111000100100
111100100
1111111000000010
1110000000
11101001
1100110010
11011011
1111111110111001
110101010
1111111111111110
111101
1111111111110111
1110
1111111111111111
1111111110111110
111001
1111111111010100
1111111110111100
100010
1111110111100010
1111110001111000
110010101
1100111001
1111111001000011
1111011011000100
1111110110000010
1111111010001011
100000
111001
1111110111011110
1000000111
1111100100
1101111001
10001010010
1111111111101111
111000111
101100110
1111111111101001
1111111111101110
1001010
1111111111100111
0
1100
1111111111110001
1111111111010010
1111111100010011
1111110011111100
1111110100101100
1111110101111011
1111111111110010
10101100111
10000101101
100100
111001011
1111110100000100
1111111011101011
1111111110111010
101011000
1111111110110111
1111100
10101010100
1110111010
1000010010
111010110
100101100
1010111
1111111111110001
1111111111100111
1011
1111111111101010
1111111111010110
100
1111111111110110
1111111100011010
1111111011101000
1111111101001011
1111111101001111
1111110100110001
1111101110101111
1111101100100100
1111111000110100
1111111011101000
1001010
11110110
1111111001001011
10100010
1111111111001100
1111111001001101
101
1001001111
1000111100
11110101
1111111111111011
10100
111110
1111111110110001
1001
1111111111101110
1111111111100010
101
1111111111111110
11101111
110110000
11111010
1111111100000100
1111110010001110
1111110010010100
1111110010000100
1111111101011001
11111101
1011011
1111000
1111111111101111
1111111001001110
1111111110101000
1111110111110110
1111111101000010
110011
10011011
1111010
1110
1111111111100101
1111111111111000
100111
1000110
11
10001
1111111111111100
11101
1111111111010000
1111111111011000
1010001
1111111111111000
110100
1111111110110011
1111111111101100
110001
110010
1111111111100011
1111111111011111
1111111111100110
1111111101111010
1111111111000111
1111111110000000
1111111111000000
1111111111110101
1110
1010010
0
1111111111011111
100
1111111111100111
1111111111111000
