1111111111011111
1111111111110000
1111111111110101
1000
111101
10000
1110
1111111111111000
1010
1111111111110000
1111111111110000
101
1111111111110100
11011
1111111111111111
1111111111111010
1111111111010101
1111111111101111
10101
101101
101111
1111111111111010
10010
1111111111101111
1111111111011110
10111
101001
1111111110101100
110101
1111111111100001
10011
10001
1100
10001
1101
11010
101011
110001
1111111111010110
0
1111111111010000
1111111111111101
1111111110111000
1111111110000011
1110011
101001
1111111111011101
11001
10101
11101
101
100101
1111111111111111
1111111111101011
1111111111010011
1011
10110
1111111111110111
101111
1111111111111000
1111111111011110
11100
11101
111
110111
10111
1001111
10001100
100110101
100110001
1111111010110100
1111101100000001
1111110101000101
1111111001111000
1111111010010111
1111111101010011
1111111111101010
1111111111110111
1111111111100001
100110
0
10
11110
1111111111111111
110010
0
1111111111111100
1111111111001000
101
1111111111110001
1001
101110
10000100
10100100
111101111
1101100011
1001000000
1010111
1111111110101111
1111101101000001
1111101110011010
1111110111011111
1111110110101100
1111110001011010
1111111011101000
1111111110100010
1111111111110101
1111111110010100
1111111111001100
1111111111011111
10010010
1111
1111111111110001
1111111111101111
10010
11010
100
1111111110100111
1001101
1111110
110100001
10000100011
10111011001
10001101100
10100101100
1111111101011010
1111110011010000
1111100110101110
1111101110000110
110010111
111100010
1111110011111010
1111110000000100
1111110100111011
1111111010000000
1111111001000110
1100011
101010111
11100100
1010101
100011
111
1111111111110101
1111111111110111
1111111111101110
1111111101000011
1111111111011110
11101101
110111011
101110100
1010000011
10110001010
11110110101
1010011010
1111110011110010
1111101010111010
100001101
1111111100111111
1111111111110000
10010000100
1010110101
1111111011001010
1111111010001010
1111110100001000
1111111101111100
1011100110
110001111
10011000
1111111111110010
1111111111110001
111
11000
1111111111101010
100101001
1100111101
10001010100
101011101
1111111011110010
101110111
10110011
1111111101000100
10101101
1111111000111101
10100011
111001010
1111111011011011
1111110101100000
1111111110001001
11001110
1111111100011110
1111111111111010
1111111100000010
1111111100101000
1001000101
100010001
1110100
11110
1110011
1011001
100101
10100100
10100100101
11011001011
11011011100
111100111
1111110011110111
1111111100011011
1111111110001100
1111110001101000
1111101111010101
1111100001011010
100100011
1111111011011101
1010010101
1001001111
1111111111100010
1111111111011100
1001001001
1111011110
100001
1101100110
1010010001
1111111111100101
10010010
1
100100
10001101
1111111111011011
1000010011
10011011010
10010111010
1110111100
1101010
1111110111101011
1111110111
1100010011
1110000000
11101000
1111110011011011
1111111100011101
1111111111
100001111
1111111010100101
110110010
1110010000
1000001100
1111111011011101
1110010011
1101011110
1111111101010010
1000111
1111111111110101
110101
101101
110111
1111111111110011
111101111
1000111101
111011011
101010010
10111001
10111
1111111100100000
10000001001
111000100
10010111000
1111110011101010
1111101101000110
1111111011111100
11110101
1000000
1111111010000001
1010101100
10001010
10010100
11101100011
1110110
1111111110100011
1111111101110111
1111111011011010
11
1111111111100101
100101
1111111111101101
100001110
11011110
1110010110
1101100010
1111111111110000
1111111010110111
1010000101
1001011110
1000011100
111010101
1111110101101010
1111101010010011
1111101011110110
10001110000
1111111110010111
1111110000000001
111001100
11110100
1111111110100001
111011
1111110011101110
1111101110010011
1111111101100111
1111111111100111
111001
1111111111111110
1111111110111100
100111
111
11100110
10001000011
1111111101
101000101
1110
1111110110100100
1100001101
100000111111
1100101000
1111111110001010
1111111111111110
1111100101001101
1111110110010011
1111110010011010
1111110110010100
1111110100110000
1111110000110111
1111111011000100
1111110011100101
1111110010100110
1111111011000000
1111111111100101
1111111111100110
1111111111011000
1100
1111111110110011
110111
10000010
111000000
1100011111
1000011000
1110111011
10001100010
100111
1101111110
100111000011
10110100
1111101101110001
1111101101111101
1111101101101001
1111111101110011
1111110111011001
1001100000
101111011
10001011
1111111100111101
1000100
10000001
1111111101101111
1111111011110011
1111111111011100
1111111111100001
110001
1111111111000000
11110001
1000110
1101101001
1000110011
1111111100111110
1111110111100000
1111111001010001
1111110001110000
1001111101
10011110000
11000001
1111111001010011
1111110100101011
1111111001001001
11000111
11100001111
1011100100
1010100101
1000101100
1011110001
110110000
101111000
1111111111100110
1001011
1001010
1111111111101100
1111111111110101
1111111111010000
11011101
11111100
1101010100
1000111100
1111111111110010
1111111110011001
1111110110100100
1111110000001100
1111111101010101
1010001
11110011
1111110111111001
1111110101010010
1111111001110000
10011010100
10000000000
11010101
101101001
110011
100110001
10011100
1011111
1111111111100111
11001111
1111111111110001
101001
1111111111101101
100
101001110
100000001
10110000
10111110
100001101
1100001000
1111110101101000
1111111011100110
1111111011111100
1111110001110111
110001011
1111111101011010
1111101101011010
1111111011001001
1111111101110111
10010100
10010001001
111011011
1111111101010000
11111100
1111111101001001
110100101
110100111
11000110
1111111111111100
1111111111111111
10111
11110
101111110
1111111110101000
1111111001000100
111100101
11010110110
10111001011
1110010000
111010110
1111111111101000
1111100011
11111000
1111110010011110
1111101111111010
1111111111110011
100110011111
100000110100
11000000010
100100000
100011110
101111110
100000100
1011001010
1000000111
11010110
1111111111100011
1111111110110000
1111111111000110
101
111111
1111111011101100
1111111000100100
10001111011
100111001000
100110000101
11101110111
10001110110
101111010
10100100000
101011110
1111110001000000
1111111010111010
100000010001
101000110001
10001100111
1101011100
100111011
11110010
1111111011011001
1111110111100101
1111111111001100
11111000
1111111101111010
1101
1111111111100110
100100
1111111111101111
100000001
1111111001100111
1111111011101101
1111110010
11101110101
11101010110
100010011110
10011001001
1111111
100
1111110110111000
1111111110110111
111011111
11001111101
10100001011
11100110
1001111110
110011011
1010110000
1100001110
1001100011
11100100
1111111110001101
1111111110000001
1111111111010001
10101
1011
1111111110111110
11110
1111111101000101
101100
100100
1111111001111110
1111111110110111
1001010000
111101
1111111011110000
1111110011101001
1111110111001000
101101111
10111100011
111011100
1000110010
11000000
1001001100
1110010111
1111100111
110011011
101111000
1111111100100001
1111111011011101
1100
1111111111110010
1111111111111011
1111111111011110
1111111111010010
10110110
100001010
1111111010101000
1111101110001001
1110001
1111111001111101
1111110100000111
1111110000101111
1111110100111000
1111111011110000
10010
10011001011
10101111101
1111111010101101
100100000
1110010110
111101100
1000110111
110010
1111111011101111
1101100
1111111101011001
1000010
1111111111101110
1111111111001101
1111111111101010
0
10001111
10101010
1111111011001001
1111111110010011
1111110011011011
1111101100100000
1111110000100100
1111110101110101
1111011100111011
1111110111001001
1111110010110010
1001110111
10000001011
1111000010
10000010100
10111101001
11100000110
11011010010
1101001001
11101001
100000000
10110010
10011110
1111110
1010101
1111111111100000
1111111111100001
110010
1010000
1111111011110010
1111111101101010
1011001
1111110100111001
1111111101000011
1111101110010101
1111110111101000
1111110110100010
10000
1111111110000011
1111111111010010
10101101100
10111010100
11101011101
11100010010
100001110001
10100100101
1100100110
101101000
1000101
1111111101100000
1111101
10001010
0
1111111111111001
1110
11110
10001100
1111111110100100
1111111110101001
1111111110001010
1111111101100000
1111111011111010
1111111110011101
1110111100
10000101011
1100100101
100011100
1010110111
100001100100
11111001101
100001001101
11010100110
10111101000
10000011011
1010111111
111001111
1011001
1111111011111010
110101
10000110
1111111110111110
1111111111101000
0
1111111111110111
1011011
110010
1111111111110001
1111111010111001
1111111000111010
1111110000100101
1111110011101110
1111111011000000
111010
111010011
1111001111
100111
10110101
10110000010
11001100101
11111010100
10110010111
10100000110
10000100010
111001001
1111111100110000
1111111010011001
1111111111100100
1
100011
1
1111111111011100
1111111111000100
1111111111101110
1111111111011111
1111110101110111
1111101111100000
1111110011011000
1111110101110000
1111101111011101
1111111000000010
100011011
10110000
101101100
1111111101111000
1111111111101011
10000111101
1100100100
10001000100
10010111000
1111000100
101110100
10000101
1111111101100001
1111111100010101
1111111110110110
0
101
1111111111011011
1111111111110001
1101
1001
1111111111010011
1111111101010010
1111111001000001
1111110110101000
1111110100110110
1111111101011011
1111111000111000
1111111101110001
100000001
1111111000110011
1111111000101001
1111111011011100
10000111
1111111110001001
1111111101100110
1111111101111001
1111111111000011
0
1000
0
1111111111010000
101000
100100
11100
1111111111010011
1111111111010001
110011
0
1
1111111111100110
0
1010
1001
1111111111011110
1111111111111101
10
1111111111001111
1111111111100101
1111111111000011
1111111111000101
1111111111110011
1111111111110101
1111111111000101
1111111110100101
1111111111100011
11
1111111111011000
101110
10
10100
100111
1111111111110101
1111111111000010
