1111111111011111
1111111110101001
1101
1111111111110011
1111111111111101
1011
1111111111110101
11001
11111
0
1111111111100101
1000
1111111111011110
1111111111100010
1001011
1111111111110000
1111111111111010
1100011
1111111111111001
1111111111111110
11011
1
110011
100000
10
111
10010
1101
1111111111001010
101000
1111111111111101
11101
110111
1111111111111100
1111111111110101
1111111111101001
10110
1111111111111101
1110
101
1100111
1001
11010
1000001
110001
1011100
1111111111111010
11101
1000100
110100
11110
10101
1111111111011101
1111111111110011
1111111111111111
1111111111110001
0
1111111111111001
10100
1101
1101
1111111111111101
10011
1110011
1111110
1011001
11010101
11000110
11111010
101000110
11001011
100101101
101101001
100001100
100101110
11010101
1100111
100010
1111111111110000
11001
100100
1111111111111111
1111111111111001
1001100
1111111111110000
1011
1111111111100101
1111111111101111
100010
10011011
10011011
100011000
1011011111
111011011
100011
1111111000010101
1010001100
10010010011
100111101
1101000010
10001001111
1100110110
1111110101
1010110000
1010001
1111111111000010
1111111111010011
1010110
1110101
1001010
1111111111101000
1111111111111111
1111111111100001
1111111110110001
1111111111110110
10101
1011000
110101100
1000001111
1011111101
10010110101
1010100000
10000001001
1001111001
101110000
10000001011
1100100010
1110010100
1011000110
1111111101010001
1100000100
10101110111
1111111101
10001010001
111101011
1111111100111101
1111111011111100
1111111110001111
111111
1011
1111111111111011
1111111111011000
100001
101011
100100100
1011011001
10001011000
11010100011
1101010101
110110101
1001000110
10010101011
101011000
1011101010
1111111011010001
1011101110
10001100110
100100111101
11110110010
101000011001
11111101101
1100111011
1101111011
100001111
1111111110101001
1111110
100110
1111111111010001
11111
1111111111111000
1111111110011110
1011110
101001010
11111110
10010101000
11111110000
10000000010
10110100000
10010100010
11001011011
10100111100
11000011100
11011100001
110111001100
110010110111
101111101101
100011001101
1011101111
1001101000
1111110011101100
1111110100010011
1111111011000000
1111111101101111
10100000
10111
1000011
1111111111011011
110000
1111111101011011
1111111101110110
111011111
10100011
1100110010
1011010010
1000011111
1001111110
10110101011
10010111011
101110101000
100101000010
101011101110
11000100110
1110001
1111101001001101
1111110001110110
1111101101001011
1111100100001000
1111100010010010
1111100111001100
1111101101111100
1111111010100001
1111111011110101
1111111011100000
10100
111
1111111111101101
1111111100101011
1111111101110100
1000
110011111
10000
1111110110000000
100111110
11101100111
100101010101
10000000010
10100110101
111011101
11011
1111101101111001
1111011010100111
1111100001000101
1111101010011000
11001011
1111101000011111
1111110100111001
1111110101010000
1111101000010100
1111101010100000
1111111100000110
1101100
1000010
100
1111111111010011
1111111110111011
1111111110001011
100001111
10111
11000000
110111001
1111111111100011
111000100
1111101101101100
1111111100000101
1111110101000100
1111011110011101
1111100011000011
1111100000100010
1111010011101001
1111101101001110
1111101101111111
1111111001001111
1111101101001111
1111110111111000
1111111110100001
1111101010100110
1111101110000111
100001011
0
1111111111000100
1111111111110010
1111111111100000
1111111111111001
1111111111001011
1111111111110101
100011
1111111100101011
1111101110101011
1111101100010000
1111100110010010
1111100001100001
1111101010010000
1111011111100100
1111110001000001
1111110000101111
1111100100010100
100111111
1111111100010001
1111111011001000
101010100
1001100
11011
11011010
1111110010000010
1111110010000110
1111111100100110
0
1111111111010001
100001
1111111111110001
100011
111110
111011110
1000101110
1010001100
1111101011001101
1111100100110110
1111100000010111
1111100110100011
1111110101111011
1111100111100111
101101100
10100000011
1111000010
11110011111
1010101100
101101100
1111110100000110
1111110111100111
1010110
100111100
1111111111101011
1111111110011001
11001110
101000101
101001
11010
0
1111111110101101
1111111110110001
1001011011
111010111
111000001
1111110111101001
1111101010000110
1111101001011111
1111110001100010
1111100110000011
1111100000000010
1111110111000000
11001010011
1111111111101110
1110110111
11000101001
1000010010
1111110011100011
1111110010101011
1111110001010000
1111110100101011
100110010
1111111110001000
10101
1111111111010000
100101
11011
1111111111110110
1111111110000001
1111111101110011
1111111001001001
1111111000000011
1100000
1111111010101010
1111111010101010
1000011
1111011111110001
1111011011110010
1111100101010111
1000
1110001001
111000
10000111100
1011011000
1111011101
1111110010111100
1111111001001101
1111110100110110
1111110110010000
11000
1111111010001000
1111110111111010
1111111101000010
1111111111111111
1111111110111010
1111111110111010
1111111110000100
1111111111110001
1111111100010110
1111101110011000
1011001101
1000100001
1111101110101000
1111101011000110
1111100111101111
1111010010110001
1111010111010110
1100010110
11001100110
1100100000
1000110110
1111101001011011
111101101
1111111100100000
1111111010111010
1111111010100001
1111110001010100
1111111010100000
1111111111110011
1111111111010110
101
1010
1010011
1111111111101010
1111111101101111
1111111111011000
11101100
1111111110111110
1010000111
1111111100100100
100101111
1111110011100110
1111101100000001
1000
1111011101011111
1111111110010100
10011100110
1111111110100000
1011011100
1111110111100101
110011
1111111110000011
1111110101100110
1111111110001101
1110110
1111111100001111
100111
10100101
1111111100101010
101011
1111111111101111
1
0
110000000
1010100001
1111111101011010
1110010
1111111000001110
1111110100000010
1111111101000010
100000
1111111011001010
1111101110011000
1111111110110101
1011110100
1111111100111110
1111110011111110
1111100011100110
1111111001010010
1111110100100111
1111111001000111
10000
1111111100111010
1111111001101001
1111111111011101
1011110
1111111100101111
1111111111110011
101
1111111110111111
110100
1011011101
1100001101
1111111110010100
10101101
1111111111011101
1111110100100111
1111100100110111
1111110100110011
1111111001101011
11010
1111111001101010
110010101
1011100101
1111101110100000
1101000
100111001
1111110010011101
1111110100010001
1111111111111111
1111110001101110
1111110100100111
1111110101111010
1111111101000100
1111111101101110
1111111111110100
0
1111111111111101
1010100
1101000001
1010001001
1111111010010101
1111111111010110
1111110100
100
1111110100100010
1111101011101100
1111111000001000
1111111010010011
1111111010010101
1111111101111101
1111111010101001
10010010010
1110110100
1110011100
1111111000111101
101110001
1111111011110010
1111111110100110
1000000
1111111101001110
1111111111110011
1111111110010001
1101
1000100
100111
11000
1000100110
1000001111
1111111001100110
101010100
10010010011
1010111101
1111011111
1111111111100011
1001110000
101100011
10110100000
10000010011
1111111100000101
11000110011
1000000000
110000101
10010101
100101110
1111111011010110
1011011010
110100111
101100110
1011010
100001
1001
1111111111011111
1111
1010000
111101010
1000100001
1111111111010110
11000
10000110100
100100000010
11001010101
1010100101
101110001
1111111011111010
111101101
1100011111
1111111111010000
1010111111
1111110001100100
1010111110
10000000001
1101110100
1101100101
10011001111
1001100101
110000011
100110
111000
1000
10101
101
1100110
1000100010
110100001
1000101100
1001001110
1100100000
11000110001
11011110001
1101000010
100100011
101000000
1100111000
11000100010
1111000100
11011111110
111011111
1111100101
101110011
10000111010
1110001111
10111011
1010101011
1001100011
1010111
1111111110101011
1111111111101011
1111111111101101
1001
100
11101111
1111100011
1111101101
1011001010
10000000001
1011111010
10111101100
111011110
1111101110110110
1111101110010111
1101101110
10111111110
111100
10111001100
1100000101
1111101
1111111101000011
10011111101
1111111101011010
1111111111011000
1100000100
1000000100
11001001
1001
1111111111111001
10001
111
1111111111110110
111110
1010000101
1111100101
1110101011
1101111001
1010100111
1001010110
11010100
1111101101100000
1111111000101101
111100100
1111111000011111
111111000
10001101101
1010101001
1000000100
10000011
1101010010
1010
1001010111
1000110110
110010011
11101
111000
1111111111000010
110110
1111111111101101
1000000
1001
11010100
110001011
10011111101
10111101100
10001110011
110111100
110011001
1000001010
111110010
110110010
1111010011
11010000110
11000
1111110
1111111110010100
1111111100001101
1111111100101010
1111111100010110
1111111011011100
100001001
10010010
1111111111111000
1001001
10010
1111111111111001
1111111111100011
1
1111111111010001
1111111111111110
101100111
1011010001
1011010100
10001010111
1000001010
1111111110100010
1111111001001101
1010101111
101100010
1111111101100101
1010001111
1011001100
1110010
111110000
10011010001
1000010010
1111111111010101
1111111100001010
1001
100000
1
1111111111111010
1010110
110110
101101
1111111111110101
1111111111100011
1111111111110101
1111111111011000
1111111111101011
1111111100110100
1111111011111111
1111111101001010
1111000
1111111101100110
1111111101100001
1101000
10110101
1010100111
1101011111
1101100110
1010111100
1011010111
11111001
1111111111111110
11011
1111111111101011
110010
101000
1110
1111111111110011
10110
100010
1111111111010011
11010
1111111111101100
1111111111011010
1111111111101101
10
110011
1111111111100011
1111111110101100
1111111111010001
10111
1111111111100011
1111111111100000
101
100110
1111111111111110
10011
10100
10111
1111111111001110
100111
1111111111011010
1111111111110000
1000
1111111111110011
101011
