1110100010001101
1111111101111001
1001011111001
1111110
1111111101010101
10101001
10000011010
1111100011001111
1111100010100001
1010101111010
1111011101010010
1111100011000111
1111111000001011
1111011101100111
111111011110
10010110100
1110110100011111
1111101001010011
1111101000010110
10100
1001111101010
101000010000
11100110001
1001000001111
11000001100
1111010010100111
1111111111101000
101011100100
1110101001
1110101010100110
