1111011011001001
1111001101111010
10111000110
1111111010110010
1111001111001101
1000100101111
1111101000000111
1111110001100000
1111110010010100
100010001100
1111110010001111
11000101011
10001010000
110110
1111110001001001
1000110000
1111001100100111
1111110001110101
1111110111011011
101000100111
10011001011
100000011000
111011
1111100110010111
1111111111000001
1111101110000011
1111001011110010
1111011101011000
101110110010
1111100010011011
