1111111011010001
1100001111
1111001011011011
1111100101001000
1111111000111010
1111101100111000
1111111110
11000000111
1101001110
1011000000111
1111101111101110
1000011011100
100100000010
110000111
1111100111011001
1000101101101
1011110101
1111101100011001
1001111110
100100000001
100011111011
1110001000
1100110100
1110111000010001
1111101100110010
1110011100100101
1110110010011111
1111110111101101
11011
10011111111
