100001001011
1100010100
1111001001010110
1111111101011001
1111001011100010
100000010011
1111011010111110
10010101100
10101111010
1111101000000100
1000100001
10000011100
1111101110100101
1111101001100000
1111101010101101
1111100001111011
1111111111010011
1111111001011000
1111010000000110
110000010
1111110100110010
10110000011
101001000100
1111011100000110
1111110111011111
101110010
1111110110001000
1111010110001011
1111111110010101
10111001010
