1111101010010001
1111000011100111
1111110111010000
101001011010
1101101110110
1101111000100101
111011111110
1000010
1111001011100111
1110101011111000
10110110101
1111100011100001
11000101111
1111011111010101
1111001101100101
1010000100110
110011101011
101111011011
110111000010
1110101110110111
1111101111001011
1111011111110111
1110101011110101
1111101111101111
100001111111
1111001001011001
101010100101
10000110101
1111001001010110
101011001
