11100111110
1111011101010
111100100101
1110101010101101
1111110101111010
1111010111010111
1010110001110
1111001001101101
100011001011
11010000111
1101101101011
1111101101100110
1111110101010000
1111100110000000
1111101000000010
1001010000
101111100110
11101111110
1111111111101110
100011010101
1111010110011011
1101111111100000
1111111111100111
1011110100111
10100101111
10110111110
1000100100000
110101101000
1111111011000110
1110110111110110
