111111011
100011
11111100101
1111001001100111
1111111111000111
1111000101101000
110011111101
11101000100
110110110100
1001100010011
1010010111101
1110110010100110
1110010110011010
1110101110010010
1111111111110001
1110101100001111
10111111110
1111110000010000
1111100111
1111110111111110
1111110001101001
1111010110100001
100110000
101111101000
1001001110
111101111100
10000000011
1001011010000
100101000
1110111101011101
