1111100010011010
1111100101001100
10011010000
1000110011101
10011111101
10001101101
1111011101111101
10001010001
1110111110001000
1111001110111000
1110100111001110
10000
1111111110100000
110101011
1000101111110
1110000001
1111010101000100
1111110111011010
1111110100001011
1111010010111100
1111110011000010
1001010011101
1111101000000100
10101100000
1111110101111110
1111101001011100
1111111011010110
1000000010
101011101
100101011101
