100110000001
11100001010
100111001001
1110111001011111
1111011011011000
111110111000
1111011011011010
1111011110100001
11011010110
1110111100110
100100000111
1010100101
101011010101
1010111011000
1111110110110101
1111101100011111
1111100000101101
1111001001010011
1000110010100
1100111100111
1110111000111111
1111001111110001
101101011001
1000100101
1110111110010110
1111101101110000
1110111111001111
1001100011
1000110101101
1111001101110001
