1111110011010111
111001
110000111111
10100000101
1111001110100011
100000100110
1111011101010010
1111000101100110
1111011001111111
1111000100110010
1100001101
1111101010100001
11000000001
101100100011
100110
1111010101011011
1111101101101101
1111100111010110
1111100
11100100
1110011010011101
1111111101111110
10010010
1000011100011
1111101000011000
1000000010010
1001111111001
1111100010011010
1010111100
1000101
