1111111111110111
100111111001
11001101110
1111110101000101
10010000000101
1101111000100000
100001011010
1111101111001110
1111110010000100
100001000111
1111111100111010
1111000010010010
1111000011001101
1111111110000000
10011001000
1110101100000100
1000000000111
10111011010
1011101010010
1110100110001101
10110100100
1111110110100100
1110111001010011
1000000011110
1111111010110000
100011101011
1000001001100
1001010011001
1111000111000101
101011101001
