111011111110
101101010
1111001101010111
10110110
1111000000100111
100011101110
1110110110000110
1011101011000
100111111010
100010011010
1110111011110101
111011101100
1110100101001010
1111110010010101
101100110110
1110101101000101
1111011000000001
1111101001110100
1111110110100100
1111001010001110
1110111000000101
11110011101
100000000010
1111000001001001
1111101101000001
1111111000110010
1110100110100100
101000000010
11000110110
1111101100011101
