11011100001
111101010110
1111000110010111
1111011110011000
11100011111
1111001100001000
1111101010010000
11110000001
111010010100
1100100010
100101111011
111100111
100010001110
110111010110
1111100001101111
11010100
110110110000
1111110110100010
1111101100100100
1101001100
1111110000110010
1111000010011110
1111100111110101
1111011111110010
1110111100000010
11000111110
1111110101100010
1111100010001011
1111000101010011
1100010011101
