1101010011
1010111011110
1111101110011100
1110001111110001
1111100100000100
1111001111100001
1000100100000
1111010001000000
111110101101
111011000111
10000000101011
11001110010
10111010
1111111010111100
1110001001011100
111101000
1010001011111
101110011011
100110010101
110110100101
10101011
1101110101100110
1010001
1111110100110000
1011011001
1111110000001100
100111111000
1111110101100100
1111011101110010
1111001111100101
