1111010001001011
10001
1010000000001
1001010001101
1111100110010111
1011110101000
1111110100000010
1111000010100011
1110011001100001
1110011111100101
1110010110010100
100100
101011100100
101000101010
10010001110000
11001101110
1110100011101101
1111010111100000
1110110001101111
1110001111
1011011000
1000100111100
100001100011
1111011010111
1111100110110010
10000000011
10110001011
1111010110001001
1011011100
101101001
