1001111101111
11001111101
1100010000
11110111010
110000001
1111101010010000
1111011111101000
1000011101
101011101010
1111010101011110
100010010001
1111101010100001
1111000010001101
111001000110
100111000111
1110101110000100
10010110100
1111000001011100
1001001
100001001010
1101110000011001
1111011010001100
11001000111
11110011110
1111110001100000
1111010101110
1000011011101
11110111101
1111100000111101
1111111111001111
