1111110000111110
1110100000011001
1110111110101100
1101010011
101001000001
1110110111000101
1111110010110111
1000000000011
10111000000
1111000101100110
11001110111
1111011111100110
1111001001000001
1110110110011010
1111011001101101
1111100011101011
1111111110000111
101101001111
1000000101010
1110011110010000
1111111111111011
1111111011101010
1111001011111100
1110100010111011
100110110110
100010001
1111111011110001
11100011101
1111011100100101
1111111110010111
