1111000000101000
100000111
1111010011110010
1111111011011010
101000011010
1111110000011010
1111110001101101
11110101
1111011110011100
1111100101011010
1111011001100011
1000010001000
1011011000111
101111100
1111101011010100
1100101111110
110001001100
1111101
1110101111100110
1111011011110010
10000011001100
11011100011
1111100001011100
1111100101101110
1111110010101101
1111001110101000
1111111000101110
1110100110000110
1111000100111100
1111100010111
