1110110010101011
100001100011
1011000010010
1001111010111
1001011100110
1111011010000011
1100011111
1111001000001010
1110100011000001
1111101110101000
1110110001111100
1111010000000000
110101011000
1111101101011011
1001011000011
1001000001001
1111011011000100
1111111111101010
1111011101010010
1110111000100011
110000010011
101001001011
1111010110000011
1110001110110
1110000
1110111000011010
11001110000
1101110
1111100111101011
110100110100
