1111100110101111
1111111000110110
101110001001
1111101011101101
1111110000001101
100111000001
1111111110000001
1111100001100011
1111111101110011
10010011011
1101111
100000011
1001010101
10001000000
10010010001
1111110001011110
1111101010010001
1111110001010101
1110011010
11001011000
1111110110110100
111101101
10100111000
100111100000
1000101110
1101001100
1101011000
1000011001
1101101000
1111011111100111
