100011010110
1010100010001
11001010000
1110110101111001
1111110111111010
1111011010011010
101011010001
1111100110101010
11010000101
1111100110
1010010010010
1111100000111011
110010100
1111100101100110
1111101111111001
100100001
100010110110
1110000000
1111101011001000
10111010001
1111001000101101
1110010110010001
1111101111100101
1000001000111
1111111100111110
110011000
10110011110
101101010110
1111110100100110
1111010000111001
