1110101100101100
1111001100001110
100111011011
10111000000
11101010110
1111010000001001
10001010111011
10110001110
1111111000000100
1111111011111011
10011101
1111010000010000
1111010101110110
1101010010001011
1111011100111111
1010011001010
1010100110
1000110000001
110000000
1111100111100111
1101000001110
110001011101
1110111110000101
11100110010
10100101000110
11101110001
10010001010
111110010000
100110111
1110100110101111
