100011000111
1110101100100001
1110101010100000
1011000011
1111111001100010
11111001011
1110011100111000
1110110101111
1011011000011
1011110111011
1111011001011010
110100111101
1001110111
101110101111
1111111010010000
11010111100
1111010111110100
1111000110101111
10100101101
101110001110
1111101011110110
1011110100000
11000100
1110000101010111
1110100111111110
1110010100110001
1101010001100000
11100100011
111100001000
1000100110
