1111110110101010
10000111111100
1111101000101000
1111100100101111
1110110111111011
111100010110
1111110111110001
1111101011101010
1111100111100000
1111001100100100
11001110
1011101100010
111010100111
1111011100010111
1111011110010101
110001111001
100000
101000010000
1110001110110010
10001010111
1000100011101
1111110111110100
1010001010001
1010011000
10000101111
1110110101001110
100110110011
1110100100010001
1111010110111010
1000010001011
