10111001101
10001011101
1110111110111010
10010100
1011011111
1111011110001010
1111011101001101
11011110110
100111110101
1111111100010100
1110011111
111100101
1111010100100001
1111100111111010
1111110110101000
1111110001100111
1101110100
1011000100
1111100111011000
1111110111111110
101001000101
111111110
100101110111
1111010000101101
111111011
1111111110011001
1111110100110111
1111110010111011
1111100001001010
110011001010
