11110010001
1111110001011100
1111101101101001
1001011111
1111011001101100
111100101
1111111110111000
1111100100001100
1111110101001010
1111110101010110
100010101011
1011010001
1111011110011111
1111111110101111
1111000111110110
1111010101011000
100100100
10000011110
100111100011
1011010000
1111001110001001
1111110001010110
11110111
1111011001111010
10010110011
111101111
1010011001
1111100100101001
10111000111
1111100100100110
