1111101000110011
1110100110111000
101110110001
110000100110
11101111100
1111101111
1111011100110111
1111010100000001
1111111110101100
1110110100100011
1111100100001001
1110100011011010
1110111100001011
1110100100100111
10001011011
1110011000111001
1111000000010101
1000001010011
1001001111101
1111011010100010
1111111001011011
111011000011
1111101010100001
100001010101
1100111100111
1011100000000
1101000010
101101010101
111101010001
1110110011100010
