110001001
1110010100011000
1111100010111001
1000001011010
110011110
11001111101
1111000110000111
101011110110
1111101001001110
1111011011001010
1110100110111101
11011010000
1111111000111011
1111110101011001
101010000011
1111111011010110
1111010010101001
1111101110111010
100100110101
1111100010011100
1111000101101011
1010010001000
1111000101101011
1111000111101111
1111110001011110
1111011011011111
1110111000010001
1111110000000100
111001010000
1111111001101111
