1100111101011
1111110010101110
1111111010111100
111001110100
10110010010
1111001101010011
1110111110110000
1111111110100100
101100010011
1110111100010101
11011000101
1111100000010110
1110000001111101
111101101010
1001010111000
1110001000111011
10110010000
1110101000111011
10101101011
101011000111
1100111001000101
1111101010001000
11111110010
1011010
10111110011
10001110101010
1001001001100
111011010110
1111001111110010
1111111011101111
