1111001100111101
1111101101101010
101000100011
1111101100101010
1110010011111010
10001100111011
1111010010010100
1111100011000111
1111011010110101
101011101010
1111110101011011
1011011110111
110110110010
110000101100
1111101001011011
1111111100110100
1110111011000111
1111110001110100
1111111100011001
111111110010
10101001111
111001000010
110111001101
1111111100101111
1111100111010001
1111110101111101
1111001011100000
1110111101000110
1100100000100
1111000110100101
