1101111001000010
1110111110010010
1011100101111
1111110111011001
1111111001110101
1011011000111
1010100000011
1100000011010
101110000110
1111111100110111
1110001101000111
111000101011
110100100
1111100110101110
1100101101111010
1111111011000011
11111
11011011110
1000101000111
1111110011111110
1111101110001101
100010010110
1000010011101
111100110110
1110110110001101
1000100010011
1000101111010
1110111111110001
111010110011
10101110110
