1001101010111
110011110
110001100111
1110100110101100
1001110000110
1111111110100110
1000001000
100001000101
1101100000
1000001010010
1111110110101011
111100101100
110111001111
101000110001
100001000
1000100001110
1111110010101111
10010001011
1111001100110101
101010100111
1111111111110101
1111111001011111
10110110001
1000001000110
1111010000110101
100110011100
1111110100101101
1101101000110110
1111110001100000
1111110011001010
