1111111011101101
1111110010000001
1111110010011010
1110101100101100
1101111111101110
1111001010100101
100110110101
10100011110
10100100011001
11100011111
1110110100011001
1111111100000111
10111000
101101110111
10001010011000
110001001100
1101010000010111
1111111011100110
101011101001
1110100001100110
1000100001100
1111100111011011
1111101101101111
1000100111110
1101101101111
1110011110101110
1111000111111111
1001111111011
11100000100
1000011011011
