1000111010010
100010001110
1111000101111010
1110110011111011
100011011000
1110110101
100010111100
1111110100111110
1110110001100000
1111001010011010
1111100100011
1100011011
1111001100010111
1010010011010
101000001110
1111110111000100
101111011000
1111110001101011
1110110101011
1111111011111100
1111101100001010
111000100000
1111111100011001
1101011101111100
1111110110101101
1110011001110
1110100000011101
10001010010100
10011101100
1111011000001100
