10101011001
1111001011011101
1100101111100
1111011111010001
1111111011010110
111010111010
101010101001
1110011101111010
1110000011011100
10010111010110
11110011110
1110010101001010
1111011010101
1100110000111
100110100011
1000110011101
10101000011
1100010010100
1101110010001010
1110000001000
1111110001100011
1101100000
1111100011100001
1111100001001010
1111000100111110
1111000110010100
1110000011001100
1110101010111100
1011101101
1110110001110100
