1001010100100
1001001111110
1110011111100000
100100000
110010001010
1111100111010110
1100111000000101
1111010100011101
1100111100010
1101101000010011
1101110111110
1101000101000
1110010001011010
1111000110110101
1000100110101
111100101111
1111001000010110
1111011010100110
10111111100
100001
1000111110
1111101010100100
1111111101001011
1111111000111110
1111000001000100
11011001010
110010010101
1101010101101011
10001110110
110101111100
