1010100001001
1111101011111000
1001101111010
1111001110100111
10101000101000
1100110111100100
11001010011
1101101000111010
1111111001111001
111110011100
1111110010110100
1111010110100000
11110100000
1101111000111000
1111100111001011
110110001101
10101010110110
1110001101010011
1010110001100
1110101001010101
101000011011
1111000000001101
1111011110
10111101001
1011100100110
1111110011001101
1101001001000000
10100000000011
1110110100100111
10011000
