10001011011110
1000001101110
1101111111100100
1111101101111100
1111010110001001
1011010011100
10111010010
1001101011110
1111010100110111
1111011011011101
1111100100011100
1011011000000
1111111110001011
1101011100011011
1011100101000
1111110010010010
1111010010111001
101100100111
11101000
1111101010000011
10001111001
1111101101100101
1111001011000001
1101011001011
111001111001
1111000110110110
10100110011100
1110010011000111
1111100101110000
10010000010
