100100011001
10101111101
1111010110010110
1001011101001
1111110110100001
1110100101110111
1111000010111101
1111110110110100
1110011001010101
1110011101010110
10010001100100
100001011
1110111011001100
1000001001010
1111110011110000
1110100111110110
10001111001
1110101011011011
1110111011000111
1001001000100
1111011010100010
1001111011101
1111010011000000
1110010011010110
10001001100
1001110110101
1100100110010
11000001111
1101011110
1111110000110101
