1111101011100100
1110100110010010
1111011100110
1101101100001
1110101000011011
1101000011110111
110110001
1111010011011010
100101101101
101001101001
100100011111
1110110001010111
100000100111
1001000110110
1111010010010000
1110101101000111
1111010011110111
1110001001011000
1110010111110100
111001110011
1001110100
11010000100
1111111000010011
1100011011100
1010000000011
1110101100000110
1000000110011
101010011001
100100
101101011100
